/**
  ******************************************************************************
  * @file    human_activity_recognition_data.c
  * @author  AST Embedded Analytics Research Platform
  * @date    2026-03-04T15:21:13+0100
  * @brief   AI Tool Automatic Code Generator for Embedded NN computing
  ******************************************************************************
  * Copyright (c) 2026 STMicroelectronics.
  * All rights reserved.
  *
  * This software is licensed under terms that can be found in the LICENSE file
  * in the root directory of this software component.
  * If no LICENSE file comes with this software, it is provided AS-IS.
  ******************************************************************************
  */

#include "human_activity_recognition_data.h"
STAI_ALIGNED(8)
const uint64_t g_human_activity_recognition_weights_array[754] = {
  0x3cf5844d3d00303cU, 0xbd2f21123cd06858U, 0xbb13e33fbce2cd19U, 0x3ce01e923cd93a2fU,
  0x3d69cab8bc2853e7U, 0xbd0e849a3c1bbb85U, 0xbcbe55f1bce06bd5U, 0x3c95061dbd1595edU,
  0xbd3ae43a3ac8de3eU, 0x3d2b18b93ccfd88dU, 0xb9f77f3fbd223eebU, 0xbb2cbd9fbc5c3d65U,
  0xbc4d64303d1dcd0cU, 0xbca63ff9bd1cf9b7U, 0xbd23a0a73d01be1fU, 0xbc58fc0b3d0c8422U,
  0xbbba881abb0fbee4U, 0xb870b2093cc8aa5dU, 0xbb9a53573cae4ecaU, 0xbd47f3263d22e938U,
  0x3cd78ee33ccc1c67U, 0x3b58727a3c666712U, 0xbc365425bd286d9bU, 0xbacfc12d3d4ce610U,
  0x3cc2895e3cf381f5U, 0xbd49cf873ca1b3d9U, 0x3c073930bc8cb89fU, 0xbd09bc053c90dfe9U,
  0x3cf38aeb3c8d1dc0U, 0x3c7211663d67f59cU, 0xbd194d6d3b69cc0dU, 0xbd094cd2bcc25dd8U,
  0xbd0c168fbc77dfacU, 0x3d399a9bbb3ca85eU, 0xbc5108963c71a4cdU, 0xbd1f82d43c0813d2U,
  0xbcfec07b3d2f1e3fU, 0x3c28932f3cafe337U, 0x3c72319e3d220742U, 0xbc8c6f18bc56fa2dU,
  0xbc9984f4bb4af558U, 0xbc00a6723caf618dU, 0x3c77c7843b5c0f84U, 0xbaba6108bbeb09d9U,
  0xbc8d9a31bbab6ad0U, 0xbc842af63b81978aU, 0xbaff27d23ca5b4b2U, 0xbbd668cfb9f873f0U,
  0xbcf6535a3d8bafb8U, 0x3d127803bc90633aU, 0xbc03957ebc4b3bdfU, 0xbcba7c933d7f6a2cU,
  0xbc88c6c1bc562f87U, 0xbb03e1efbc33deabU, 0xbc9ec257ba72abb8U, 0x3c702478bc7af82cU,
  0xbcf6535a3d8bafb8U, 0x3d127803bc90633aU, 0xbc03957ebc4b3bdfU, 0xbcba7c933d7f6a2cU,
  0xbc88c6c1bc562f87U, 0xbb03e1efbc33deabU, 0xbc9ec257ba72abb8U, 0x3c702478bc7af82cU,
  0xbcf6535a3d8bafb8U, 0x3d127803bc90633aU, 0xbc03957ebc4b3bdfU, 0xbcba7c933d7f6a2cU,
  0xbc88c6c1bc562f87U, 0xbb03e1efbc33deabU, 0xbc9ec257ba72abb8U, 0x3c702478bc7af82cU,
  0x3e151bf93f3f7942U, 0x3f2070f2bdc2676dU, 0xbef5a132bea728faU, 0xbf3c948c3f84f54dU,
  0xbe80d8163ead21cdU, 0xbeb3688dbe82d7d6U, 0xbc17a5afbe323d42U, 0xbded279abe8b1b6aU,
  0x3e5bc6233e228372U, 0x3e21354abe607f72U, 0x3f04aaed3d656af3U, 0xbec0c3453e4e297aU,
  0xbd9108b5be108be3U, 0x3df14352bee3ab4fU, 0xbe529cf5bf2eab06U, 0xbe76af773f546a0eU,
  0x3eb63bf63e20a2d8U, 0xbc118028bdddc8b4U, 0x3e66c7293ca12d81U, 0xbf0d06b83f4224c4U,
  0xbf10878cbe23691fU, 0xbe953984bf15011fU, 0xbe6197873e0ab771U, 0xbe17c5dd3f317792U,
  0x3e392f403f436afcU, 0x3ed362e03e873f37U, 0xbd1ae9d2be03b998U, 0xbf3a21143f46cc8eU,
  0xbf00fef5bf1e7bdfU, 0x3d3326a5be961f3aU, 0xb98c571b3b1f1012U, 0xbed4a7c93e34ffbdU,
  0xbdff28a1bdf90185U, 0x3f22c43abc0a833eU, 0x3e97bf493f17d324U, 0xbf1ca5453dfaa647U,
  0xbec0c66dbf17ff48U, 0x3d486fb93dac3f61U, 0xbea89302bea53681U, 0x3e7510e2be629770U,
  0x3efeab1cbe1d9d15U, 0x3f16cc213e47a478U, 0xbdd3d946be64a23eU, 0xbdde63273ee17ccbU,
  0xbda32cec3c93326bU, 0x3e38169d3e2a1a57U, 0xbe8158e5bebd754eU, 0x3e4ce5743f056e00U,
  0xbdfdb8d43e5195c0U, 0xbe82dfc83e9cf4ddU, 0x3f163a2cbe8112c2U, 0xbee721693f7f6f1eU,
  0xbed05e70bea0788cU, 0xbe41d934be85d836U, 0xbe94c4dabded6510U, 0xbe6e270abed8f8bfU,
  0x3d9680773ed9a7ddU, 0x3ee164ff3ea4adf7U, 0x3bbf8d2fb9092932U, 0xbe7d4925be85a2acU,
  0xbef8a9b23e940f5dU, 0x3d5f5a573dc1edd8U, 0x3ec6cdff3e0344a4U, 0xbedc594b3f345244U,
  0x3e072b5f3eb0f280U, 0xbcf0cca43d33f03fU, 0xbe3fbbd2bd3a3d73U, 0xbe3a41bdbdf8bd0cU,
  0xbefb2bf53e01f6abU, 0xbf1cea433c95dce3U, 0xbeabf89fbe0b2b0aU, 0x3ea64fa6bd06df13U,
  0x3e6f6cb7bc646df3U, 0x3ec50b5f3d15cf7dU, 0x3ee749bd3d86d4f3U, 0xbec40123bf0349acU,
  0xbefcabafbe14f4b4U, 0xbd87d878bd8ec3c4U, 0xbe6ff953bef4c3c2U, 0x3dd7fa8ebf40bbdcU,
  0xbee33f20be1ad8b5U, 0xbe8f4ebd3d69ca72U, 0x3f8191c33f1f4e07U, 0xbe17adbdbe100896U,
  0x3cfda0e7be27a314U, 0xbeb3fc5f3e12d787U, 0xbe854f753d85b83bU, 0xbe621be33db2faccU,
  0xbe95d507be2a7568U, 0xbd864d1b3e0d7319U, 0x3b006f12bed112dbU, 0xbe0cfb6b3f2a9297U,
  0xbea2d222be9169f8U, 0x3e3504c3bdd507f9U, 0xbefe0223bea971b3U, 0x3ea43d67bd3ee244U,
  0xbed059993ece792bU, 0x3ea3644b3ebfc30fU, 0x3e4ba9d43ee147a8U, 0xbf0ccb633f735aadU,
  0xbe84edf53e8943f4U, 0xbd54f4f3bf0b9b1cU, 0x3ed124523e3c66d2U, 0x3e9c6c94be37477fU,
  0x3e2d0697bd8f70e4U, 0x3efbc632bee6e6e5U, 0xbec1cbe0be97976eU, 0xbcc06b5fbda628f0U,
  0xbe2c7459bf0a6aa9U, 0xbe863982bcd59907U, 0xbd90f46ebef1eef8U, 0x3db872ca3f0cbfc6U,
  0x3efdaf613d30974eU, 0x3e89b4bc3d54c6a3U, 0x3f498a273e0c5d23U, 0xbe38a06a3f65987fU,
  0x3e22d08c3d5cf522U, 0x3e10060f3e16bc0eU, 0xbeb6657bbf012ac9U, 0x3e1f50183eb60dc3U,
  0x3f24795a3d789c96U, 0x3e8cefd1ba27fff0U, 0xbde47982bf32a424U, 0xbf6e65b53deddf5fU,
  0x3e59f6583ea6174bU, 0xbe9393cfbf03f839U, 0x3e6b826cbec798d6U, 0xbe263d2b3f273c4fU,
  0x3eb4335abe99ea45U, 0xbe54a5093e907d27U, 0x3e7addcc3ea012bdU, 0x3e36aa1ebda06a20U,
  0xbec0177b3e8ab98fU, 0x3e8acf443ee9b1fdU, 0x3e5298e83e90d75bU, 0xbec8523bbdbd8c4aU,
  0x3e5f531a3ea7645eU, 0x3e562334bd17bd20U, 0x3e577ab23cae4e20U, 0xbf19eb723f02fd35U,
  0x3e0eb6bdbf327b03U, 0x3cb822903e4d507fU, 0x3e7657603eb37e15U, 0x3bb428893f8a79acU,
  0xbefd3055beb72b54U, 0xbbe98dc7be0a283eU, 0x3f51b26d3ed6042fU, 0xbe117c79be97000eU,
  0xbedffcf1bcf72f00U, 0x3e86eebbbd9d5dc7U, 0x3c4a28423d8d4b8dU, 0xbf07ee6cbf470287U,
  0xbe13d89a3e912c06U, 0xbe114c403db7813fU, 0xbe0ea272bf368962U, 0xbe745b59be0a2a8eU,
  0xbf17321dbec9ac44U, 0x3d4a4537be8370f2U, 0xbe5aaf513e9d4e95U, 0xbe576ad33f93d3ebU,
  0xbdb31aa43eb13584U, 0xbe08d6f03d33e66bU, 0x3e9a764abcd2235fU, 0x3f03a5b2be23b6fcU,
  0x3c1a2a05bf0dab4cU, 0x3e5887d5beb99bb5U, 0x3e11779dbebdae07U, 0xbefbc0b93ed67740U,
  0xbe09c4433e4426a4U, 0x3ec7d823be3a3c36U, 0x3e9c9995bd912d72U, 0x3da3076f3f9b29b2U,
  0xbeba799dbf32d50fU, 0x3e476197be8cd0a5U, 0x3debac743e096562U, 0xbf03edf6bda099b7U,
  0xbceef6973e9254e8U, 0x3f297c5ebeefcc27U, 0x3ede762a3ea73d48U, 0xbea46f683be864d4U,
  0xbee20944bf236547U, 0xbe5aa311bef01201U, 0x3e5cd9e3be50bec4U, 0xbf1406b9bd98a67fU,
  0x3ea565c3bdc24e41U, 0xbf65157c3e3c100bU, 0xbdc9b5523ee52563U, 0x3d9090433eba30abU,
  0xbbf31bc7bf143e13U, 0xbeab0e423e4dbeedU, 0xbcfc58a53e02ff5cU, 0x3e5de6883f127ce7U,
  0x3ec6ea803ed64977U, 0x3ec2a894bdc80c06U, 0x3d329547bea36622U, 0x3e7e00c0bf0a95cbU,
  0x3e176129bd50ef80U, 0xbe811632bf201837U, 0xbec67c0fbe47249cU, 0x3daae51b3e031dccU,
  0x3e91bc303e84cd17U, 0x3ed10509bdb41f9bU, 0x3f062b8dbde3edd6U, 0x3ea7e99b3f3644f7U,
  0xbeb7747e3e6e934dU, 0xbe832b5f3e954f59U, 0xbef1a94bbd1f8e58U, 0x3d71818dbc91dbffU,
  0xbe1092573edaac91U, 0x3eb1469cbdbb594aU, 0x3e4428563f0c98f9U, 0x3e0117243f9a34eaU,
  0xbf3dd107be1e30f6U, 0x3e065d81bcfa9c21U, 0x3be5ba4f3e2e89ddU, 0xbf11ec3c3df6772cU,
  0x3f02e9a83ea71f8eU, 0x3f29f131beca2a5eU, 0x3d802ddbbe7d8b35U, 0xbf20efd93efd5abdU,
  0x3e376a86bdf6d607U, 0xbe00a44ebe455354U, 0xbe71ba71bed43cc4U, 0xbee7ecf2be708df0U,
  0x3ed84ea3bc98479dU, 0xbc2af5473de3dfb8U, 0x3e3bd42e3f0a0adeU, 0xbf725fdf3ef69b53U,
  0x3e671d84be96f8ceU, 0xbe20bb46be369bfcU, 0x3ee6951fbf20c373U, 0xbec5402d3f48ed8bU,
  0xbea999d53edbc02cU, 0x3eaa8a433e55eeafU, 0x3f026cd33e09d170U, 0xbd51c2c83e3a9b23U,
  0xbec9b0cfbdec5ad9U, 0xbe959f9ebeacb139U, 0xbeae3718be6f0644U, 0xbd0c0f5abeb9530aU,
  0x3f11615a3e49157aU, 0x3e8cc643bc2e0ceaU, 0x3eae73403d6fdda2U, 0x3da53668bf7f3528U,
  0xbf1acdb33e4926c6U, 0x3e5d655ebe8877b1U, 0x3f667d32bed0f942U, 0x3e5f90b4beada08fU,
  0x3f0215833ea535baU, 0x3eb7b69ebd902df7U, 0xbe2399cc3dcafce9U, 0xbf355de73e987384U,
  0xbe573d503cabc9f9U, 0x3b9177b2befe653aU, 0xbe44678abd5069fbU, 0xbea360b53f4530beU,
  0xbe7647dd3ef915e2U, 0xbde727f13e44288bU, 0x3f0fbed13db7024dU, 0xbedd771dbf6857c1U,
  0xbee682e2be290b25U, 0xbe5ac473be872485U, 0x3e78a0d4bf09bb78U, 0xbe8fc6bd3e90ada4U,
  0x3f1077683eda1c5aU, 0x3f2fb21ebe25981eU, 0x3f336111bf15db4dU, 0xbf0c40e23e978ff7U,
  0xbe3cf6a8be626084U, 0xbd12ebb7be156591U, 0xbea2ce06bf046fe7U, 0x3e87ec47be5a373fU,
  0x3f45bed2be32294eU, 0x3f84a35fbe8d92e1U, 0x3f6541c43cb023d4U, 0xbf072525bd4d6a31U,
  0x3e4a1bebbea3463cU, 0xbebd09b0be650624U, 0xbe076037bd01a4d5U, 0xbf4759d33f28ea36U,
  0x3e7458e8be120addU, 0x3dde4273be451ec4U, 0x3ed3a78dbba3cc6cU, 0x3e412bf5bee82ae1U,
  0x3e4ef123be97a7c4U, 0xbd8a145b3ca96803U, 0xbe2f89313a8e4452U, 0xbe88980e3d3d5444U,
  0x3ee6c941bd997f87U, 0x3dc33ba83ebc1f77U, 0xbef0a2623ea8310eU, 0xbd573b353cbddb52U,
  0xbf225545be397115U, 0xbefd5aafbeadadf2U, 0xbbe398f1bebed2c0U, 0x3ed967f73de3e104U,
  0x3ef5270a3e92debbU, 0xbee692083eb02fc3U, 0x3f1f628c3e4b895fU, 0xbf0b35c53f7ab186U,
  0xbe9b31c83e62b491U, 0x3db395eb3e5142f1U, 0xbeaf98913e96cf80U, 0x3eb351bf3f058ec4U,
  0x3f010332bdef3ecaU, 0xbe7191b93ea2e51aU, 0x3ee90334bd30d1c0U, 0x3ecfad05be2dd17dU,
  0x3d8a902abeb2db89U, 0xbea2d1d8bdffa742U, 0x3ef83c97beeca06dU, 0xbe50517f3eea820dU,
  0x3eb421bfbde513dbU, 0xbdd24f2bbe357d56U, 0x3eac4b0d3dd3c1deU, 0xbf208932bf12dd00U,
  0xbe82de23bec43750U, 0x3dfe9a933e235f44U, 0xbece029fbe600049U, 0xbc6f6a90bee66290U,
  0xbe40877b3ed94131U, 0x3f2a2c02be85dc82U, 0x3da55d1dbe683520U, 0xbeddcf443fc64047U,
  0xbe2653fbbf063c4aU, 0xbc2f7c9f3eb7fa4cU, 0x3dc8ba96bef6f334U, 0xbf163acc3f27aa85U,
  0x3ebdbab13e23a93cU, 0x3ebc4e583eb7dedaU, 0x3d854a863effbdfaU, 0xbf5ab508be1d5bb5U,
  0xbec119c7bdf39619U, 0xbe55b74abccf889cU, 0xbeb23c073ebccdd4U, 0xbefd5cb43ea79f72U,
  0x3eb5a225bd81b3ffU, 0xbe78b693bdaa5ba1U, 0x3f4122d93dd94802U, 0xbeac4e233f08d5c5U,
  0xbea875d5bf0521c2U, 0x3cf25d60bf12d307U, 0xbe7f8099be8505ecU, 0x3e2e0113bcecba09U,
  0x3f38be913eda929eU, 0x3e933fd2bed0dbbdU, 0x3f53b52a3f0a23eeU, 0xbe899a79bd1186b2U,
  0xbf1b883ebf2cfba1U, 0xbeb7ded6bf1d49a5U, 0xbda16b90be8ce8a2U, 0xbf20b5c83d19510dU,
  0xbec884203e8d7469U, 0xbf01f927bd424980U, 0x3fa016763d51cbb6U, 0xbd519f4dbf137c5eU,
  0xbf2ac3a6bea9d998U, 0xbdc1bf3fbf328dd9U, 0x3eb77930becdab37U, 0xbe13a96cbea68ce2U,
  0x3f1b1f2f3c212216U, 0x3f40d1e13e7d1fccU, 0xbbf36f75bf0e6caaU, 0x3e73c5f93f493816U,
  0x3dd3b37e3e954ce4U, 0x3e24c02f3e8f415dU, 0xbf30abe13c5140f1U, 0x3f30277dbf8059ddU,
  0xbe31f9b73eb55203U, 0xbe8234013e85d3a6U, 0x3f57b83d3e1bcc3cU, 0x3d1d2f08be8ba8d0U,
  0x3c7789bf3e620d13U, 0xbf0d47723f02ab2bU, 0x3d505205be25edb7U, 0xbec52be13e247a26U,
  0xbebe18843ecc3eb4U, 0xbe21b3b13f1785f7U, 0x3f1c16c43e9faf98U, 0x3f1fe5d83e89fec0U,
  0xbf1d45013ea5a0f2U, 0xbed0e125befcb5abU, 0x3f278683bcd5d7a2U, 0x3e6dc6743f6aacc8U,
  0xbe2d118c3f230218U, 0xbe647b0fbcfa3c25U, 0xbf0b58733eb09caaU, 0x3e23906c3e2ef86aU,
  0xbee73b57be081e25U, 0xbb0a9148bf02ec07U, 0x3d98b2d8bd5067e0U, 0xbe7706e9bf15df3dU,
  0xbed23c473e208d0cU, 0x3f94b33fbdd3de20U, 0x3f5229e93eafa772U, 0x3ea43ec63f98be98U,
  0xbd423edfbf14e57dU, 0xbed72144bd70e236U, 0xbe8281653eb56918U, 0xbe3fc40cbef41480U,
  0x3eae88f8be992b1dU, 0x3e952b323e925d6aU, 0x3cbcc8a6bcbeab58U, 0x3e9de7e1bf1d6d78U,
  0xbe5d2706bf256e2dU, 0x3e9168533e6b8a1dU, 0x3e1bcce73d11eb68U, 0xbe9c91203f0bec4bU,
  0x3eead7403c830350U, 0x3e903bdabe5dc8efU, 0x3e94497dbeba128dU, 0x3e263bdfbe8853a4U,
  0xbf0ac8943ccedbcaU, 0xbd7d59cd3e9a7104U, 0x3e023668be5c633eU, 0x3ea957653eb4b6bbU,
  0x3e654a33be4cb11aU, 0xbd1b00f53a5d8c19U, 0x3eb0e2933f0164b6U, 0x3eb849703e59cb33U,
  0xbe68e694bee9deb1U, 0xbeadcbbebf1c3a50U, 0xbecdb2e9be9670dbU, 0xbd90761c3ecf9b72U,
  0x3d84a81bbdedf218U, 0x3d6ed628be1a9c26U, 0xbd6440633eebad8cU, 0xbf1fd9b83de49679U,
  0xbebc0150bf2cbbd4U, 0x3e1286253dc5c4c8U, 0xbe0623fa3e4f3d13U, 0xbe3a9418bd3efe98U,
  0xbd8c0dc6bd9adb24U, 0x3f14f13e3da4f20aU, 0x3e49bc1dbedc0e43U, 0xbe5964843e1cd252U,
  0x3c994984be90a10bU, 0x3e092f54bf078123U, 0x3e420fb5bf240ba2U, 0xbef0779e3f07ab9bU,
  0x3f225f593f27fa53U, 0xbe5f9dc7bf0707c1U, 0x3f38b1e5bed74574U, 0xbe71525b3fb29d97U,
  0xbf4fb8ba3db62471U, 0x3d1fe06cbf14b707U, 0x3cd84b9dbf2ffec7U, 0x3ebd57e63f5bc7e0U,
  0x3e16b4883f2b2f71U, 0xbe1783283d79daa0U, 0xbea6aa653da0d997U, 0xbd5a60fb3f9b9c74U,
  0xbe03ea33bedf5bcfU, 0x3cb84a79be66da2dU, 0x3ea142c7bf12487cU, 0xbd8001e7bca49bbfU,
  0x3ef276773f32518fU, 0x3f80da6d3dfeb334U, 0x3edb5ee3bdf1614eU, 0x3eb52c1fbe67f63dU,
  0x3c93d177bedefc83U, 0x3dce295f3e44bd87U, 0x3db50fc4bf02ef3eU, 0xbea3c8033e99d335U,
  0x3ce5753cbe4e9657U, 0x3ede7ecfbd5bd458U, 0x3f7fc6153f0fa6b8U, 0xbf56e23f3ee007b1U,
  0xbe07d542bf1ce876U, 0xbd23e873bdb563f5U, 0x3f1ed47dbec1660aU, 0xbe86397fbdd5dcb6U,
  0x3ecc41693e2f8669U, 0x3f8c0dc7bdec91b4U, 0x3ead83003cd1ac48U, 0xbebaa5e23fd52c7fU,
  0xbeb3373fbe743b03U, 0xbd01595b3d68223dU, 0xbe41ecd2bf1e083aU, 0xbe1ed77d3f3112f0U,
  0xbded45143ed402dcU, 0xbf58250d3e69add0U, 0x3f90c45cbea6ccd2U, 0xbedeeb2d3f1aa2a9U,
  0xbe08c312becb8949U, 0x3d1f50b8be688ab4U, 0xbe20975dbd885052U, 0xbec297543e5d59fdU,
  0xbf1460efbdb1a6d7U, 0xbebc80f13e8d2c9eU, 0x3e4f47e2bebdbc1aU, 0xbeb25edb3d5929e1U,
  0x3bcde245be9dba13U, 0xbef833d9be97627cU, 0xbd1996c03f098cfbU, 0x3eeada973e890c45U,
  0xbe166e303e71d6eeU, 0x3f2db617bd97cebbU, 0x3eabf66b3e7e3fb9U, 0xbd08b69d3d95f014U,
  0xbd6b1af23e3da77cU, 0xbedb24353efc5f04U, 0xbf76ccf8bde04923U, 0x3e4580e8bf19e75cU,
  0xbead4162be3e7459U, 0x3f5b66bf3e506d74U, 0x3f96e9eabe2c8f9aU, 0xbedab18c3f0ec147U,
  0xbf3d83f03e139df1U, 0xbe664e69bc8ca946U, 0x3a490087be28ef89U, 0xbf285fe3be619daeU,
  0x3f0498ffbe3be225U, 0x3e9d8149beca1962U, 0xbe6a73183e040738U, 0xbf0ebfdf3ed855afU,
  0xbf161b93be9b9eadU, 0x3e8d3d353e5be43bU, 0x3e580c3c3e98b932U, 0xbeeb59af3f2842d1U,
  0x3eb064abbeb1a252U, 0x3ec5ea1abdc53ea7U, 0x3e5d4c8f3e9139f3U, 0xbe27d9fa3f060353U,
  0xbf4199c0bf11d80aU, 0xbe0f1b593f3009f3U, 0x3e196afb3e427577U, 0xbeaa414d3ff5f8c5U,
  0x3e0d7a29bea55cb6U, 0xbca2a684beab9c0dU, 0x3f749af43e9a3d7bU, 0x3e20e54abf311d3cU,
  0x3e39fb87be0466d6U, 0x3df393d53ecb2ce6U, 0x3f0853a03ed09a1aU, 0xbe9a7069bf5e36acU,
  0xbcd63c36be21ffa9U, 0xbe6d35c63ed8e7dbU, 0x3f10ceadbca69e6bU, 0xbead00e7befdb885U,
  0xbcfa2c853ef237c0U, 0x3db9adc4bdc798fbU, 0xbeafb7b03edd0268U, 0xbec2a0c53fbff942U,
  0x3f6368433e816795U, 0x3eb890c8bc97cf0eU, 0xbeaa99493f61ff46U, 0xbf7ed20cbed50752U,
  0x3e444662bf13c878U, 0xbe2c456fbce15533U, 0x3e3261aebeea964aU, 0x3d2113823f7696d6U,
  0x3f2e5a043de09decU, 0x3f912210bd46930aU, 0x3ed8fb8cbee94398U, 0x3f5f70a23e5b6095U,
  0xbc627fcc3cc6b2c2U, 0x3e0104d3bd4facbfU, 0xbe8ea1e73dfe5da2U, 0xbf3c423fbe764694U,
  0x3f1b71fa3e7cc3e9U, 0xb7e8a89dbe65f625U, 0x3e46b2fc3de67f4dU, 0xbf2d3f49bea69192U,
  0xbe894d09beb295c0U, 0x3ecc5a31bf21bea8U, 0x3f092aec3bc04a54U, 0x3ebf2aecbec04512U,
  0x3f29ed8b3e5b73bbU, 0x3df50ff93e9012c7U, 0x3eb167b0bedb3f10U, 0xbec192623fa74cb5U,
  0xbf0f0e943e4b538aU, 0x3e318c303efdb876U, 0xbe894e38bbce83a9U, 0x3e8c651ebe2bbd93U,
  0x3f0d12453e682863U, 0x3d9db1bebe423b22U, 0x3ee34e9b3edd2d29U, 0xbf43b9213e825d3bU,
  0xbedecc51bdc1ed94U, 0xbeb694b33e41c730U, 0xbed369fcbe922241U, 0x3e0f8255bd5ac1ceU,
  0x3e238c763ec85c7eU, 0x3ed24dd1bea3527fU, 0x3e031218bec9376dU, 0xbecdad4a3ebff28bU,
  0x3e422f80bec97e3fU, 0xbecdb9a6beec719aU, 0xbd00abed3ddfe3ddU, 0x3e506f21bdb35d5eU,
  0x3e1c627dbe4a21c3U, 0xbe6b924b3e7dc0f1U, 0xbeb91f593f240b98U, 0xbf6591233e676d3bU,
  0xbf018905bed61496U, 0xbed68c5bbe940609U, 0xbe9be4dc3e95a98cU, 0x3d8db9ebbd515028U,
  0x3effa34bbdc86cc0U, 0x3efca27e3cfec595U, 0xbf1a2615bf320742U, 0x3f4562803f50cd4bU,
  0x3f4825863ea99f38U, 0xbe42c3cc3bee8719U, 0x3e808162be18bfabU, 0x3e93fb03bf45ae15U,
  0xbdf3b2ad3b183580U, 0xbdd2618dbef80796U, 0x3e7fc1e3bf6f836dU, 0xba51675f3f90467cU,
  0xbf0ff4dd3f050982U, 0xba8acaa2bf028340U, 0xbec2e3053e07c774U, 0x3f0833e23f2b95beU,
  0x3f53ad133f037c14U, 0xbe45061bbd01063eU, 0xbf55ec763eec2b7cU, 0x3e8287863ee3a802U,
  0x3e7142dabe0a5be9U, 0xbe8322c5be819350U, 0x3a603e87bdaf68d4U, 0x3ee39b69bf1ce3e9U,
  0x3c0070423e3fbb81U, 0x3f4d3e4abe36e352U, 0x3f2f4036beb27b59U, 0x3f7de92ebed25f3fU,
  0xbdd4bb97be834220U, 0xbd974254be42ed69U, 0xbd067ec7bdf03f80U, 0x3d2cc1f4bf80d7a7U,
  0x3f85c9193ee66a22U, 0x3f18d610beac8170U, 0xbf4044313e0249a1U, 0xbfc071113f3916cdU,
  0x3ed0ebd9bf004566U, 0xbeadfe69bdb8df83U, 0x3ee1c306be9f2307U, 0xbf3b5cb93f955e1cU,
  0xc00b5b9bc06f015aU, 0xbf830e3ebfe89ff3U, 0xc048e37fbffd65a8U, 0xbfaec089c049ab97U,
  0xbfc58403c06d89b7U, 0xc08e92e3bfc35408U, 0xbf966d56bfe27437U, 0xbfbee758c020edc5U,
  0x3e87d5073f026b85U, 0x3e79e81f3e36c5a7U, 0x3f425a863db4c3a4U, 0x3ec1f3f93f08a589U,
  0xbd2d71e53d0a968bU, 0x3e85de9e3e1a9594U, 0x3e66ddcdbdd064e5U, 0xbdcfcb463de2fcd8U,
  0xbe66db2ebe29f0ebU, 0xbf4f6e33beeeda44U, 0xbcba1c13be85a5bfU, 0xbe35d95ebe601dcdU,
  0xbf891492beff4b46U, 0xbe8089e7befa1935U, 0xbf37ef7ebf7c11b5U, 0xbf800896bed86a3aU,
  0x3dc5ac02bddd6645U, 0x3e332d72be9339b0U, 0x3d8160ccbea6629eU, 0x3e6529bbbe2fba90U,
  0xbcfb5659bed01caaU, 0xbe4f54fbbea1c65bU, 0x3e399edabdd637d4U, 0xbe0893c6beb8197dU,
  0xbe5f27afbd9fe698U, 0x3e67fa9d3e81cd6cU, 0x3cf888eb3cf06165U, 0xbe09ded9be2b678aU,
  0xbdae34c3bef79e00U, 0xbe5bb9643e635ab6U, 0x3e5327efbe0c6024U, 0xbdd7400a3cd108aaU,
  0xbfd24c6abeb42480U, 0x3f2466a43ebe23f0U,
};


