/**
  ******************************************************************************
  * @file    network_data_params.c
  * @author  AST Embedded Analytics Research Platform
  * @date    2026-04-03T12:31:37+0200
  * @brief   AI Tool Automatic Code Generator for Embedded NN computing
  ******************************************************************************
  * Copyright (c) 2026 STMicroelectronics.
  * All rights reserved.
  *
  * This software is licensed under terms that can be found in the LICENSE file
  * in the root directory of this software component.
  * If no LICENSE file comes with this software, it is provided AS-IS.
  ******************************************************************************
  */

#include "network_data_params.h"


/**  Activations Section  ****************************************************/
ai_handle g_network_activations_table[1 + 2] = {
  AI_HANDLE_PTR(AI_MAGIC_MARKER),
  AI_HANDLE_PTR(NULL),
  AI_HANDLE_PTR(AI_MAGIC_MARKER),
};




/**  Weights Section  ********************************************************/
AI_ALIGNED(32)
const ai_u64 s_network_weights_array_u64[99685] = {
0xba72ad17bad8a43aU,0x3ad36705bb854515U,0x39c17701b9ac8eb4U,0x3b4742e5bb667127U,0xbb7faa883abd0355U,0xbb9b3358bb37a56cU,0xbb8c950abb37f960U,0x3b14b4cb3be3acddU,0x3b514463baf1e590U,0x3abd24efbb0c194aU,0x3c8112a8baebc31dU,0x3b63292b3be93728U,0x3b397d633c15621aU,0x3bc9aa503b5e69ccU,0x3a32224e3c3f441dU,0x3b90f0963b55c8faU,0x3b49201a3a9282b2U,0x3b7cb9cd3b29ba0aU,0xba9840f43ad2bf21U,0x39fd1d1d3b5edd40U,0xbb540fb03b113777U,0xbacd04f23b08de2fU,0x3b5a3bfeb97f4cd7U,0xba527294bab6eefbU,0xbbd7d8babb3296b8U,0x3aa237da3a908d55U,0xbbe86c42bbcfdfe0U,0x3bbf6fd6bb5e1bb9U,0x3abe3636bb3508c8U,0x3bc2d5cd3bbd33c0U,0xba1730f63c179f78U,0xbb59a3863b379df6U,0x3bea3ed739d5875dU,0x3bef0d4b3be58953U,0x3bfe943f3b13d76bU,0x3718bcbbbae4fafdU,0xbc0283cdb74906d4U,0xbc5ea997bc08fa58U,0xbc11d341bbcafeb0U,0xbad1a0c4baf8939eU,0xbc312e63bba9057eU,0xbbd445f2bc287995U,0x3b6475103aab8813U,0x3c9235fd3c8fde5cU,0x3c524e0c3c488d38U,0xbc2d526e3c444ce9U,0x3c04b443bc3e0acbU,0xbaf4f1363b528d47U,0x3b39ecedbb36678cU,0x3a328bf1bb2e87c4U,0x3c2b7dd23b5f97bbU,0x3b4040833bce62c5U,0xba8575733aa322ceU,0x3a08a0413ab2cfb3U,0x3bbe92d53b1d835cU,0x3a47638bbabd1e7eU,0x3afa08d4b97cba35U,0x3b18bdd43bbe7a02U,0xbb91225839c5e63dU,0x3bc07e0abb34e8dbU,0x3c2ab0733bf3e133U,0x3bbc087c3c0300abU,0x3b14ee2d3baba7d8U,0xbb09a8c43a4c325dU,0x399e04b539c153daU,0xbb9cdffdba86d3eeU,0xbbad159bbbb6d7eeU,0xbbd3f4cbbb559390U,0xbc2867e3bc09248aU,0xbb3c09d0bc3a8401U,0xbc190b5dbbf7d3b0U,0xbc414f8cbc1a0861U,0xbc3d3f81bc67f493U,0x3d62711bbc0069c7U,0xbcc155f53cebb494U,0xbd3cacc1bd3c04a5U,0xbc8adcdd3b27d438U,0x3d06f9e03d2e5fd2U,0xbd1bc9973a9aa704U,0xba180761bd15f8c3U,0x3cc205e8bc48de69U,0x3bbc4e063d1b97b6U,0xbcbdc514bcb4fceaU,0x3d37a68c3c8fa19aU,0xbc6923fabd3d7bd2U,0xbc6d46ffbcb5de21U,0xbcd2d8dcbcb8205aU,0xbd26d1b33c5a2d6cU,0xbabbfa7dbd374ea2U,0x3ddcb2523db9f2cbU,0xbb691f2c3cf2a3e2U,0xbcb808ff3c2635d2U,0x3d97b0bf3c83933bU,0x3c8f83c93d88bce2U,0xbc20b673bbb0a62eU,0xbb9afa75bc125b61U,0xbcc51322bceb2f62U,0xbc9e8ebbbd00a157U,0x3b7b172fba5500e0U,0xbb95f39cba4f8329U,0xba97969c3c1bd2fcU,0x3a9f5e033b84339aU,0x3a4d26dd3b4d4150U,0x3c3a480e3909fe76U,0x3bcc7759bb1b8185U,0xb99ce6edbb1b51ebU,0xbb4d8565bb31a2d0U,0xba84b68c384bee3bU,0xbbb3fc9e3b5b72dbU,0x3bdafd8f3ad26708U,0x3c1faf4a3ba4d083U,0x3b9735e9bac7a11bU,0xbbebfbc3bbd8349fU,0xbb3bfeeebb138e01U,0xbbbf49453b438ad2U,0xbb8e8c483906b935U,0xbb89772bba8489abU,0x3b761f50bc0dae66U,0xbad22689bb87524cU,0x3bbb7e2a3b81e3bcU,0xba8fbf033bb2a98eU,0x39a574f03c2866aeU,0x3c3d17b33b72b7aeU,0xbbe8fc313b3b1249U,0x3a84740a3bb6a988U,0x3b4c23a0ba864e5dU,0xbcb57b0cbb7a044dU,0x3b680ba2bcb4107eU,0xbc03e8e93b9ad49dU,0x3c22ac18ba77215fU,0xbbda979ebbc765ccU,0x3c2728933be8a345U,0x3baaf2383b0e118fU,0xbc06c7243bed37baU,0x3c555c11bb57a6dbU,0x3b96e9693c16fb5fU,0x3b8471e53b68dc2eU,0xbc1d9056bc6c515bU,0x3b56a2743b91e905U,0x3b89fae9bb782cb9U,0xbc019f923c3009acU,0x3c2523b9bc2ecda1U,0xbb06a08a3c03bff9U,0x3a15479e3bf8f4d5U,0xbc67a3bfbc556d8fU,0x3b4f92a63bc08cbfU,0xbc311df9bbb9fdb7U,0xbbb4c48cbb1ef2a2U,0xbc32c285bba2392eU,0xbb8a13f43b9d3ed7U,0x3c203aa3bb91bfeeU,0x3c0cc4e73c5188e4U,0x3c83f8d2bbdff3c6U,0x3b9cef1d3b6e90fcU,0x3bd0faba3c531d73U,0x3c34e5803bfc9812U,0x3c262f413cc1201aU,0x3c40cd013c0987ecU,0x3c8d04c23c1c3b31U,0x3c87a5813c3c5222U,0x3c0370263c1bd59aU,0xbc326810bb8e700cU,0xbc3542a4bbff1aaeU,0xbbab097dbb8da116U,0xb9b9af2bbb6a11a5U,0xbc1f9797bbb7a2cbU,0x3ae0f0ddbc4557d2U,0x3b1b8dc7bb96d068U,0xbc37d072bb28d0f8U,0xbc48e0d0bc8ccfb6U,0x392ab696baeafb17U,0xb922c0e43ab335b4U,0x3991a07a365432c4U,0x3a393d1f3a84a4d9U,0xb875599a391e8f1bU,0xb902684539fc6b4bU,0x399b838a3b1fffc8U,0x3ace712a3a6269d7U,0x3a5d12dc3a97ef7cU,0x3a5e9322baa2e45cU,0xba1e7cc13a576c1aU,0xba92042eb9221310U,0xb9335fd63a3e0f32U,0x3aa2e03b3b5a0c99U,0xba4d049c3981b7f0U,0x3b26bd76badd5735U,0x3b39b57b3adf8bdfU,0x3ad1f6e13aac5f6dU,0x3aeb13613a85ce4dU,0xb99c78cd39e8a9f1U,0x3b0f34833ad07af0U,0x3b0d1f953b0826edU,0xb93cfb153a19ed11U,0x3a1ba3f4bad04e3cU,0xba475d91b95042acU,0xbaafc45cbacd0593U,0xbc25809dbba773acU,0xbc0b35cfbc293337U,0xbb83b5dfbbe1f33eU,0xb941f5503a4b9f96U,0x3b20cca03a9b130bU,0x3b745025381db73bU,0x3b80513539e18261U,0x3c8b7e613c76bd57U,0x3c04fc4d3c71bee6U,0x3ba0b64d3bc5c4acU,0x3ba7df633b858f77U,0x39b14a8b3aed9d17U,0x3b7fd211bac5f965U,0xb73884f23b349bbcU,0xbc125f3bbb661ea8U,0xbbb61e5cbac61dc1U,0xbbbfbd54baa90a3dU,0xba980affbb52af5cU,0x3c22e0c93bac9418U,0x3b4585df3bb01676U,0xbb3fdc443b23caabU,0x3a1eaa93ba5531dfU,0x3b513dc03b57db4bU,0xbb802e553a408605U,0x3bacb355bb80fcc9U,0x3c10b2beb99edfa3U,0x3c74394c3c4ba44cU,0xba9a3cf2b81d7c33U,0x3b98a7253b7aac96U,0x3bbf47c43b766764U,0x3a93adb73c60cc97U,0xbb7733683be9f4abU,0xbb4d4982bb1ee2d4U,0xbb1726543a3f94a0U,0xbb15bbe3bc1df0ffU,0x3b8c02f23b7b5cd0U,0x3bb977cc3bb47793U,0x398c17a53c50dd17U,0x3af4deb13c4211fcU,0x3b9c7118bb85a0abU,0x3c18edb63c12968fU,0x3c26514d3b7f0b24U,0xbc1480debb1ef94bU,0xbb1a0f74bbd55217U,0xbb164022bb39182dU,0xbc15d9103b722751U,0xbc4b737bbc87e7d4U,0xbc716b81bc550c90U,0xbc204901bc12f41eU,0xbbe3bd973838719cU,0x3b7e6144bb5c7d79U,0x3b1a5aa53b0df6d5U,0x3a6cb0133bd4ecf6U,0xbb017b3cbbf3012bU,0x3ace96083925b1f7U,0x3afb9f483ab22144U,0xbbcee6023a6b550dU,0xbc1485bfbbda18ecU,0xbba87392bbf6b647U,0x39afa6eabb515b81U,0xbc1a6d34bb9b245cU,0xbb6a403abb618482U,0x3a3cc4c238c17c86U,0x3b1a8a953b6dac8fU,0x3bd3ad573b6a113cU,0xb90a4cf13b115db2U,0x3b34a5ca3baa6bbaU,0x3b32f7533bcf237cU,0x3bbf6cd93bd7cbd3U,0x3bd92ee039ee0126U,0x3b4c01203ab4dbfcU,0x3c20e63f3b18396fU,0x3b4a0fa43c3ab416U,0x3c0121493c5f1ab9U,0xbbd6d75a3baaed35U,0xb82722c9bbefa3ffU,0xbb1cc880bb2998bfU,0x3c0fedf23c8ad0ccU,0xbc01efdbbc08e67fU,0xba60e4a0bb47fd7eU,0x3c317ba13a424794U,0xbc0918693c1f5ddeU,0xbbc7be49bc2ea3f6U,0x3b1c7190bb222932U,0x3be9f6bb3c26af28U,0xbc4b0d41bbdbce2cU,0x3b0dbb10bbf9ebefU,0x3c271dbf3c0f4832U,0xbc0cd0d43c1844ebU,0xbb644519bbe4bbb3U,0x3a6dc412ba4d91d3U,0x3c0a2fab3ba8daf9U,0xbb5ea86abb4365d6U,0xbb2d994dbb0c4cf3U,0x3c23bd53bb83d30dU,0xbbd2bcf43c0a61a1U,0xbc263e67bbcb5cdaU,0x3a54d03bba62b5fdU,0x3ac5396bba8c05c0U,0x3b0632183aa8bbb2U,0x3a2398de3ad83149U,0xba93257f3a016eadU,0xbb85a2b2b984bec6U,0xb996a80dbb72d542U,0xbba71295bbca588dU,0xba31629dbb21a8d7U,0xbb933fc5bba6cc58U,0x3b0527713b837a26U,0xba3346713a9692bfU,0xba0bf6273b43636bU,0xbb26914bbc170f50U,0xbb0e652a3b1d3f07U,0xbb215a26389a73adU,0xbc1f9781bbd34dacU,0xbb90d043bbf5cd3dU,0xbac67fb2bc2168bcU,0xbac0ca8a39b2bce5U,0x3af205f7bbe744bfU,0xbba7f06abb25ec20U,0xbaeb2fd6bb1e2e06U,0xbb4c543dbae7d5b0U,0x3a94bbe73a712dafU,0x3b0cee0e3ab32e61U,0x3ae4bde13b391604U,0x39dc351c3bd5222fU,0xbc0a82c8bbd4223fU,0x3c3a75353ac65cfbU,0x3c0b2cdf3be265c8U,0xbb8fbc81bb68962dU,0xbac0522abc15df37U,0xbb0d55aa3be1daabU,0xbb4a74c33b95f777U,0xbc2732a0bbbd6647U,0x3b984f973b02a886U,0x3bbf99623b2a9f84U,0xbb52eb16b95707cfU,0xbc0352e5bb9f89e0U,0x3b14373a3b87e6f2U,0xb9c339b33c096381U,0xbbd04b09bb17be15U,0x3b638881bbcc2aefU,0x3bf7ee5c3abfbe08U,0xba5aaa98b8c5dbdaU,0xbbb86a11bbae0803U,0x3a8c962c3b6b8209U,0x3a4a30943bffb57fU,0xbbcf2087bb2894daU,0xba29919fbc3a02deU,0x391fde4eb929e7f3U,0xbc1a560cbb65ab53U,0xbc69cc0f3715bd78U,0xbb8f9a84bc52dff4U,0xb927acdbbbeaa9b5U,0x3c133d2aba8df87aU,0x3a3c2d133b868870U,0x3b802dfe3c4c3656U,0x3b743155bb064b96U,0x3c2d855d3ce2162dU,0x3c8948a83ca3e37bU,0x3befd33d3c720f02U,0x3cf51df43c07d3d6U,0x3ccb091d3bffab80U,0x3caea8de3ccf5571U,0xba5fa71c3c4a1e5fU,0xba4c90de3c2c4aaaU,0xbc4071a13b434194U,0xbba3c001bb6f004cU,0xbc0546e6bc12658dU,0xbce883f8bc48c8aaU,0xbca96eb2bcbf1377U,0xbc9f0bd6bc11491cU,0x3af985f5bcb91bbbU,0xba7c91133a7747cfU,0x3b0f2647b93f7f64U,0x3b1dafe73b41f2b9U,0x3af372b13ae3018cU,0x37d1c69c3a9f1162U,0x3b19280f3b41e923U,0x3786c2603a35289aU,0xbb2183febacf2516U,0xbac9477dbb1143b9U,0xba92e4073a321e1dU,0x3aa28e5a3b336900U,0x3aeeee6a38414fa7U,0x3a34d2593b201235U,0x3b133949b89c0f76U,0x39f1a9163a197143U,0x3a920ba53ad7af04U,0x3b27eccc3aa7f38dU,0x3a9b54f23a8e0be2U,0x3a6613e8ba24ce09U,0x3b5cb7db39923831U,0xb7af7ba23a82d6f6U,0xba42db1bbaa09c15U,0xb9ae77053a5a8ffcU,0xbaa834dd3a761767U,0xbca29737bc1e362eU,0x3c3e1e2cbb0c6a28U,0x3cec922a3d140420U,0xbcda61643b4d245aU,0xbca0e43fbd2411dbU,0xbcaf437ebc8aac81U,0xbc92f471bc929fa2U,0x3d12a13c3cb52febU,0x3cb268f23d19e69aU,0xba9f69d1bba6d8b0U,0x3d1f70003c7297c1U,0x3d1747fa3d517b64U,0x3bb2f7663c91f4f1U,0x3bf89ef93c3a897aU,0xbd1fa2bbbca97d48U,0xbd261b13bd50b14aU,0xbd3a5381bd3f0705U,0x3c149b6bbd42cbb0U,0x3c4da1303c85d01cU,0x3c9b17283bcb03c1U,0x3c8b39563c91b6ebU,0xbca0bb68bca4f28eU,0xbc093ce7bc0cfe63U,0x3a831fc43c068f42U,0x3ae7d8a73c838baaU,0x39c7200fba1985daU,0xbc067d0bbab80c9eU,0x3b73421cbb8effcdU,0x39ad3aca3b752848U,0x3a33479e3a664a77U,0xbb8e31f4bb3b90b8U,0x3a853c913bf258deU,0xbb1976d5bbdad159U,0xbafa26c33b08f3a0U,0x3bb06ff3bbc9f9bdU,0x3bb299f8bab25d4aU,0xbbac2696ba4bda19U,0xbc30d5b1bc17bea9U,0x3abc3c163bf0c9d3U,0xbaa4a4eb3c2386b5U,0xbc583770bacad56fU,0x3bde2fd1bbba8124U,0x3a1529b0bb1b5b69U,0xbb85ffd6bb419f77U,0xbbd4fc3cbc0a44dcU,0xbbe7f5913c4aff1aU,0xbb8610fbbac5c9b6U,0xbc27aeb0bba26c2fU,0x3becf061bc198720U,0x3b8a06053bd530d3U,0x3b09c4413b73b648U,0xba0f44653aa9a58dU,0x3baeb67c3abe6fe2U,0x3b25bacd3b247f41U,0x3a9571793b0e7443U,0xb8ead818b9fb5a88U,0xbb96d29db9a46fa4U,0xbb987884bc32cd1aU,0xbba10871bb552ff3U,0x3a87bcfdbb40226aU,0xba8809dc3ba4c549U,0x3bc971243bd5b2a2U,0x3ab20f07bad4fe8dU,0x3badaac73b2bcac6U,0x3c0592953c10e0a5U,0x3b65ad3c3bf29716U,0xbaeaf1483b6c7994U,0xba596ffd3938d9d9U,0x3b749c0b3bbba156U,0x3b16ca243bcf6ee4U,0xbaf12ecbba36fe3cU,0x3c25b2a23a295dadU,0x3b1d25643b71a294U,0xbabc4899baee7587U,0xbb41dbefbabdaf4aU,0x3aaf86c0ba8ae8a7U,0x3af2811eba3a1202U,0xbae925c13a07e330U,0x3aea27d1baa4ecdbU,0xbbb3778e3a939159U,0xbbccea943b15c957U,0xbbb9024dbc2dc8ffU,0x3aafda56bab63586U,0x3aa62b35b988fbedU,0xbc1b1c80ba9113a2U,0x3adf3249bbef607fU,0x39b6e65b3ba3d5f2U,0xbb9092623b3d677bU,0xbaf14136bbcaddbbU,0x3b4eeecfbb20f286U,0x3a5a201bbac721cfU,0xbc121febba205896U,0xba8c4b9eb74d6349U,0xbb4383bf3b0d699eU,0x3ae3e3a93a2b85ddU,0x3665a3ccbbfd9885U,0x3b7e1a643b8a969bU,0x3b59ac63bb59a963U,0xbc1e39fdbb0960afU,0xbb07dbe3ba1feda1U,0x3afb5aa03b99b7f4U,0xbb513f3bbc06af80U,0xba9f4d8bbcb74033U,0xba5b9cdeb8326059U,0xbbc40fad3948b289U,0xbbf86aec3a6a1497U,0x3b81941eba628c6cU,0x3ab2c7133b122950U,0x3b990255bc3e97bfU,0xba61102cbb8f8aaaU,0x3bab8c9c3bb3e486U,0xbb13082a3b80a169U,0xbc02a9263b76db60U,0xba5b3f24bbffc6e0U,0xbb2024683a4c9a59U,0xbb872028bc34f3daU,0xbc0842eebc5a4777U,0xbb24f94ebb85bc8bU,0xbc6419abbc256f77U,0x3c0b75d03c4a4126U,0x3caebf9d3c8a0d78U,0x3c1fd3903c85967eU,0x3b00abb93bb2cc97U,0x3ac0bf763afc6656U,0x3b92d53f3a8ba1f6U,0x3a7644db3b85e885U,0x3a6dcfb2ba73d4a2U,0xbaf704b23a86669eU,0xba705b613a6a5c9dU,0xbad2700f39f5c84fU,0xbaf5e69cbab65878U,0xb7741abeba08e75aU,0x3af0bda93b0b852aU,0x3b2f562d3a8fd2f2U,0x3b9843743aebc941U,0x3ac55b923b82795dU,0xbb072af23b312320U,0xb9ffc107b9c4d9f3U,0x3ae12dcdba059805U,0xba36bfb4b9f0a8ddU,0x3a2cc1b5bb6be5b2U,0xbadecb38b963856bU,0x3921a2933ab4172aU,0xbb20d653bae180e3U,0x3b0433093adc56e5U,0xba2c7f36b9f9a10eU,0xb99b4999ba251bd3U,0x3b5a81973aeb3f27U,0x3c0169323bcb7c0eU,0x3b628aec3bb6982aU,0x3a0c9b0c3b4db9eaU,0x3b9293bf3b29d4b3U,0x3b8c39fb3b67a2f0U,0x3979fd2f3b3a0aa8U,0xba221c5238040781U,0x3a0deac43921cec3U,0xbaadc2a138895c73U,0xbb23a3c9bac27034U,0xbb4e5380bb24d0b0U,0xbad07a26bbb91721U,0xba1f9b4dbab0e449U,0xbb0a2a853a3f40ffU,0xbbae2209bb4af5feU,0xba53d40dbba3e047U,0x3b4ba6de38ab17f5U,0x3a4093d83b0563a1U,0xb8e7f584bad7839aU,0x3b07dc1a3b166e82U,0xba0087b9ba812893U,0xbb3ae43dbb02921dU,0xbba7e0b6bb2c107aU,0xbae06861bb869e51U,0x3a73f2913ba226c4U,0x3b7e67543b9eedf8U,0x3bb6c53e3b979d1fU,0x3c53594e3aa01734U,0x3c9c95903c83d79eU,0xbbbe19393c078826U,0xbcc0f1b3bbd4edecU,0x3b3b8b64baea5b1bU,0xb9bb75fc3bb286ddU,0xbc92614fbc5ce217U,0x3c06d512bc6f1192U,0x3c89368a3c1eeb3aU,0xbc4134603b7cb953U,0xbc0770f6bbeb464eU,0x3bb0a9a03baff545U,0x3a7dde9d3c200911U,0xbb8a3d78bc1b603eU,0x3bc1214cbbb15ecdU,0x3c208d5d3c0ff1d9U,0x3bb403563bdc4250U,0xbca510433b0739c5U,0x3b0d009abb55d521U,0xbbb622273b23033eU,0xbc106f6abc44cca7U,0x3b1cef343b7d6657U,0x3ae8ffc739c5fe79U,0x3a4b76fdb8810e6aU,0x3a0496a83ab6b563U,0xbb9adce9baa3c41aU,0xbb03125dbb8cb43bU,0xbb00f028bb2a2ec4U,0x3b925cd23b5a7e7bU,0x39dc9f48398620b0U,0xb9c4a25eba1e498bU,0x3c1c593fb9f650f9U,0x3bd6f6603c4d93c1U,0x3bb060ae3bc65d67U,0x3ba3e0793bc17449U,0xbbb32097bb984429U,0xbc1616fabc04ecbcU,0xbc01f2abbc366746U,0xbae2987fbbf2ff5eU,0xbb820859babf136fU,0xbbcede75bbf5d7dbU,0xbbdc3b3abb546c95U,0xbb763b49bb588a24U,0xbbf8f223bbc7144fU,0xbad657c6bc1c9e18U,0xbb86cc02ba98c09bU,0xbc15e6abba85d524U,0xbb9181d83b192737U,0x3a8ded06bb297359U,0x3c8ecdef3c5837b5U,0x3cd02f4d3cc1752aU,0x3c201d6b3c4fbb08U,0xbc749dce3c8ad9b0U,0xbce2988cbce591a0U,0xbcaa5203bcfb6154U,0xbd0a840ebce0c36fU,0x3a6c7006bc066295U,0x3a815e7bbc019816U,0xbbafe7f2bb95b60eU,0x3ce1e372bc2dd41eU,0x3ca95bb33d188da0U,0x3d2c96173d21aae0U,0x3d0eeee33d139d7eU,0xbba79bf93a0c102bU,0xbc4a1263bcc1ab25U,0xbc0d71b0bc743aacU,0xbc4385f5bc0218eeU,0xbb9d4990bbbd7be5U,0xbae21cc5bc0f7906U,0xbc792ef7bb7ff6a8U,0xbae5dd2d3c09c939U,0x3c2e35a9bab3f0d0U,0xbc066dd5b98406dbU,0x3c489cf8bc06bce8U,0xbaea5d5c3c03ad67U,0xbb3130fe3c50e2c5U,0xbc62fdf8bc0926d9U,0x3c4c6e0f3c4a4bf5U,0x3bcac87abb129c99U,0xbc4bce27bbcda60eU,0x3c804259bc63f15eU,0xbb1a9b473a9ca233U,0xb968b2273c04daabU,0xbc18e0cfbc164b54U,0x3b942f273b989174U,0x3c0a5c83bbcd1f66U,0xbbced6f0ba481880U,0x3c3ab037bc140056U,0xbb41a25d3926e552U,0xbb5e071f3c4947aaU,0xbc203571bbaa3f93U,0x3ad69cc33c3c254fU,0x3c5bbca6bb6433a6U,0xbc2576bebbb4eb04U,0x3a9d38edbc3c0c9eU,0xb9dd0fc03b01f8b0U,0x3be389e03b996549U,0x3be9cd59bb9c7fcdU,0x3bcb01f5b9b08535U,0x3bbd21f93bdbe4e1U,0xbbd1a6f83c500ac2U,0xbb2f50ae3c1ccc6dU,0xbbfe8016bb2359e7U,0xb9ce5e0fbc03cbf8U,0xba3e5dd8bbcf8a55U,0xba864078bbb5f602U,0x3c5cd7aab9be46d5U,0xbbc9b5163ca6fbd1U,0x38d922423b014af8U,0x3bd0233736b299fbU,0x3c367c373c3a4cccU,0x3c128e86bc0fd3e5U,0xbb8ee4d7bbb3c239U,0xbaba61b0bc146153U,0xbc2615a7ba242eedU,0x3b14ed9d3b95f819U,0x3b1452023b3f2c69U,0x3c481f573c501a86U,0x3c5068bebb92faa2U,0xba7535643a4e6bb8U,0x3c1eaebebc0c8d89U,0xbbfb020a3bf4cbc2U,0xbb132880bb2ff062U,0xbb9ce671bb0f4598U,0x3b8652723c2e36ddU,0xbad02f91bc31ed17U,0x39124fd0382f1a10U,0x3c118f8bbbb1b7c1U,0xbc474de03b65efe9U,0xbb835ed53ab8a0d3U,0xbc1c8d77bbe70356U,0x3ab35a023b99e099U,0xbc242010bc9b9685U,0xbb3e42d03b74ee25U,0x3bea463cbbf9d561U,0xbc8d16fe3b87e120U,0x3bf50cf0bb8e6ac0U,0xbb826ef73bc765ebU,0x3c0781c23c0a9e51U,0x3c388ad9ba083c03U,0xbae395683b568671U,0x3bf731c8bbc4c975U,0xbb2d36db3bcc6c55U,0x3ac122993a338074U,0x3c025e033bbbe65bU,0x3c4a94003c4a99feU,0x3b88d9b73c23887cU,0x3b8c83133b013eb8U,0x3c0f5eef3c0651e1U,0x3bcb60bc3bf837d8U,0xbb4142ab3b555bbaU,0xbb934a78bbe43db4U,0xbb717345ba9da0b4U,0xbc0ae505bbc9df01U,0x3b29e5883aaf4356U,0xbb0439d83b39092fU,0xbab87bbf3b146d80U,0x3abb6280bb2893a1U,0x3aba84383a599621U,0xbc0afb51bb4b0d7aU,0xbb699bd4bbc0480fU,0xbb8bc544bba4bea9U,0xbc3840d5bc024045U,0xbaf394fdbbefd5b1U,0xba6a0772bb90288fU,0xba01f639bb05d599U,0xbb780e46bbb6787aU,0xbc095f01bad91e2cU,0x3b3d6d0b3a189fd6U,0x3a80abd63b608aceU,0xbb2cbc75ba89c05bU,0xb8c64407bb6abaf6U,0x3b22856c38edfd81U,0x3985e9543ae9cd9aU,0xbb848b2f3a93e402U,0xbb6d4533bbe3a37cU,0xbbf8c5c1bab9b42bU,0x3a8489e3bbe67e23U,0xbb3b1b59bc826d7fU,0xb9c878a3bbc69994U,0xbb8068753ab341f2U,0xbc7332a539a45b3dU,0xb98d8dad3b446089U,0xbac5c9ecba501ff6U,0xbaad42eebb5460deU,0xba937e77bc8aa504U,0xba8d65dabb15ba0fU,0x3a2575333b21c3cbU,0xbc08af1abb35ec6cU,0xbabf92e5ba36bb75U,0x3bf6d7003a04d3b6U,0x3b6a23a63b921e74U,0x3b1724ff39700349U,0xb904c93a3a9b00e9U,0x3a0403e13a958343U,0xbacc2416ba40cf41U,0x3a8719ec3b01c497U,0x3a366fdbba8c77d4U,0xbb0d2edcba3c349aU,0x3b03f962bb43509fU,0xba5dd7433b0c325bU,0x38b788e839a26821U,0xba9de867ba94832cU,0x39c2a3453ad6f357U,0xb99edcc3ba9bc231U,0x389761053a2b2083U,0x3a833fd4b9dfb8d0U,0xbac111043a4e8a23U,0xb78baa60b98561faU,0xbacdf001ba2f3423U,0x3a3b90b03acdb5c5U,0x3a96e49bba8190feU,0xb9ea31223924d9c4U,0x3b1a4f04bb00307eU,0xba0ed3f23ab17d0dU,0x38eca88d3a406b19U,0xbaa5a3a2ba226232U,0x39e453dbbb57dcadU,0xb892aa3ab995a019U,0x3a18994e3aacf9fbU,0xbb598e1fbb47c371U,0xbb89b6cb3a58cb78U,0xbaa21e7bbabf9d98U,0xbb511cafbbdba71cU,0xbb85b25bbc4d8ac1U,0xbb03382cbb8eba8dU,0x3b77d26c3b08e5ddU,0xbc6a9ea0bac0d86aU,0xba25d83cbba3a21aU,0x3b33995abb13bbeaU,0xbb6accde3bb12a76U,0x3a240c59bb7c087eU,0x3a08bfdb3b84f6c6U,0x3b89e8a33bb1d6ccU,0xbb7db474ba3eb882U,0x3af3b10cbb6912a2U,0x3b2f85403abf5993U,0xbb558c443b33262bU,0xba86f58ebb5b7d7aU,0x3c0470e53b8586e4U,0x3bc75a703c27e860U,0x3bf3c5f1baced522U,0x3cac92423ca6527dU,0x3c87a8103c94b279U,0x3c9d5a9c3cb9a6feU,0xb9d73f593ad338b3U,0x3bc5ff423b47f28fU,0xb987d7033b2e7b79U,0xbb0619f23a979d15U,0xbba6a756bc3e3a45U,0xbb8fc2d8bb8b82b0U,0xba99f096bbf7bfc6U,0xbc8eea27bc71f5c9U,0xbc670d0dbca286f5U,0xbc17859dbc26d42bU,0xbaa98d1cbbaf2daaU,0xbba269dabbb1aa95U,0xbbe43ebcbbcd4e4cU,0xbbb79bedbbdcaff0U,0x3c1566513c320d21U,0x3c2336163bb07f75U,0x3ab9dc4e3bc8e24cU,0x3b05fe14b8cd62b3U,0xbb85973d3be09b74U,0xba11534fbb7a5c5aU,0xbbc15a22bb83fca0U,0x3caac3da3b843c97U,0x3bdf8e1d3c89cfebU,0xbb501104bc6b043dU,0xbc35618a3b866222U,0xbc2b9bebbc39fc38U,0xbcc0bef1bcab51beU,0xbb9a6b18bd03856fU,0xbc4b6a2b3a5b96f1U,0xbc47da14bc9facefU,0x3b5f872cbbbdd3faU,0x3c8fb9fabb237512U,0x3c9f425e3b34259bU,0x3d6f0d903d1b3227U,0x3d2f787e3d5c32adU,0xbc92fcfdbc91bab8U,0xbc95056dbc449931U,0xba2430fa3be669fcU,0xbbc38ae2bb9843c4U,0xbc94314fbc16b7b0U,0xbce53a6ebcaa5ffeU,0xbd002adebd20ab64U,0x3d0e02a33c5e89eaU,0x3ce0bdb03cd5d066U,0xb9a8398f3c2a7608U,0x3a8029d0bb0e4cf1U,0xba48625ab9f8887aU,0x3b5d11efba96e20fU,0x3b3d25693b5a62f5U,0xbb0c94f5bb583c25U,0xbb8a99e13a7c8540U,0xbab06c3539774c16U,0xbbaa1c9cb9c72809U,0x3b821b2fba36532cU,0xbad269053aca950fU,0x3afc82e0baefc62eU,0xbb9475b0bc38e20bU,0x3bcc23d43b959bf5U,0x3b09664d3ba9025bU,0xbc00f8e83b713d24U,0x3bb49b56bb0fac94U,0x3c10b24d3bee1b90U,0x3b97707d3b969a66U,0xbb01a602bc0a1703U,0xbae19c98bb1fb60dU,0xbb033f253934a897U,0xbbe113eabb2e88b2U,0x3b494226bad45ed5U,0xba60bbffbb511db4U,0xbaeb2569bb8a1b6eU,0x3ba093fc3b32f28dU,0x3b0608ba3a4a5ce0U,0xbb3c461ebafe285bU,0xbb04462eba4c6809U,0xbb56741c3a6b0d6eU,0x3bc7db1b39b8c943U,0xba8f1c6dbbb74073U,0xbbd5130cbb88fc2bU,0xbb9beab2bb87f714U,0x3a648f7b3c00fc6dU,0xbba56f1b3a95f871U,0xbb0e605f3b315453U,0x3c7b06433b3fb706U,0x3c06bbad3c0fa4aeU,0xbafe18d2bc091aecU,0x3b6e1e953a116519U,0xbb99494139def9ebU,0xbb1752d8ba9e0ffeU,0x3c50caeb3c333999U,0xba8fff163cc257d8U,0x3b22473fbb4902a1U,0x3c30b38d3b78b2f8U,0x3c4903213c0546a2U,0xbb515cc63a146c65U,0x39d3dd5e3ba2b8aaU,0xb9a2a0073b17285cU,0xba1e2ffd3a7edc47U,0xbb4c3733ba9cbcd2U,0x3b15d80eba04958dU,0x3b20b8d4bab03319U,0xba0633113adf0869U,0xbaa9a44fbb1556d7U,0xbab954533b2f502eU,0xba87fdacbab36f07U,0xbbbf1df3b9f13772U,0x3b0ed14d3ad2bbc0U,0x3890c400bb1843c3U,0xbbcb501cbb67dae7U,0x3b24c96fbbe2d0c0U,0xbb4c50d43b1002a0U,0xbb97b226bb9ce057U,0xbbe9cc35bb8007daU,0x3b3f04e33b13d9f1U,0x3ab16873bac8470aU,0xbabbc86c392c82cbU,0x3a73add3bac0213dU,0xbb0a9ab83a5d8c56U,0x3ae513f83adfb5d1U,0x3a31b07a3a2bf82aU,0x3a1a45b8bab05e64U,0x3a3e7e81ba621667U,0x399a49463b1f150cU,0x3b177469bad06994U,0x3b1c7312ba8398f8U,0x3b7f29ae3b1cd2adU,0xba7ebe203a99509bU,0xbc0efdf8bb62af15U,0xba8c2e72bbe9d06dU,0x3a14b7fe39985714U,0xbbe982c9bb995db2U,0xbc408db5bc831f78U,0xbb1f72f6bc1dd9d2U,0xbb2821823a4bc5f8U,0x3a43e4fabb254c31U,0xbbb10b5ebb23310dU,0x3b01ab493a89e467U,0x39843570baebb72dU,0x3aff4cb7ba29ba99U,0x3b857bdaba29611cU,0xba6071783b6bada2U,0xbb030a8dba3d7970U,0x3a10cf1cb940cd65U,0x3b63c8103baad521U,0xbb2ee97839828580U,0x3c6933dbbc54e5b5U,0xbd1686c53cceaa11U,0x3c0d791dbb60e3b3U,0xbc7a39f7bbf09d1eU,0x3d17f9dd3cf9a888U,0xbca9ba16bd0c7f83U,0xbb76c4df3caf4f97U,0x3c6d3b09bc96f18eU,0xbceaec7a3ce114b8U,0x3c17d25cbc8b5186U,0xbccf02b9b92acbfdU,0x3d0676b93ca3cb7fU,0xbbda79e3bd2b1cdfU,0x3c03294d3cdc1ffdU,0x3c84b68fbc8bea3fU,0xbd2585f13d1013f9U,0x3c99a070bc6b7a55U,0xbc8288df3bc8d775U,0x3cfaa94a3c954836U,0xbcbbd4c6bd0db2a5U,0xbb2a0be33bbc458dU,0x3c2f88e6bcc0a213U,0xbcc88b833d189d24U,0x3c142cc1bc45c994U,0xbb6412093ab066baU,0x3b8ef522bbf10079U,0x3b0039223af3184cU,0x3b26ac9abb847cd8U,0xbb212a533a214da3U,0x3bb342f23bbbf560U,0xbabc872e3a7b6076U,0x3ba2390eba38faedU,0x3b8178fd3b1eeafeU,0x397cf5813b8085f0U,0xba8d907dbadf3b25U,0x3b6e28aa3b428d6dU,0x3b980fee3bd6015dU,0xbc31006cba97a056U,0x3bac3928391b33adU,0x3b294e6d3aaa72dcU,0xbacd061b3b5a97e4U,0xba88c30abc5afa40U,0xbb7725e43a382dfdU,0xbbb11405bb563569U,0xbcac098cbc856ed7U,0x3ab1591d39c8bb47U,0x3b3ae123bba83d6dU,0xbbc94259bb113619U,0xbaa40139bc86a311U,0xbc46d7cd3c916f6dU,0x3d010fe9b7a824e5U,0x3b20f02dbce35caeU,0x3c84fcbd3c0e76eeU,0xbc38778fbcb11c12U,0xbce2f1503d1088e5U,0xbc250f48bc045bd9U,0xbd0924483c99679aU,0x3d086a0abafb4373U,0x3b73dcbebca74302U,0x3cd5eaab3b42b60cU,0xbba74901bcde95b7U,0xbc94a2293d411abeU,0xbbb28dc2bc7a54caU,0xbc2996813ca04593U,0x3d2a519d3c1b8686U,0xbc4b0cd0bce71da4U,0x3c1e9034b96f841bU,0x3b6f374ebcc5c122U,0xbcebba7a3d1f8dc7U,0xbb6d75e2b9a13f2fU,0xbcd0c8a13cc48e18U,0x3d054d3ebc17390bU,0x3aa19b0dbccd2429U,0xbcedb270bcfec62aU,0xbcdbb987bd0268ffU,0xbc4df822bcd4e32fU,0x3d6ad5d1bcccc91dU,0x3d89be393d65fa38U,0x3cef53443d5abff6U,0x3c6670833ce44666U,0xbc02102fbb88b3d2U,0xbc463287bc5b2624U,0xbc28d747bd0d9c7cU,0xbd02f485bc95473cU,0xbd2968a2bcbb7906U,0xbc8812bfbcd95690U,0xbccc1e76bcad5620U,0x3cd1a8e43d4ce02fU,0x3d1241263cf40cdaU,0x3d55bc813d746053U,0xbcc918553d3fc6c2U,0xbd0b1e29bd29ca3aU,0xbcf0b753bcb0d4fcU,0xbd2be158bd015fbbU,0x3c83d4283c9a611aU,0x3cc3b4233c428601U,0x3c683d423ca9259fU,0xbc2e3cbf3bbff7aeU,0xbc9fa34abc19662dU,0xbc5a94f3bc52d3f1U,0xbc38df7cbcc1625aU,0xbbdf6cebbc02b021U,0xbbff6b02bc369897U,0xbca65ec5bbe82b36U,0x3bc335efbc848a4fU,0x3b250f993c63967bU,0x3bbd05823c195ddaU,0x3bbb040cbb563cdbU,0x3c4b59f63afc6181U,0x3c067c103bfbcda7U,0x3b897f243baa14fcU,0x3c06df863c3b66bcU,0x3b51c2023bf034ffU,0x3bb8a2c83c2dc5caU,0x3b6eeae0bb72f29eU,0xba2b823abbbbe7deU,0x3c4fcd7b3ba0eceaU,0x3b303a133c1d07d5U,0xbb88750b3be1ea7cU,0x3b584a07bb051dedU,0x3c6ce2d13c151577U,0x3c8717293c6548e1U,0xbbd4afd43ba36fb4U,0x3aa4ef29bbafef4eU,0xba9cb5873c1b41cfU,0xbc38b0a73a3b238dU,0xbc2ba730bcca0b22U,0x3ca0c0af3c109718U,0x3ab2f92e3b8cea01U,0xbca4009dbc484fbdU,0x3c94feeabb379858U,0x3c3fa5933ca2163dU,0xbbced4c4ba96bb2fU,0x3858657ebca35f4bU,0x3c5229c33c1e48bdU,0xbb9f5a0bba9369d9U,0xbc2605fd3bbb28b3U,0x3bd7fdf73b1c86a8U,0xbb697d5b3b7a6fc9U,0x3b8a1a38bb02a939U,0xbb4e4f9ebc169d81U,0x3c45cc693a9df904U,0xbaac500ebb0ade44U,0xbc30b1edbbb20b3aU,0x3c105cceb9606539U,0xbb4d5a173c22e7efU,0x3a65041c3a82b179U,0x397b5796b8d0fe97U,0x3b1877ce3b4d8b2bU,0xba38d2633a1b2e87U,0xba3c2bde3a20fdf2U,0xb794a8d8ba9f3fd1U,0xbb1f0afe3a92f293U,0xba9c3d30bb924786U,0xbb8e54e2ba86c644U,0xbaa630f1ba559a72U,0xbb104551bb07c948U,0x3b7ef15e3b06fc04U,0x3c13b9113974a697U,0x3a21f67d3b649cdeU,0x3bb524a73b4ef15cU,0x38cfb2f33b1637ffU,0xba17e9233bbab7eeU,0x3b19459b3aabd4dfU,0x3b3980463b45cbffU,0x3b7ef1f3ba49bf64U,0x3bb6b1063b8b5ba9U,0x3b67a1643acdcaebU,0x393b7d63bb3f3da4U,0x3b0a1e09b9b56be7U,0xbb687a89bb26d3fbU,0xbb740890bbc18bf4U,0x3bc3de0dbb37425fU,0xb935a09a3c724e0bU,0x3bc21d6c3b39f121U,0x3c0cc1043b4c936bU,0x3cad51803c82158aU,0x3c58b62b3bc71090U,0xbb78d19b3a159b55U,0xbac13bb3ba985fb5U,0xbb68f30db9e26077U,0xbb652b1a3b811734U,0xba161af2bb50614eU,0xba51546dbb83ea96U,0xbb496105bbbbc2aaU,0xbb5e1cfdbbb81d87U,0x3ad576debb3a8fb8U,0xbbd50a1c3b0f4d28U,0xba0f1e59ba02e964U,0xb9b9dc14baf8bb2bU,0x3b2db54439cdc202U,0x3b415f6cbac2bc69U,0x3a0885003a943da6U,0x3b1cf2363a8d360cU,0x383b25513b751bdaU,0xbb38f09a3ac0d5f6U,0xbc42613ebbc171bbU,0xbc273c25bbed339bU,0xbc661755bc872adeU,0xbc12d03bbb9f6830U,0xbbc3d027bc32b922U,0xbc7c867bbc728f3cU,0xbc6377f2bc878fc1U,0xbc8a85a0bc515cbeU,0xbbb11280bc2e7d01U,0xbc819ad1bc72954eU,0x3ad7d833bb85e156U,0x395738a6b9b554d9U,0x3af14612baea1909U,0x3c0050a93a5b6e87U,0x3bd98d653c0c7d19U,0x3987afa23bdee360U,0x3c1ba96d3bd6f905U,0x3c24edec3bd20492U,0x3be702e53bbfe2b3U,0x3c58c15e3c41ae82U,0x3c69a15a3c4833c9U,0x3c639d763c8da594U,0x3c92d50a3c83bb37U,0x3c7d75963c877b5dU,0x3a9fdb773b5051c3U,0x3b2c5f263a2f20f0U,0xba34e06c3bab8ab0U,0x3bfac7153b3c3e28U,0x3ba538583bbe132dU,0x3be985853bc203a9U,0x3bbe22503aae0ba6U,0x3a5415773b586d90U,0x3b51aac43aa83958U,0x388099cc3b64f54fU,0xb72fcdd53b9afe1aU,0x39f8b3e9b9c0561fU,0x3aa6e9c43a6c7f6bU,0x3b1c407036f78485U,0xbb4d1251bb8a02c0U,0x39a32810b9dfabc0U,0xba85a3d93ad716b5U,0xbb0d1b5fbafd1d11U,0xbae8723cbadb0711U,0x398982ebba3cdee7U,0xbb28c70fbb0dc600U,0xbb4a99cfbb1aea30U,0xbab5132abb27e369U,0xbabe60ffbb434b4fU,0xbb59ac01ba68a31fU,0x3a895ed63a52aaefU,0x3b09777a3b8e63c6U,0x3b854ba53af197a0U,0xbc490da2bbd77b0eU,0xbc38bed4bc35cbdbU,0xbbd5424dbc807658U,0xb9e5bc1cbb9c62c4U,0xbb9df437ba01e017U,0xbb9e1733bbb1eb0dU,0x3a63b5803aef86f4U,0x3b6b509d3b01669dU,0xbbc85d0cbae7f867U,0x3a8b2d40bc1ec3e4U,0x3be03a393a242829U,0xbb2496393beaed12U,0xbc3915d0bba1971aU,0x37c17ea2bb4783f2U,0x3bb22fb33bd6a857U,0x3adb0b02ba7a896dU,0xbab7834abb0bae3bU,0x3bbb0bed3b643da8U,0x3b21a3f13b8cb8aeU,0x3b82728b3b6651afU,0x3beb58863b96d162U,0xbb0dae103b7134bdU,0xba917cc6bb6f71eaU,0xba438ee33bd563faU,0x3bb55360bb3c35b2U,0xbbc6a904ba46669dU,0x3a49e6eabad47c93U,0xbaef4777b9c8ab5aU,0xbb9e6567bb154e6fU,0xba5a662e3b422934U,0xbb11655939303825U,0xbc5c55913a713f80U,0xbc4ffc76bc8c8288U,0xbc9443c8bc5e105cU,0xbc52e7b1bc17a53dU,0xbc02ba63bc07eac0U,0xbbc13e92bc1b482eU,0xbc0e5752bc4dc052U,0x3c165861bc5a3f58U,0x3b288bd73c3c1848U,0x3bb8ad763c42a88dU,0x3b84007e3bbc7d89U,0x3cbad6af3c69ec06U,0x3cb2eb213c8ae0f9U,0x3cb402b03c8108e9U,0xbbdb43ec3c98ff2eU,0xbbaa0499bbcdf0aaU,0xbb81c014bba447c0U,0xbb88fb4fbc552ff0U,0x3c11a62d3c14024cU,0xba6e5f8d3b31e101U,0x3c61f08c3c6bed34U,0x3ad272583bee0948U,0x3c0752883b953d93U,0x3c09065dbba11465U,0x3c23e0663c02efeeU,0xbb300a80bc3bfe96U,0xbc45dd60ba3d47b8U,0xbc083499ba686291U,0xbca2979dbc0c6240U,0xbb8797c7bc0fa416U,0xbc295670bc727df7U,0xbcaaeac0bcb1875fU,0x386559dbbb0c6bf6U,0x3b5572863b94b658U,0x3b1fbaf53c333285U,0x3b61a00c3c085182U,0x3c82afb13c17585fU,0x3c8e82863c9088e2U,0x3c5cf4963c5adfb3U,0xbbb4924cbb94d92bU,0x386971d6bbe39449U,0xbb3717793843a3c7U,0x3b518d19bab8fd16U,0x3c1dce4e3bb62481U,0x3bcd5a533c284871U,0x3bb8e2653b15037cU,0xb7f707ff3ad2ed06U,0x3b7f0cea3b240077U,0xba8a3f183a555a5dU,0xba1f928b3b8882d5U,0xbc05401abbcad918U,0xb722e938bb073115U,0x3b2f711dba948acaU,0xbbc1d6fcbb4a2e17U,0xbb899ff2bbf51696U,0x389ab454bb0dc50eU,0x3b08b5683b4e3772U,0xb9d5b03ebb0716cbU,0x3b1b30eb3aeffe39U,0x3ab1ba57babc9cabU,0x3bac9bf93c27927fU,0x3ba270963b385f15U,0xbb3194ab3ba4c130U,0xbac766373b8d5418U,0xb98529b8bac4f899U,0xbb55edc4bae7a563U,0x3ad4ff1e3addfccaU,0xbb1627c1bb03bf99U,0xbb1f95ba39b732d7U,0x3a7fbb89bb6b1370U,0xba936acf3aa00bccU,0x3a27c959b9b36a4dU,0xba4231dcba8ec184U,0x3b2c44203ac1e59dU,0xbab817d8b9ff5078U,0xba4029e1baebe3b5U,0x3b92a97bba8966edU,0x395abe5c3b48e112U,0xb9ade0bfbb11254eU,0xbae1fe49ba6a4d77U,0x3ae2b70e3b235e06U,0xba9f27413a169123U,0xb9e7021cb9854843U,0x3a000c8ababc0dfeU,0x3b4fba833af6be9aU,0x3b3704343af07b29U,0x3a9cc6113ae49649U,0x3c0b5db13bcdf274U,0x3b9ae3d4b8f20e27U,0xbb011df7bb7ba559U,0x3bb3be543b67a619U,0x37a49a33baff8945U,0x3b07b8213bf1327dU,0x3bbb03c3bab6d137U,0xba29b36b3b6bdf63U,0xb949d5b0bb3eec9dU,0x3a854677bb9cab72U,0xbb75a555bbf6b72eU,0x3c3da580bc012159U,0x3c4dc9b03c71730bU,0x3c4386443cbcd0a3U,0x3b891e9e3ba71347U,0xba0a3904babc596dU,0xbac83cfebc1ea860U,0xbb7b417bbc0e0857U,0x3ab14499baad46baU,0xbb1ff0f53bdd3ae9U,0x3b2225103be2c7abU,0xbaf79fac3bdd3300U,0xbabff9c83b98d609U,0xbb412ed5bc16ef92U,0x3b2a8232bbea411cU,0x3a824852bbd44dd3U,0x3ae879c03bacffe9U,0x3b9b3efe3b051df1U,0xbc0b4e1bbbc44dbfU,0x3a8ac553ba8e724dU,0x3bd485ec3a101c57U,0xbb7ab6123c014adaU,0xbc46b5b2bb62974cU,0xbbfc3379bbdd0180U,0x3b32b1a83b9713f8U,0x3b0702323af3cc71U,0xbc46dd3dbc5bf0eaU,0x3ceef3083bfc2835U,0xbc621f103c5ea8a0U,0x3a133b0abbea1ca8U,0x3c6a187f3b308324U,0x3c3fe89c3d077fb9U,0xbc4441bbbc6e1199U,0xba6f008cbaceefe8U,0x3c04cbae3b2231f8U,0xbc04a4743b763fb1U,0xbbac8446bba7d0baU,0x3c0d8176bb32e125U,0x3b9fffa83c764a25U,0xba803c56bb289088U,0x3a6916beb9a3d1a3U,0xbc302c2ebaf8c6deU,0x3b4a154a3b9d8667U,0xbb8bb6a7baffe2e8U,0xba1bdbd3bb057214U,0x3a8cd68abc80ba8aU,0xbb32645f3b10b414U,0xbb83a9cebb3c4500U,0xbc6e2c78bb68ec83U,0x3b94ecc13b46718aU,0x3978c27bba102513U,0xbb95f2b1baa1181dU,0x3b2271e9bc848a16U,0x3a1b5f913b969bdeU,0x3b93bc1f3ac7c34aU,0xbbf0c0af3b14ef94U,0x3b876afc3b975f02U,0xba1830913a8d429fU,0xba485ee53b471cdaU,0x3b1968bdbc4ecf88U,0xbb359b5b3ae8455fU,0x3a1168adbae535f0U,0xbc1b9327ba815dc6U,0x3b74079d3b9764a2U,0xbb0e8bffbaa91469U,0xbaefee3c3a00e7c6U,0xbaaeaa00b9bb59fdU,0x3ac68fa939cfa2e9U,0x3aec74eb3ae6f188U,0x3a99b9da3b3c8c52U,0x3b281aad3b067b7fU,0xbac50ac83ac377d2U,0xbba1a6bcbb7539bfU,0xbb9c0b28bb261193U,0xbb1d21fdbab53589U,0x3a04b2daba7be860U,0xbc29609abba4ec31U,0xba8cb2bbbc0d61faU,0xba5a7e8bbaa3935fU,0xbc3a881bbabf729fU,0xbc1b9193bc881cfeU,0xb9c6534cba25c5b1U,0xba1b665cbb22d4daU,0xbbd652fbbb508307U,0xba8ed968bb89dd08U,0x3b24ec363ad577baU,0x3b0344743b81a4a7U,0x3bc5f8d03b8dcbbaU,0x3b90fc2c3b6edfecU,0xbc4735eebc402b7fU,0xbb5ab72bbbb485f9U,0xbc115381bb25a95bU,0x3b778427bc84a7e6U,0x3cefe3de3c2c2a28U,0x3cfdbc423d0a3bc6U,0xbaed3e2c3c38383cU,0xbc138a5bbc918137U,0x3a88aeff3b2639f4U,0xbbb2cc923bae1824U,0xbc21ab58bbc6cd6dU,0xbc144e9fbb0b1ab3U,0xbc37fbb6bc80061bU,0xbae21c13bb6751efU,0x3bf6035e3c3a6017U,0xbc8ff675bb57d859U,0xbc2672f1bc08b9c4U,0x3bf105de3b8204cfU,0xba403fad3b95a1e5U,0x3b32dce3bbd3a9feU,0x3c521a403b9f7f71U,0x3b99451cb8e06233U,0x3bfdcab63b8c6eaeU,0x3a75a1273b93a9ffU,0xbc887b233c2fafcaU,0xbcc892d5bc390d9fU,0xbbf42f78bc85cf92U,0xbc4a81a4bc8f27f3U,0xbbcf00b6bc1d6a05U,0xbbae8cd5bc202189U,0xbc7d4a4abc094454U,0x3c295741bb1f7465U,0x3ccc9a303c7d21faU,0x3c1463a63d053675U,0x3c3065453c24b637U,0x3cb62d823be89079U,0x3d0c0b323cacec50U,0x3bed4ea43c1d3140U,0x3ac37d2b3c63ebb9U,0xba802a9cbb9d13eaU,0x3a4ce4453ba5248dU,0x3b83446bbb1e5028U,0xbcb5b22ebb09f7a3U,0xbc35a74bbc8fd3e5U,0xbaf48fdbba421c51U,0x3c52834bbbcbe50aU,0xbb5a99e13bd0748fU,0x3b604271bc09b76cU,0x3b9976773b4fa4b6U,0x3a12bdad39c10cfbU,0x3b1158b33a88b10fU,0xba157c963ac1068eU,0xbaa2c33bba168810U,0xbbbad8b0bbebfffeU,0xbb81cdb2bb5a6857U,0xbbc54d58bbb48b2fU,0xbba3420cb6765f45U,0xbb99ccb7bb913970U,0xbb2a224dbb340fb1U,0xb94c6662bb295419U,0xbb8d26bdbbbb97a1U,0xbbefa3d0bbd1c5aeU,0xbb90e19cbbe69367U,0xba195eb43b31a624U,0x3b76a9213b2d0f81U,0x39655567ba866b9fU,0x3a92a0b639006868U,0xba4e9389bb03b2feU,0xbb0d71d9ba4a43daU,0xbb0c29d3bb38abedU,0x3a6388e63b2fb14aU,0x3b72e9073b2fc5e2U,0x3b247a8b3b08ad1eU,0xba32dcae3b712f54U,0xbb254b4cbb28075aU,0x3b5218cdbb1f7ee8U,0x3b4a9b393b0532afU,0xbb5f9b90baa706d5U,0x3ab0ff76bae39ddbU,0x3abe4cdb3bbc1cf4U,0xb9075fcf3b3bfb12U,0xbbc3b2d1bb402defU,0x3ba0d65dbb102daaU,0x3b3767923b490762U,0xbc0afc24babbbc12U,0xbb1faa59bc1366b7U,0x3bd22f153c009888U,0x3acb00ff3b712508U,0xbbc1d719bbeed497U,0x3bd13dddb969dec8U,0x3bc7d1223bcb4c58U,0xbbd02c6f3a6d11cfU,0xba9824a8bb9fd84dU,0x3bb21c5f3bd1e551U,0xb93c9f5b3bd3e933U,0xbc25d4a1bbc440baU,0x3bae2606bb479320U,0x3b7393c53b1a6498U,0x3b20b241bb9828afU,0xbb2d706fbaf43899U,0xb9d624d73b299739U,0xba9e54dbbaa6b9d3U,0x3a99025b3bb0761dU,0x3c2901ca3ac1fd64U,0xb785e9b83b98c012U,0x3b3de1cbbb03a917U,0xbbf68d1bbb5fe66fU,0xbb5439b7b9e628d3U,0xbbbff2eebb882eb4U,0x392f33223b944db4U,0x3c11951e3b60912dU,0xbb37c784bb437afdU,0x3ba40dc8bbb0b9a2U,0x3c3c1c523b7e37b3U,0x3b90b09a3c38e288U,0xbc156cb43bfb7ad3U,0xba5cbe653b96edd5U,0x3af6a492bba94ed5U,0x3aef37cc3b8b8a48U,0x3b8538f1bb19dbf1U,0x3962939d3afaec3eU,0xba656bfa3c4750c6U,0xba9bd247bb9d54d5U,0xbb0b04823a8bb5c9U,0x3ac426f23a639431U,0xbb08b5fbb9beaa71U,0x3acfbcf1bb17b2bdU,0x3b0fcbb6baebeaa1U,0xbba98e453b242d99U,0xbb127e43bb85a3feU,0xbc06410c3809698fU,0xbbd77493bc1ad835U,0xb9d26c59bb6bc1afU,0x3af88e483b133e89U,0x3a55ca0fbb829cf5U,0x3aaf8075b8bec32cU,0xbb15e1f03b371d9fU,0xbb391b6d3acc83c7U,0xbb249faebb853968U,0x3a58caaa39062dcfU,0xbb01b8efbb39bfc5U,0xbbb069fcbb78f17dU,0xbadbb52cbb5d6a76U,0x3b2e1c02ba2341bbU,0x3a4de4173baad8e5U,0x3b67db82b96fa11aU,0x3b8df4d93b77867cU,0x3eaf38f83fb34228U,0x40329b35bee7ca70U,0xbe03cd743f9e6bdcU,0x3fa2e0184041144eU,0x3fad434d3f959207U,0x3e2429e53fd906eaU,0xbae37988c0c4659aU,0x3fe4068d3fa916dfU,0xc0452b34bed5ec27U,0xbfcef3773fe5e1a6U,0x3f92d845c049a2baU,0xbf8fbaf43f0c113dU,0x3de8b42ec0a1f965U,0x404be795be8502e9U,0xbc61f8a8bfc92a5cU,0x3e398a1ec08ed2ffU,0x3fc530a8bf1c3facU,0xbe29a13d3fae16d1U,0xbff118c840315f01U,0x3f77bb66c03984c9U,0x3dfebc0abf1bd0eaU,0x400718a03f886e9eU,0x3fe9554b3f1334ebU,0x3ec96a2f3fba28b3U,0xc05191bc3f913382U,0x3f81656d3ff5bb04U,0x3f04fdab3f780693U,0x40244cba402b3b72U,0xc067af22c08dfc2aU,0x3fb2a0a23edfde2cU,0x3ebe11dcc09dc055U,0xbf88663e401158cbU,0x3e2b3a353cd6bec6U,0x3e35f789bbb932aaU,0x3d0265b5bdedabc3U,0xbe5a5287bdc64ebaU,0xbdc71e9fbbea89a9U,0x3b4cee71be6ae4e9U,0xbd63d20dbd3a8794U,0xbe6d082bbd43d84eU,0xbd896d0e3d890f05U,0x3bc5d1e83e0f36a7U,0xbde10d253cdf51bbU,0x3dadeac83c891f47U,0xbd14c2d23bca6524U,0xbde26ab3bbd38c98U,0x3cf41a763c740ab3U,0x3d0ef5793c88e6fbU,0xbc78d8833c8fce08U,0x3db8971c3b4d822dU,0x3db57a0e3b23e084U,0xbb03d072bd244c1cU,0x3d77fc533d1ab831U,0x3cd955d7bc86170eU,0xbe1cd0263da9e9bfU,0xbc0b72bd3a6a128cU,0xbd96f6abbd8b3946U,0x3d755f20bc06eaf8U,0x3db4c5383bc403c5U,0x3c8ca226bdce9a7bU,0xbc533c49be07e0bfU,0xbc5e4b3f3e2294c4U,0xbd756c923a3ff302U,0x3d8e4883be0e0112U,0x3d4d39ce3c8b118bU,0x3d80bdf33ab4f87cU,0x3c4f3da0bd10813fU,0x3d2a659b3c2e084eU,0x3d530e583ca03330U,0xbd3f8dd93c8e0239U,0x3d37f2a9bd17adb2U,0x3c78541abca1aa5fU,0xbd6fd9133d55c0c4U,0xbade831e3d22b2ecU,0xbc7ba8a8bccea9cfU,0x3d0bf737bb3f2aebU,0xbc38d68dbda273b6U,0xbd0b1c703bf3766fU,0xbd8a2a0f39ebc24bU,0xbbfa5a85bd17f0c9U,0x3d0ce6ff3d48e652U,0xbc96624ebc20ecd9U,0xbd98f0363c736a0cU,0xbc5ca566bcd8461eU,0x38df400cbcce0cdfU,0x3cb32df5bd91545bU,0x3cf494e93aa5e70aU,0xbc015fb73c69b946U,0xbc68cddabd072ed3U,0x3de488943cf18575U,0x3d1b92cc3d884cd3U,0xbcc8f77c3c97fb1eU,0xbd66bb13bd786099U,0xbc5db0973c8cf13fU,0x3d478c1c3c9acd64U,0xbc8f8e093d133fa6U,0x3d8190c8bc9ec495U,0xbe0a2101be33840cU,0xbc1b6d643defda33U,0x3d1379fb3ae526b8U,0xbd7693c43ced80c8U,0xbd0855f63e1ee817U,0x3cb121a0bd7e33b6U,0x3cd02e36bdab12f4U,0xbcf8effebd82eaeaU,0xbd8e45b23d199f3dU,0x3d659728bd7f0ec2U,0x3d063d76bd56a1ddU,0x3d0a2e66bd13d33eU,0x3ddaffa43c527e27U,0xbd2fe949bcaa2729U,0xbc92cefcbd993373U,0x3d7e2526bcf638deU,0xbde752e2be21f0b5U,0xbb9e7c4bbbc0cf4dU,0xbc7ba3fc3d28c571U,0x3bd66af5bdae5c23U,0x3e14f4c33d6088feU,0xbd843fb2bca28444U,0x3d90db3f3e288c47U,0xbc9b75963cd0aef3U,0x3d5dfcb63c9e95c5U,0x3c0f90c83c79a991U,0x3cfa517ebcb5de57U,0xbd2b64bf3d7a6e14U,0x3bb3f6063d2fde8bU,0x3c0d41e4bc7af961U,0xbdafefc63d807a8aU,0xbd01f805bd684e9aU,0xbdaf104cbd9e637bU,0xbdaf2d143d0b9e41U,0xbdcaa08fbcd1ae44U,0xbcaf1cd3bd667ed7U,0x3d664e91bbe2564eU,0x3cc2df9c3d465109U,0xbcd72d45bdace8ccU,0xbd30a1b7bbce24faU,0x3c182763bcea0d49U,0xbc912aa13d3313d4U,0x3d30f9dc3d2533adU,0x3e02113bbd899f18U,0xbd9f15593c2e7d25U,0x3c94dd2abda8dc7cU,0x3cfabf073d90e4dcU,0x3d0d2bfcbc37dd67U,0xbd1677df3d8dc33cU,0x3d8ba2ce3c731db9U,0x3d5b5da73c037f70U,0x3b98bd503c89376cU,0xbb9b955aba4c7678U,0xbd466384bdcecb1bU,0x3cb88e573da224a2U,0x3d2228d83d4de609U,0x3dcb3abf3d57329bU,0x3d5651f03c4de887U,0xbd05907fbcc5a3e6U,0x3d8d83993db14afaU,0xbbe055823dcb2b67U,0x3d2acf8f3d7385b5U,0x3d95ddfcbe05dd3cU,0x3d28ce3dbd80c553U,0x3d6e98bd3cdfd99fU,0xbc7ea4b5bc0de8b0U,0x3c709d143ca67c4fU,0x3d4074873d02893eU,0x3b9e5ff23be28c74U,0x3b592761bdc13dbcU,0x3b5f496a3bfe40d0U,0xbd89bd203d269aaeU,0xbd218182bb54e055U,0x3ccc3e8cbbffcc61U,0x3bacd33a3be949faU,0xbc32f497bcc5adacU,0xbc80e7173cc94793U,0x3d01c512bd4c7d0fU,0x3cd45893bcbee650U,0xbc342c37bd2756daU,0x38560f5e3c20f163U,0xbd66370f3d63d0d5U,0xbd209895bdda9f1cU,0xbd47bc00bd10deb9U,0x3c3cff4bbbe5d1bfU,0xbbd1246a3cbfad45U,0xbcab8a793bd14f27U,0xbd46db193c16f173U,0x3d0a91f6bcd92190U,0x3d28f9183c736410U,0x3cd3858e3db123feU,0xbd7fc0e53d9102a2U,0x3d8514153d83bad4U,0x3d5813e5bd7ffcd3U,0xbd6b10943c139ae1U,0xbc743207be070735U,0xbce36f5e3c785924U,0xbca421bdbdf50d69U,0x3d79e12a3de18a7bU,0x3da7959f3d8929ccU,0xbd39326f3d2f3503U,0xbda5f946bd8b3400U,0x3d8e52b83d791d22U,0xbd75f7d43d943d63U,0xbcaf5b19bcd7f8a4U,0xbc9b6195bdfa9046U,0xbe0ee5a5bc643db2U,0x3d1cbba53df8180bU,0xbb99d636bbcbd651U,0x3cac33f1bcf1a062U,0xbd22e003bdd8d75bU,0xbd7ea154bd6ca050U,0x3d65f0e03b56f7dfU,0xbd997e103da8f56bU,0xbe3b35f1bdcda1dfU,0xbbf495e7bd3fdce0U,0x3d1b9604bdb24b59U,0x3d704da23d356acaU,0xbc93be7cbd3087eaU,0xbcd3cb1e3d9162acU,0xbd2fe54e3c9d15a5U,0x3ce975c4bdb8ad56U,0xbd8dbcf23d4becb8U,0xbc84eaebbd8fb874U,0xbc342941bd969e85U,0x3b2f1f86bd97bfceU,0xbc7827ea3b1edb0bU,0xbab002883b3f0064U,0xbcf3b719bc884652U,0x3ce94416bd28aa93U,0xbc8f6738bc6c9261U,0x3ca11224bd7bb726U,0xb9ff3902be0026ddU,0xbd8d39c33ceaffc8U,0xbd0e736e3da7744cU,0xbc1708743d46fec4U,0x3cd9bd03be14e3e7U,0xbcded315bd60b8d5U,0xbdf312ecbbacda75U,0xbc53165b3d81a5daU,0xbd14dbd6bc934135U,0x3ca493f83d1d931bU,0xbc5685833d07e937U,0x3b29d2833cd4ccb0U,0xbc25d0a6bcb27531U,0x3cdefdbfbd8e939bU,0xbc81b4d93c054b6eU,0xbd9d0094bc8ad54fU,0xbb60ba583cdad8f6U,0xbb622d1ebd2dc908U,0xbb961026bccd3fbfU,0xbc7363293c05d550U,0x3d012ef13c7fc98dU,0xbce0d40dbb2169cfU,0xbc801a9b3c00375cU,0xb9844e15bd735cceU,0xbc0ccb0e3b8d8627U,0xbcd4ac19bbbba427U,0x3babf8a0bccb30e5U,0xbc5cfe53bbbb714cU,0x39938fbbbc736593U,0x3d2cdf2fbd137acaU,0xbc36b1e3bc682f00U,0xbda15984bb8be49cU,0x3c74863bbced85b2U,0x3d3db7d33c34d2ceU,0xbd0946e03b1e1484U,0x3b9eb9283cc7facfU,0x3c25756e3d016f58U,0xbcde39b03cd4ebb1U,0xbcaf220d3b96ec7bU,0x3b5805c4bd42d1deU,0xbc43ba8abbb39205U,0xbd545323bd0aec0cU,0xbbb46ad5bc62754bU,0xbc67a99b3c93e7d0U,0xbcb6a408bb152265U,0xbc79dcd13d26663eU,0x3c4f0d133b8c6665U,0xbce19ebfbc2b7c24U,0x3caeab8a3c888e52U,0x3ae6bb3ebc12ae8cU,0xbbda22e5bc29c8d4U,0x3bb00ad7bc938980U,0xbcc3cc49bd55db0aU,0xbb8e8f833cc71578U,0x3c93b2ab3cccf8e6U,0xbc3b4d1d3cfc290bU,0x3c599724bc83850bU,0xbc0f42683ae2fa92U,0x3a8fdca0bcaad23bU,0x3bed532dbb8cf33dU,0xbb9f55b23affb477U,0xbc84ccb63b57fd83U,0xbc18db113cb62b4bU,0x3a216da23c4ea161U,0xbcc42890bc48c56fU,0xbbc6a429bb89fd0dU,0xbc193b753d064ec3U,0xbc045b923c279e2cU,0x3993e924bcccd5a0U,0xbbc328923c2b5973U,0xbd0b33cd3d0357aaU,0xbbba16843c5d021aU,0xbb96beccbc719068U,0x3b477ad6bbda1916U,0xbc65a4da3c7806b3U,0x3ca91c70bb779d9bU,0x3c2f5495bc955c36U,0x3be423003b195971U,0x3a6bacc13b2b3ad4U,0x3d4d46083b6307f3U,0xbc830914ba71a935U,0xbc5f03a7bc501c6fU,0xbd11f9613c32cfcdU,0x3c85df133c9f8068U,0x3c89fa153c155b67U,0xbbb2d8fd3c9e40d7U,0x3a728932bbf9efbaU,0x3ba1800dbc1a3889U,0x3c999b7f3d099a0dU,0xbd18ec07bbf20e73U,0x3a29cf76bc2baefaU,0xbcf77aaa3caf6997U,0xbdf1acb3bcb01e9eU,0xbd478909bbb44ce5U,0xbc8be7093c346e1aU,0x3cdda9003c94b279U,0xbc513ac43c1a121aU,0xbb4bb5bcbcf03cc6U,0xbc5c1db1bb5dbbe0U,0x3bbd995c397edee2U,0xbc90c79bbc013c1aU,0xbc348732bd1ce889U,0x3d792e8c3d04e839U,0x3d92e4debc1c9821U,0xbccaa1d6bb97c539U,0x3cb4124c3c410efcU,0x3c03733dbd15c26eU,0x3c51250ebd2dbb1aU,0xbd3f5537bb8fb454U,0xbbb6272bba45e8bfU,0xbcb91416bd14c339U,0xbd08b956bc9d06bcU,0xbcc05015bc857f4eU,0xbc3b1411bdb9e983U,0xbb544200bcd27129U,0xbcb4ea05bc943ee9U,0xbd0d18783ca1c890U,0xbb8c58c0bcf0535dU,0xbc8b140c3c3844c4U,0xbccbae15bdba9beeU,0x3cb5eaab3d96d94fU,0xbd6ac2f0bd013ed0U,0x3ae4b2dfbc76d3c0U,0x3c8e2a033dbcec09U,0xbd8be3d4bcd7f285U,0xbc7999e53cebd9ccU,0x3c7ceccd3dc4c493U,0xbc04db893c88c9a0U,0x3c7a80ef3caa6dc9U,0xbc18f82e3c8143adU,0xbc96741ebdb2e97dU,0xbd341424bd514c0bU,0x3d2b55d63dcfd712U,0xbd9070c53d82c404U,0xbe4914bd3de2c8b8U,0x3c8379d33d555690U,0xbca4c048bd8a4649U,0x3c7f98ec3cdadc63U,0xbe04a5bcbc078642U,0x3e17226abb0fcc8bU,0xbcf9f0c0bd2740eaU,0xbd922e213d09f3a7U,0xbd106d813d2171eaU,0xbd9fe50bbca9dda8U,0x3d5b65f5bd4a50a2U,0xbd1ba0cdbd68281dU,0x3d7121dd3dfec991U,0xbaf4113f3d445320U,0x3bdf1da5bd02bc43U,0xbd37bf5d3da1328fU,0xbd120fc13c8425e5U,0xbda16e72bd685fd5U,0x3c9a0db43c84fe68U,0xbc8932fabd6f5144U,0xbcc4bf61bc9df148U,0x3ce8efa63b2c6ef1U,0xbc943c63bc20442bU,0xbd930044bbccd63bU,0xbc2dfe973d7a0e35U,0xbcc76cf53afacb16U,0xbcdef0de3c7461a2U,0xbe0fa065bdcee3c3U,0x3d0cc65c3d67dfc1U,0xbd2abfdc3c5f4defU,0xbcf942373be3b4e4U,0x3be3283dbd7ca0c9U,0x3cf5b8d2bd297dcbU,0x3ced4ed0bd9656dcU,0xbc3bfe4bbd83065bU,0xbcb3472ebd087153U,0xbcc0f926bdd6d4f6U,0xbd39c6efbba6be44U,0x3c92f91abc74198bU,0xbd28dc053cb283d3U,0xbbf8bdf7be1c5d06U,0xbd8c48ae3c55e564U,0x3c9e0dac3cc38566U,0xbb7dffb5bbbc8b2dU,0xbd6abe32bd8d642cU,0xbdb74a7bbd5cf127U,0x3d813054bd4ad92bU,0x3cb3c61a3c42d177U,0x3be1329dbb1201d4U,0xbd7fee9bbce5d1cfU,0x3d2f31083bc6eac5U,0xbbda6d14bd3d0b57U,0xbcec64873b933506U,0xbccc032a3d010a59U,0xbc7b0e9c3cb4e824U,0xbd689422bd39456dU,0x3c82d33dbd3849aaU,0x3aaa89453d06e90fU,0x3d0a75343c6d6099U,0x3dbe7a8bbcf801e2U,0xbbee7f853d4680c0U,0xbd05428cbcf31ab6U,0xbcb1f9293b9f6597U,0x3aa2defbbd239e72U,0x3cd055503c84db47U,0xbbbcccd9bb266645U,0xbcb0b7ce3d4ed528U,0x3bfdf466bd42b389U,0x3c7dcff6bd2de02eU,0x3b35c4c63cbfd9c9U,0x3ced39863d15840eU,0x3c0098be3cadd3f0U,0xbc0129033b8b3addU,0xbd60e1833ba9b2c0U,0x3c90912f3d74fff4U,0x3d1888323d0e076aU,0xbdb7ad88bd4ddca6U,0xbd90ac2cbd8d4893U,0xbd25a632bd606e39U,0xbbc386b8bdd54172U,0x3d0814293d91bbe2U,0xbcb38a903c3999b5U,0x3d6129343d316af0U,0xbd69d7a2bd44d0d6U,0xbd09be0e3af58bdbU,0x3c87fe65bb9e7391U,0x3bb861e63cb0b0c2U,0x3cb9b2f4bcfacc35U,0xbde996e8bd1218c0U,0xbccfc34fbd844f88U,0x3da1bf64bcc7e26cU,0xbc5656f5bd43396fU,0xbdb4b7843d8ca24eU,0x3d367171baefcc55U,0x3d450becbd23b930U,0xbd909a2a3dc84770U,0x3d3f2b073cd1f309U,0x3d81f7623dcad963U,0xbc38741d3d682cf8U,0xbc88f37f3cad4643U,0x3d5c48d53d193cebU,0x3daabf1e3d29d44dU,0x3cda1e3d3d9f2f73U,0x3d18166dbb149cf1U,0x3db82c533d1a5514U,0x3d5167c63d64afd0U,0xbcef27143c83feeaU,0xbdaad4ab3c3e1b74U,0xbb6d0317bdc75abbU,0x3b980114be1979efU,0x3da82a5e3d487bccU,0x3ce127f23d931937U,0xbc8ad6adbd5ad8ffU,0x3d6ac8c33d2ae317U,0x3d8746f63c7190fbU,0xbcb51f633c5a818dU,0x3d2c15fabd766d45U,0x3bbfe5b6be1d2986U,0xbcbedf35bdc3cf90U,0xbc9752a13cdfe47bU,0x3c216d48bd1e4143U,0x3d032deebde27a88U,0xbb002ccebd529935U,0x3be9bbe7bc4f2895U,0xb9b30ea7bd1f1cc3U,0x3bad3389bd51dfcbU,0xbd662f7ebde91066U,0xbc40bc3e3b4e5226U,0xbdad8cdbbe0b9ca9U,0x3babe11c3d143effU,0x3d9237263caf7643U,0xbde07dc3bc9f00fdU,0x3d253cdcbd46ce56U,0xbde1d190bd812919U,0x3be771493cb977a0U,0xbde940c8bc71725bU,0xbc8825b4bd300cb6U,0x3d600cfabdbb4fe8U,0xbb8d34a1bc302e8dU,0xbc8d628e3c9f83c2U,0xbd943cc23cac2fb8U,0xbc3e6ceebd7e8b16U,0x3d70c009bd116911U,0xbd564540bd2cefb9U,0x3d431e71bbe557f3U,0xbd1713b0bd9d85d3U,0x3c8277e2bc79a60dU,0xbdb2af91bd9bb92cU,0xbdf84b143c53583eU,0xbd926ffb3ccab3b5U,0xb9d292e83d5042d3U,0xbd69db6bbde086b7U,0xbd12c430bcd31c1fU,0x3dafbe5abd018b00U,0xbcc1e1cc3c56d296U,0x3980e5eebd2fac21U,0xbcbe56e5bb39351aU,0xbcb9339f39c5fb79U,0x3d27d0b33c093ba7U,0xbd71f9b23d557e7fU,0xbc7edd6bbc62b434U,0xbd313e0d3d48a26aU,0xbd496c76bba3ab2bU,0x3d173e4f3c910903U,0xbca1bda1bbb4915fU,0xbd4c69953d815094U,0x3c7e9868bcc39174U,0xbc96efcabc95950cU,0xbc1d6e2e3d1fdaa6U,0x3d58dd933d50ba00U,0xbc97946ebc13c014U,0xbd1d6340bd92faf2U,0x3d8005e33b20a652U,0x3c3c907c3a900ee7U,0xbcc9c2963d7339e9U,0x3dc6635dbd73c579U,0xbd0ee5bdbd3dcfd1U,0x3ca685293bb38a36U,0xbd518f593c97a060U,0xbbf538d43ce9829bU,0x3d9b062bbd933483U,0x3d8bd3e8bdc4cd91U,0xbd94daacbc4d7d43U,0xbc69a46ebd252d0bU,0xbd0805c7bd80e57bU,0x3c6a4c96bd9390c8U,0xbe3d2be0bc3f5021U,0xbcdc7deabc22b7bfU,0xbc9d3e50bd8d626bU,0x3cb794833a3c94e6U,0x3b014047bd1586a0U,0xbc03e069bdfddfd4U,0xbdd91af13cd831edU,0x3d23d501bc156d1cU,0xbd45f5bbbd4e417bU,0x3d19db60bd10cf3aU,0xbe337eedbd02158aU,0xbc9ed5a43d1ae46dU,0x3d2aed7cbdb497d6U,0xbd4de2813cf01d16U,0x3dc1774b3cb7ea78U,0xbccaacc2bd8e36b0U,0xbd5a4928bd29791aU,0xbd01cca83d00863cU,0xbda394d13cf7cacaU,0xbcdb155f3cb9cee8U,0x3cd606aa3d266c44U,0xbcf80b363c6a32dbU,0x3d1090c4bd1b908aU,0x3b715828bd5dbc00U,0xbd9d278cbcf7215eU,0x3d148c13bda48591U,0xbc626960bd9df335U,0xbd14c594bd5fa8bdU,0x3cdd75243d41a0d4U,0x3d922580bcdfcd86U,0xbca217bebd550012U,0xbadc2655bde4277bU,0xbd4fbb56bd86ca89U,0x3d1cd8c4bd73c6a3U,0xbc17c6783d89248aU,0x3d02d882bd65d398U,0xbc38c0663d053164U,0xbc1dfd61bdd886d1U,0xbd8346acbd9cc066U,0xbd415f8fbe1ba03aU,0xbd5660e4bc93ddb9U,0xba58ffc3bc961704U,0xbc795ed9bcbae41aU,0xbe17337abd9ff52eU,0xbd19c94e3cf0a296U,0xbd11f2b9be030260U,0x3da7ff96bd1284abU,0x3d58e6533c0a4e56U,0xbd08096fb96634eeU,0xbd65a6dbbda67405U,0x3c266788be037d49U,0xbc4c2549bdbe345cU,0x3ce3c5c0bdb97fa5U,0x3a0b7ebf3b40334cU,0x3d769d35bc80d974U,0xbce6fe44bd55d12aU,0x3c2e8c4b3d18b9acU,0xbd84d832bcde8cb4U,0xbd45777ebcb8b32aU,0x3ce9e323bcd49091U,0xbbb45fac3d466813U,0xbc4f7b01be103dfcU,0x3b8769fdbde40718U,0x3bbb2e733cf05808U,0xbd3602fcbe01a792U,0x3cbf658b3d965fa5U,0xbd68e0ccbcbf4e80U,0x3c864232be1a3445U,0x3d4c38bcbdf4fab3U,0xbdcba611bc81a1d5U,0x3e288ae63d63fe09U,0x3d1e4157bd90e3ccU,0x3c10d522bd1c5474U,0x3d97551abb16d099U,0xbd25b70ebaa5404cU,0x3d82b87abd90a050U,0x3b9d3bb33dc0c238U,0xbb80fc02be874656U,0xbd820b8c3dbfddfbU,0xbdeb0bf33b232a0eU,0xbd5bbfccbd0648a6U,0xbb9bdd793ac3a6adU,0xbe275f0abc9421e9U,0xbda5aa32bce0ba3fU,0x3cab603e3cf2807aU,0xbd2f79233c5d1953U,0xbd58191cbcde7805U,0x3c8e62c33d2b5a94U,0x3c618b8d3bc167aaU,0xbdad8943bcee8191U,0x3d011f91bd50afb8U,0x3ad8316abd3d72d1U,0x3c5422d4bcd1568fU,0x3d5af4a63d9f3898U,0xbd235f5cbcb3cbe7U,0xbc8fb1d9bd1ef1aeU,0x3c85c074bd9a6c69U,0x3d0e6969bd331e30U,0xbc56fa5bbc9abe7fU,0x3cadfe69bb6f239dU,0x3d148a7f3c677b0eU,0x3bada2593c8e25c7U,0xbbc6854d3d57c483U,0x3d8a71273b0ab88bU,0x3c45d82d3d154128U,0x3d7a7c5d3e0d1a4eU,0x3c5bb5303c7de931U,0x3c7e2e2abd608c6bU,0x3bcd44dc3d0c835eU,0x3c57759abd0a8debU,0x3c86ba8f3c8967cbU,0x3d7ec7923da1ff2aU,0xbccc08f63cc1b756U,0xbdc0aa4b3c82e564U,0xbccebbefbd0da61dU,0xb8844645bd33b25eU,0x3d0dbb6c3abe7921U,0xbc3f658fbbf7c7a1U,0x3be52929bbdc9023U,0x3d37e5853d9e70daU,0xbc38b0ddbd303355U,0xbd10dfe03cca6d2bU,0x3c7fb6d9bc5661a3U,0x3bb474c4bd1d0d08U,0xbbeb81003cc0d026U,0xbb97c12e3c0d12b3U,0xbc2ca4fb3d0b57d1U,0x3cc3b11d3d5c006eU,0xbd818c053c82d118U,0xbcbcb245bc5485fbU,0x3b5b2efd3c0579b2U,0xbcc059623b4d9192U,0xbc624428bb609983U,0x3cff1902bd15fe01U,0xbd3f63133d5dd3cdU,0xbc760cde3cab764fU,0x3b276fc53bebb588U,0x3cad6be7bc10879bU,0xbc18ce033bbbe596U,0x3d878d39ba45b76dU,0x3d08a38d3d502a8cU,0x3cafa1213c83fba4U,0xbc9f3f0dbc880b66U,0xbc4a61fd3c07b9cdU,0x3c167f47bc72fb32U,0x3c265a213a6747a5U,0xbd1dab6c3d475aeaU,0x3c55ed1e3d95b1f2U,0x3b0361953cb56df9U,0xbbd3e2ea3d130402U,0xbc575b8ebb95932dU,0x3b808468bd92ca8fU,0x3c0c50ea3cc2eff7U,0xbb1db3abbc616ee8U,0xbc12b2fa3c8f8dfcU,0xbd5bde0cbd48890cU,0xbb5cc083bcb77041U,0x3ca24fab3c873cd6U,0xbc070f88bbbb23afU,0xbd3b698ebcba1caaU,0x3c49869f3b179c88U,0xbc6ce3443c04872dU,0xbba375e8bd58ef9aU,0xbc0a8f13bc4f26b2U,0xbbcbdc8339274eb6U,0xbcf3cb533c56efeaU,0x3ccba6a3bd6a4f2dU,0xbd306b7e3dade9ceU,0xbc8136393ccb1e80U,0x3b5f92ed3bbc054bU,0x3c05840dbc20b144U,0xbd9cb6643b982868U,0x3c32863cbd791535U,0x3c1f88b0bd8511aaU,0x3d4b4f31bd1fad5fU,0x3c0f71823d0532b3U,0x3c01dc68bca05f6cU,0x3c0324b43d812a6bU,0x3b878a46bc9c0557U,0x3c375841bd828e5bU,0x3cac237e3bd756e0U,0xbcf6892dbd01601aU,0x3c24eab0bac7c676U,0xbcb97c67bd038c28U,0x3b9ff843bd9d6d82U,0x3c82caf13b8d8396U,0xbd06de793c95b3e2U,0x3d15ba5ebd31a855U,0xbc6ae9a03d01a153U,0x3d1ff7483c345557U,0xbc5272053d10f3daU,0x3be1ef413c96acd0U,0xbd9d09d9baa72568U,0x3d297f12bb6569e8U,0x3b1588a9bd5140c2U,0xbd1e166e3d377f4cU,0xbb5e5b1dbb823678U,0xbc15a7693d8e3130U,0x3d130dafbba6f7fcU,0x3d01bc23bb562acbU,0x3c99b73f3c412dacU,0xbc79605ebb7771ceU,0xbc91ef0fbd32a604U,0x3d0db875bbba6936U,0xbd0a2a4cbd0f986fU,0xbd6116a3bbb1ffccU,0x3bca3d3dbd098b82U,0x3bbc52333c4f30b9U,0x3ca680b93b029e42U,0x3c015db93bec5e7eU,0x3cfd496cbacd070bU,0xbd131975bbd18921U,0x3cbb9f613bf4c731U,0xbb214b453cae7196U,0xbbbacdc7bc7adc9eU,0xbd2a0ea7bd2f21a0U,0x3bb1737e3bb433f9U,0xbbef8ae23b0e147fU,0xbd36f9cfbcff559cU,0xbd5958913c42b5b7U,0xbca6acf7bd52e7f4U,0xbc95ca7bbd85b88aU,0x3d58014ebd2129d6U,0xbd080a363d03ad9cU,0xbd90b4c03de25ea2U,0x3d0ce2c43cb9c817U,0x3c0a2538bb917d7eU,0x3cb4f0b53bd174d2U,0x3d71aeba3c1f7109U,0xbd12bab33c651031U,0xbd93662f3d1cec26U,0x3ceb62efbdfda0b0U,0x3d256abcbd6718deU,0xbb7c2755bdb8446cU,0xbd1138cb3cfce451U,0x3c822e883dce0aa3U,0x3d188811ba55ea6cU,0x3d616890bc12079cU,0xbd8eb6563d93c93bU,0xbb666eef3d94fda5U,0xbdbf5fbebcc6142aU,0xbb885b90bd40d18fU,0xbc8fd1a43c1b36cfU,0x3d8d7c473c263d8eU,0xbdb283f03d82e2a9U,0xbc1167cfbd11d235U,0xbca090aebd626bf2U,0x3de2d416bd7ecf2cU,0x3d16d5e63c008b34U,0x3aa571d43d1122f2U,0x3e072b043d7f4c1fU,0x3cbb07513e1c5df4U,0xbcfce664bd3018dbU,0xbe0633e2be0992fbU,0xbdcb9519bda85483U,0x3d8ffb52bd3daa66U,0xbdcb15adbd302b3fU,0xbd6ed49c3d83ea9eU,0xbd87dd1abc3fc0a8U,0x3e202cc4bc1facfcU,0x3ca06a403cc250c4U,0xbdb3beb8bda0082aU,0xbd8f8f043d166a12U,0xbb6fd361bcdda0cdU,0xbc7254df3d3c0d26U,0x3d40e053bd41ce6aU,0x3d88e7bb3d929beeU,0x3d74ebc7bd2e3cd0U,0xbcd6a647bc983149U,0x3dd817f2bb1d6644U,0xbd980a593d89b196U,0xbd2ddefabaae0e7fU,0x3dcad5ffbe01eafeU,0x3d1e7315bd446249U,0x3d2e074bbd3b54f8U,0x3d1ff812bdd95607U,0xbca50c32bc576800U,0x3cb7c8a9b9da6088U,0xbdf3f36c3b9692a7U,0x3de8722fbd45fc59U,0x3adc03bfbc529186U,0x3da2eb673c9eec24U,0x3db85e08bd6dc423U,0xbd97ba20bcdac85fU,0xbd38a409bc8ba3e0U,0x3c03ee4cbd25b278U,0xbd3f415fbd654ec1U,0xbc8befb2bc9d3919U,0x3b8914b4bd3969deU,0x3a958fb33c94627bU,0xbcefe5cebc43c3c4U,0x3d1ac925bc483378U,0x3aacb77cbc943441U,0xbd3f3085bdb10d68U,0xbcb549e2bd949817U,0xba677bcd3bd22d46U,0xbc8c1ab23b241ea2U,0xbbfc763d3bd6ebccU,0x39912a05bc8e9c0fU,0x3b2a76b1bcbfcdd4U,0xbc818585bdbefb41U,0x3cdc6048bd8dfae9U,0xbd00e1e1bc4cc9aaU,0x3c675ba83c9be399U,0xbcb00b283c36c906U,0xbd16f8c7bcafa936U,0x3cab49edbd653060U,0x3d08a5bcbd34b60fU,0xbcf7325a3cd4fe41U,0x3d0684e7bdba8767U,0xbd31a568bd988de2U,0xb9a9fcda3b9052eeU,0xbd250d3ebd3cc019U,0x3cc01e103d39f84fU,0xbbaa04bbbcf44894U,0xbcedc5a13d0c921eU,0xbd2c5aba3d9496efU,0x3c21e77a3d20de1cU,0xbd74c2b13ceb2bd2U,0xbbd7b2f3bda5ae80U,0xbd0df7ecbcb85009U,0x3d22db81bd438213U,0xbe19df49bc476a10U,0x3e14cc133d49cc2eU,0x3c90f7f73d86e4ddU,0xbd1aa7abbd8e8309U,0x3d2d39c4bbd9fea8U,0x3d02cb803b524e36U,0xbc0e423fba313f89U,0x3ccc320cbcca8d64U,0xbcdb8efabc2a36f1U,0xbd1a9037bc459991U,0xbd9d2035bd584668U,0xbc27084c3cd49bffU,0xbd2ad149bb296f88U,0x3c3697c13dbfaa18U,0xbc808ec73d2a58ceU,0xbde7ad083d397275U,0xbd46dcbebc4ace1bU,0x3cd3b5b9bd18bee8U,0xbbe416333d10ba73U,0xbd63d87ebd52c922U,0xbc06150ebd2c6d39U,0x3cda71be3c96d2ebU,0xbcf36b103d774823U,0xbcce77a3bd3b556bU,0x3d47fa3abd737ae0U,0x3da898843cf1af6dU,0x3d11a06e39bebc4bU,0xbd6bf492bd346b3aU,0x3bfca80b3d19dab8U,0x3adb15743d07fe13U,0xbd8f482cbc9901c6U,0x3c19ca4abd52a492U,0x3ca5c491bc2f084eU,0xbe0481bd3c8b4264U,0xbd7e14f43d112117U,0x3c6cd5d3bda5cf0fU,0xbe1d2c633d5a0ff2U,0xbdf74b17be00af09U,0xbca874853a804b6eU,0x3d1421c0bd10afb8U,0x3c324447bc55dd66U,0xbd2c4c213869ec84U,0xbde3796e3e037721U,0x3d97f5cd3d360cb4U,0xbde023be3d34d217U,0xbb1e3f28bd4a1784U,0xbc1e27cbbdf7fe3eU,0xba542acabdc50626U,0xbd2dedee3c15e70eU,0xbc92271d3bc1c275U,0x3dbb6455bccea6efU,0x3cdd5dcd3d5a2e7eU,0xbd9e53593cb9e211U,0x3c41c05bbd1a284eU,0xbd32b0513c99f70eU,0xbd7ef7413cc54301U,0xbd6354ecbb753382U,0x3d24f5dd3cf00b06U,0x3d5511a9bcf269abU,0x3c3a40b536997c25U,0x3ca6e972bd27cccbU,0x3b80ea883c8d5ea7U,0xbd3f7831bbc2e0f0U,0xbc690ea23cef7becU,0x3c2403843c979d99U,0xbc6b183639834c3dU,0xbad2c32d3c915facU,0x3b8f8db7bb65346aU,0xbcf1c17e3c8193c8U,0x3d39ed1bbd2ad60aU,0x3c388fa03b5dbf6fU,0x3d04df3d3c928706U,0x3c5470e7bc629058U,0x3d1a90853c0a89e4U,0x3c3a17cf3c04b83dU,0xbc5e2df93d15110fU,0x3d32dab6bd2f457cU,0x3cfa4cbbbcc7bb83U,0x3d270e4dbb08bd4fU,0x3d374ab93c8ff238U,0x3ccb89693b3135f2U,0x3b2174c33cd3990fU,0x3c9406fb3bf4b735U,0xbd5270823cbf3fa9U,0x3ce2e2243cc4262cU,0xbc102bf5bc2eb86fU,0xbc5ca6bdbd204b61U,0xbc6fdf583b47253aU,0x3c09a3673ce9a3daU,0xbcaa7cb13d132038U,0xbe1779b63b6e85f5U,0x3d3399fa3db7fc05U,0x3ccda34b3e13ddefU,0x3d4922103dfce41eU,0xbd78cf11bd7ccda9U,0xbd9d848b3d60b405U,0x3d9732dc3d0dac68U,0xbd010c9dbd587c29U,0x3c3a69febcf97f64U,0x3d9918eabd14f3c6U,0xbc7e22b73d241607U,0xbd03fc8ebdd72841U,0xba687d03bd49f630U,0xbd08a2203c8e8698U,0xbd02713d3c4de0a2U,0x3d469c04bd87a849U,0x3d0b8c843d2742b3U,0xbd11eababd1ab847U,0xbd9276c83d658f16U,0xbda142a6bd59dcb5U,0xbccff779bbdd563cU,0xbbca9fd9bdfcacefU,0x3c9cc7fc3dbf76c6U,0xbd160d933e252ac2U,0x3af362f1bd31de4bU,0xbdf73bcabb847672U,0x3c3f9c9f3cfaf3feU,0xbce3ee9bbdd94649U,0xbda05258bce11cb2U,0xbe004f0cbc0298daU,0xbd3cd04d3c3d0962U,0x3bc640a93b227ccfU,0x3c9de194bc11ad13U,0xbbd09130bcd2226aU,0xba1ccb043bcfaff9U,0x3c6236813bf1b933U,0xbc6b56d7baca330bU,0xbbc61bc4bce819d2U,0xbc0995223bcd1bccU,0xbc651b36bb629a9aU,0x3bb140813c676522U,0xbbe80de6bc031cb8U,0x3c50494c3bcb3e22U,0xbcbb0f04bd29c0f6U,0x3bcb3dbabc52613dU,0xba04c8a33b9eac9eU,0xbc2fe917bc1b6b36U,0x3c0fb8d13c17df2dU,0xbb8b9b98bc087951U,0xbc4fda673c6d6c00U,0xbcfb03a9bc14c301U,0x3d1be30cbcb3c3a6U,0xbc2e9d353aae60ccU,0x3c8b7ab8bcae5d6dU,0xbb13d42c3c8b6a05U,0xbba076ce3c0290fcU,0x3b97e2e5bbdadd4fU,0xbc0146b53caaf7f8U,0x3b92d4793c02af10U,0xbbf5a326bcba8748U,0xbb3b51203b0da891U,0xbc15f0a7bb7f6c1aU,0x3a57f0703a0cccd9U,0x3d7cce5dbd56f5a5U,0xbcdc44e1bc59f1e6U,0x3c8512503ca79ed4U,0xbd46d4a03d352939U,0xbd8729ca3d36907fU,0xbd041901bdcc2d10U,0xbbe771f8bd4eb2caU,0xbdaaf0aebd7f7c78U,0xbc8438853d7de466U,0xbd045859bd283808U,0x3abd0c8a3e035753U,0xbdfed7e2bd22da31U,0xbdab34c2bdbf3428U,0xbdd05699bd983c29U,0xbc49f16c3d25d4c5U,0xbd7bc3f8bcf43c39U,0xbd771486bd1a6d51U,0xbc9bfa3a3ce4e79eU,0xbcbe38d8bdf2fc1dU,0xbd2c7f0dbdb71940U,0xbd9d84b5bbcf97a0U,0xbdf7aaa03cae94c7U,0xbd859403bd560eb3U,0xbd5f526fbd026744U,0x3c92c737bd118d38U,0x3d757c7bbb82e21eU,0xbd8a555ebcf6b7b1U,0xbc84d98bbce1104bU,0xbd679f91bbe3ec61U,0xbd5b45cdbbd330fdU,0xbd8e5ea63d5b1a9aU,0x3cc5d41cbdbb46fdU,0x3dbe4976bd670605U,0xbd1ab07a3d578561U,0xbccddcf83cef1a81U,0xbd6b81b93d0102bbU,0xbc8cd31b3d8d78d1U,0xbcd2e3bbbbd75a0cU,0xbd8b1a983d871a10U,0xbd6ab51abd276fd6U,0x3cf2050cbd1400caU,0xbca8798abdb4c9d4U,0xbbb4243c3d0a6d9aU,0x3c9d35073d385cdfU,0x3d6b7b6b3dd198d7U,0xb9cbc8b9bc3c4babU,0x3d506857bcb333fbU,0x3c0636dbbaf23a2bU,0x3dac62d53d2c24f8U,0x3cab03c23d72edfdU,0xbc3c6395bcf3bc1cU,0x3d9b3886bca54d69U,0x3c9e3af33cb31aeaU,0xbb10a995bdc170f5U,0xbd4e7b48bbe1f8f6U,0x3cdc9f623d4cee78U,0x3c91192ebbd4ab40U,0x3dce8b8abd105fb1U,0x3c8874e93d958715U,0x3d65469bbc9829ddU,0x3bfbeb173d14653dU,0x3ceacdc33c8c1559U,0xbccc48ac3cb5686bU,0x3b7e2213bd107133U,0xbddf3687bd1f5425U,0xbbb9a35cbd670aabU,0xbd0e80eebd619476U,0x3b00d3d0bdc2c759U,0x3b440d2cbb891c2cU,0x3bc8f3cabe031346U,0x3d6c6e81bd97c660U,0x3c40dabcbe3131eeU,0xbcd455aabd12916bU,0xbdc75ff0bc2fe360U,0x3c8e6f5d3d8048beU,0x3ccf560d3bb70effU,0xbd264df8bccb934aU,0xbde120fb3c1bb74eU,0x3d6a2d87bc4ba3b5U,0xbcd4f405ba5a2ae2U,0x3c125adabca79e92U,0xbd891e5dbc611a96U,0xbcb811b53d38dc3dU,0x3d38d4fd3bc6ba4dU,0x3d98a146bd068a3aU,0x3d00add1bc99bc53U,0xbd5452c4bd9cafd2U,0x3d76ff56bbe51afdU,0x3d4d2b5abce1df35U,0xbe07e8abbc8b5823U,0xbc9e095dbd902f73U,0xba024ce4bd2b8165U,0x3ad0a7673d453797U,0xbe2929073c96507dU,0xbc102d5cbdb817e8U,0xbd663895bdc98660U,0x3c98fad2bc51236bU,0xbc859fe8bc4e4898U,0x3c917d58bb395730U,0xbcb94211bcd5c513U,0xbd35c992bbadafcfU,0xbc20404bbc63917dU,0x3d148c603d0d42b8U,0xbcbb0d10bc635734U,0x3cbfea14bc8344a2U,0xbc58973e3bbe6285U,0x3b19610dbc8119ddU,0x3bf9a7e2bcd4eb58U,0xbbd222b3bd196ce7U,0x3ac5de2ebcfe73b4U,0xbcd07c7f3c7721a5U,0xbcbefc5c3952f54dU,0x3a50bdbbbbcdceddU,0xbc1336433cde4a5eU,0x3b3a7e1ebabe0f62U,0x3c748cccbc18a0abU,0xbbbbe7d03b3f2b9eU,0xbc6f53aa3d72802aU,0xbc1fe5e2bc88915aU,0xbb7dbbb1b80b6ddcU,0xbca5b983bd1774e8U,0x3d34f3523c806558U,0xbcf09fcd3c5a6a2cU,0x3bafc4ecbc277ee2U,0xbc76b9bd3d12af9aU,0xbc11a6413c87f393U,0xbd3443883c49e2caU,0x3ae3b485bc722e41U,0xbbca663ebd8e9632U,0xbd1652debaef4ba7U,0x3c876e053cfae5b5U,0xbcdf68f1bbf5fd43U,0x3be0ed843c74ab3dU,0xbd6803dcbc9d62d2U,0xbcbbad2abc1dd06fU,0xbcae361d3bf9d5ceU,0xbbf7be763d1c7a7cU,0x3d4b71a7bd1e4b7dU,0xbb7dfbd03dbcd633U,0xbb9343a23c927ff0U,0x3cccde09bcb61215U,0x3cb1458fbcc29d7fU,0xbb72f4bd3ca7f3e5U,0x3b58c88b3c69a812U,0xbc8a08163d92df00U,0x3de26c3a3ceaa503U,0x3bcd0177bd8386fdU,0x3c8ac6073d807bedU,0xbd6d2f863b497414U,0xbd1d0ea23cf42782U,0xbdb768263d4d1042U,0xbd4b1d343d70241dU,0x3aa46ca93c258762U,0xbd04aa1bbd1af06fU,0x3d85a9fc3c71dabdU,0x3d058236bd37ca2cU,0x3d0d798d3d662febU,0xbd1192ddbccfc894U,0x3d5b27243c5e17a4U,0x3b1f0d99bd00802fU,0xbd63d5043d7fbf7fU,0xbbb07bbf3bf555aeU,0xba3f61a7bd013cddU,0xbc378059bdaa7504U,0xbc488508be0f3567U,0xbd48c71abe29ba69U,0xbd9bb949bbf4b307U,0xbd4f43f13b504d66U,0x3d0ede3d3d0e67e9U,0x3c8c81ef3c1f8984U,0xbd30daf83ce7f20aU,0xbcb31056bc3d4409U,0x3d082300bd2a1d8bU,0xbd68d3e7bbf7e016U,0x3ce3ae2fbc877e26U,0x3c16c67bbbefadf4U,0xbc87f041bd0058f9U,0x3c643dce3d2d70fcU,0xbb48172d3c5fd711U,0xbbebad7a3db20a1eU,0xbcf42b8bbd0f149eU,0x3c98c17f3c425ee3U,0xbd32bb46bcd63675U,0xbc9570eabd1bb88dU,0xbd317872bd4f8da5U,0xbcdc6127bb8baad7U,0xbe115878bdc17fb2U,0xbd5f01af3c70b3b2U,0x3d64e2423d860614U,0xbbfa90833cb06bcfU,0xbd613101bc9025d9U,0xba979248bbc6bf27U,0x3d9e47c03e48af2eU,0x3caf1ba6bd373e4cU,0x3d6b8aab3cafd1b7U,0x3ca8b2ffbcce64deU,0xbc95d8f83d9a4662U,0xbce6ee53bc1ea9bcU,0xbb58aa8f3d7a4e7cU,0x3d0bf4b03d25df5fU,0xbd05683f3bdb93e8U,0x3ca0169b3d0a048dU,0x3da6a2f73d3aa7bbU,0x3d401aa93d1399c8U,0xbb030c4dbdd7ed40U,0x3d4bf82bbd57939aU,0xbd83ab113d31f887U,0xbd467a6dbd09b44cU,0x3d2379433b96d59eU,0xbdd8c2773d69316fU,0xbc95614c3d275be4U,0x3d081114bc611c37U,0xbd016d73bd0e7a0aU,0x3dca53e93cb172ebU,0x3d0befc6bd463ff6U,0x3bb8fd0f3d217530U,0xbcedec01bcc778e3U,0xbd15e365bd414f15U,0xbd644de23dec47e3U,0xbd2472263d804e09U,0xbce8a738bd487984U,0x3d5825a23c2c0eb4U,0xbd03cfecbc0d2f97U,0xbbb93d563d0a82b9U,0x3cb089403d8a4328U,0x3dacd4d6bc3d8a34U,0x3ba0209f3c190ec2U,0x3cf05c09bc2aa592U,0xbcb550293caba479U,0xbd830120bb8f0941U,0xbda984f63d849e2aU,0xbcc43d343b108c16U,0xbd2865913d4bd939U,0xbdf516acbdb3d906U,0x3c828c80bd7bbf26U,0x3be9c172bdbe100fU,0xbc9d5a823e0c2b10U,0x3db3c988bdd9d9b1U,0xbd43a0293c8c248bU,0xbccf3ba0bcdbe8c5U,0xbbfaa0cdbdc019ccU,0xbe60b5d6bc0f11f5U,0x3b81f4043d562ee2U,0xbb9a09fabd79e730U,0x3d4572b9bdb65761U,0x3d7bd258bd70210eU,0x3da0bb9ebd927b1eU,0x3d142cc7bd8f44bbU,0xbd13c9a8bd7ccfe9U,0x3d37a3c33d965241U,0xbd42e5a2bcd62f43U,0x3bfe3a083d1d634dU,0xbcac18ad3ca23a8bU,0x3b0ffccdbc8745edU,0xbdfb51fdba8fec8eU,0xbd9b73973c60c61aU,0xbd47dcf13b8b756cU,0xbd3bbb30ba8d1499U,0xba89cc363be93bceU,0xbd59aa703cdc4655U,0xbb8f46a4bca3abb2U,0x3be02595bd051202U,0xbb95d2b83c65b0dbU,0xbd540dacbcd4ec9eU,0x3d0bfa1abbedaa38U,0xbbefa2ac3d8d7e65U,0xbcb0429dbd1a83a2U,0xbcf6ea1c3ca1c887U,0xbd5595c83c133a60U,0xbd165ca7bae1a569U,0x3b976c92bbdeab4fU,0x3b6041dc3cdc2bc5U,0xbc0c425f3b8e9eb4U,0x3afc5f7a3d29655aU,0x3c78a22abd64dfdaU,0x3dd84dee3ceeb57eU,0x3d8d6575bcb379baU,0xbc93d474bc03b03dU,0xbc81b6ecbc0e0d9eU,0xbc77df48bc2ab0f4U,0x3cd2f826bcf9c487U,0xbd1a169fbcf2d609U,0xbd5df37bbbcb9a30U,0xbd564ce33be904d9U,0x3ccd4c9dbc1dd46aU,0xbd490d0e3ba0e2c7U,0xbc85c1753b202584U,0x3b94f6a1bd64835aU,0xbd5123253d78db6dU,0x3dc3d5e6bc9fa151U,0xbc9b52babc0ab7cdU,0xbd83ffaa3a866cf9U,0xbda2b5adbd0607fbU,0xbca9e06cbb161860U,0x3a0132f83d0f0799U,0xbd199eecbcc3d717U,0xbd042772bb1049f6U,0xbd5dd5753d8b8d1cU,0xbd347470bacf0eddU,0x3de040d4bd869d12U,0x3d37d23bbd6dc72cU,0xbd6947c0bc9ea8b4U,0xbdf48a8abc285525U,0x3c4a54a13c1b8dd4U,0xbdac74fbbc4482e6U,0x3c508d2fbd7a01adU,0xbce7ab55bbdff9dcU,0x3cb8f6f2bd32394cU,0xbcf9da82bc070770U,0x3dc4cfa73d3f16e4U,0x3c04030cbba0a6ddU,0x3db1adf2bd8c254bU,0xbc83aff7bdac7930U,0xbd472b06bcdce63cU,0xbb2fab7fbd432f04U,0xbc6251b33ca441f4U,0xbd026ba5bda557acU,0xbc7f10c5bd3b69fbU,0x3c4d02233d8a14e3U,0xbd775da8b9c111c3U,0xbc37f2e73d123998U,0xbd0e0f0fbd4b098cU,0xbd8b6476bd6b2fb4U,0x3d06d507bc228f1aU,0x3cfec1c8bcd55e54U,0xbcefd61bbc1c01f2U,0xbb8c52eabe209f2fU,0x3d19abc3bd1c9a3eU,0xbcdc776fbcc9509eU,0x3b1ea9603cfd21f9U,0x3c0d3ab4be099993U,0xbda1b5d23d26acbaU,0x3d2016abbd9815d4U,0xbc9fd4f93d09dee5U,0x3d103b75bc0652d2U,0x3ce7aa1ebc837c0eU,0x3d7148623d0a87c6U,0xbddc3f543cd02540U,0xbccfbd19bc831ed2U,0x3d8dbd33bd19ea91U,0x3dc3db90bcb2dfd4U,0xbc8a0734bd213878U,0x3d827a80be0871baU,0x3d1495363c8e2ca7U,0xbe0c25993d0ee4a7U,0x3c62e5cebbb26cd2U,0xbc4b09233d7b52adU,0xbd1dc2183d56afb0U,0x3d0f3174be3e6f63U,0xbccd5b5a3bd8ec2aU,0xbde1ec42be2678f2U,0x39ffec0e3be7e7e2U,0xbbb7cf65bc93f28bU,0xbb930738bd38e282U,0xbd77680f3b966ee7U,0x3ce19e18bce47aecU,0xbd884f353c58a474U,0xbd5dea383c557b2fU,0xbd8b4af03d8d8c30U,0xba4cc078bdd30539U,0xbdcc297b3bb275f8U,0xbd91699bbc8610f9U,0xbd398a14bcc0907dU,0x3d8d2285bb491cd6U,0xbce68118be066824U,0xbbedc680bd0e9ce9U,0xbd5813fdbce275b4U,0xbca09490bd61adecU,0xbcbf35dcbc4fc96fU,0xbd8000f23cbe1cc0U,0xbd4c2158bcabeaa4U,0xbdeaa3f1bd649defU,0xbdea93c0bd28acccU,0x3d7c63f63d35b8f0U,0x3c370253bdd22beaU,0x3d0219feb8db6bfeU,0xbcc4470fbc89727aU,0xbcba45e13ca4a47eU,0xbdca4ed43cea9002U,0xbd925b37bc741f33U,0xbda4e3f53ba862e4U,0x3d1adf733c5d5867U,0xbe03f55c3a37dc7eU,0xbde0a345bb3ee12eU,0xbcfc07053e280642U,0xbdb16527be0017a5U,0x3c5482b33d427f6aU,0x3d836a853cc2af47U,0x3d4227fb3ddb8ec7U,0xbd0c901cbdf03ca9U,0x3dad43debc534b53U,0x3d8289a73e1150ceU,0xbc30f987bde3f2eaU,0x3c8780893d0fe400U,0x3d8ac0493d05757dU,0x3c30a84c3c991470U,0xbbc388e3bd18916eU,0x3d8da3cbb9a0035bU,0xbc97194ebc709283U,0x3cab3a7c3aae1b29U,0x3dcfc93f3dbeb02eU,0xbd6ce036bd81a213U,0xbce8a34cbcc4084aU,0xbd297b4abd321b49U,0xbc9766c6bda145f0U,0x3d3a60b2b6e47410U,0x3d239db93cc142bcU,0xbcdfc5993db3013bU,0xbcba5f773d9597f6U,0xbcda26ccbddb4c67U,0x3ce47dda3dbe1cf7U,0x3d0e900d3ccb6f5cU,0xbca6dc59bd14a0d0U,0x3ca928bebd642581U,0x3cb43e3f3ced95f7U,0x3d374bf63bf700beU,0x3c137b163da27c5eU,0x3bfe5382bcaf1756U,0xbb6ab556bcb3e5d1U,0xbd0f9178bdefeb8cU,0xbda0942ebda0f247U,0xbd4aa772bc1faadfU,0x3c4bb9003d2d55f9U,0xbd864e1bbdedf126U,0xbd3da8883d2d74d7U,0x3d21c67c3d9c333aU,0xbaadedc2bcfda237U,0x3e0079923d0387f6U,0x3c14c3043bf1f38cU,0xbdf0d8733c883851U,0xbd1b95dfbd3ed717U,0x3d4dddf0bae9aae9U,0x3d07c2643d53b052U,0x3c32dc8d3dfb75d3U,0xbd65c50abdc0168dU,0xbcc3dd92bce74da7U,0x3cfb47643cd71fe4U,0x3d0df4e43d82878fU,0xbd2a68dabd430dfdU,0xbdd4711a3d1a204eU,0xbc2fd0223ceecabeU,0xbc380aa7bb793593U,0xbd8676b9bd19d479U,0xbd6700f8bbc48e66U,0x3ce21bf0bb622b2eU,0xbd713f143dc2876bU,0xbd1a7ee73d3e1eb9U,0x3c4f15cdbd961d2bU,0xbc9176a0bcbb77d0U,0x3ca9b332bdadcab9U,0x3c0c875f3c59bd02U,0x3d28b5873bcc9112U,0xbd2cb0003cc3483cU,0x3c6aef04bc24c12bU,0x3d079e96bd813717U,0x3d51321e3c060790U,0xbd610909bd1f9427U,0xbcae15733cc41addU,0x3d820edcba1cae8fU,0xbd1cce1bbd550d6aU,0xbcc5c33dbdc8c24dU,0x3d075097bc56c738U,0xbd619fe8bd5770e5U,0xbce42743bdd995b7U,0xbd400f21bcb2d27aU,0xbcd7efadbce85d82U,0xbd99fcf2bcc73a56U,0x3d32aec93d915525U,0x3cf5be64bd341ba2U,0xbc8e6950bd9e3498U,0x3d3614d23d213c06U,0xbd247bd2bcd153e9U,0xbc9f44abbd891468U,0xbd7ac670bdbfb2d0U,0x3c4c39d5bda85b54U,0x3d5ea7693d4eafc4U,0xbc1af0753bc1c3dbU,0x3d6dd2dcbdc0606dU,0x3d5311d9bd6eaf64U,0xbd08f6bd3d177b84U,0xbc07bf74be004659U,0xbd1908bb3c560fb2U,0xbd66524c3da7cf76U,0x3d0968503de5269eU,0xbc8f0b0b3ce26257U,0xbd8e11d33d3ea91cU,0xbd192217bd59f6adU,0x3d1b9700bb20d501U,0xbe08f8e8bb0a9e08U,0xbe0f1bc5be3c4583U,0x3cefcbbebc9a1a9eU,0xbbf0b7f9bca28e88U,0x3a9b3ee0bd23ddddU,0xbcbe71c8bd2770d7U,0xbdc8671cbcbd2261U,0xbbca13ee3d737549U,0xbc9bb16cbd8edc58U,0xbe0c6aadbccf76cfU,0xbd6f1f31be016e72U,0x3c681b00bd6fbcbcU,0x3d0b84c0bd07baf9U,0xbdad0ac8bd050dc7U,0xbb6c6328be347f8dU,0x3ce0d1573cb06e07U,0xbce91aed3d6389f5U,0x3afd86b03df030b4U,0x3d08bbebbc93a1b0U,0xbd722e7c3d13b156U,0xbdcd3f9cbd2e6d71U,0xbd488cf73caf5077U,0xbd13e3f33d2c1289U,0xbe0c1d87bcc84a24U,0xbb9b66acbb5fd2baU,0xbaa11aa6bbf9931aU,0xbc95f16e3bc8f5bcU,0x3d20712b3d346454U,0x3d989f53bc460b81U,0x3d38d0f43d130942U,0xbbb4134bbcfef174U,0x3c3c7820bc113ccdU,0xbc7e9e523d18a5f4U,0x3bd72239bcdbfb44U,0xbd157971bd9cbf15U,0xbbf4302a3c9a047bU,0xbc6d4fc43badf7a5U,0xbd4bda803c993222U,0xbd19313e3ca97c57U,0x3d890679bc6bbb1eU,0x3e1b67643c876834U,0xbdbd5a933937156cU,0xbd36affbbd9c6a69U,0xbc32173b3d153de6U,0xbd460d78bb43b9d2U,0xbc0023c4bd7ed046U,0xbcb0185dbd316993U,0xbce9d0b13d0c8353U,0xbd48a28b3dd9e1e0U,0xbd06257f3d3be0ffU,0x3cf4c7cf3d5ead36U,0x3ce1da65bd888715U,0xbd8d6364bd817657U,0x3bae32c63d0e74a4U,0x3d2b998bbdca49fbU,0xbbb3c06bbd85f5b1U,0xbc7b6a8f3b876da8U,0xbc0fb1f6bceae0ccU,0x3cc29406bde0c889U,0xbca0bc36bd9bbeecU,0xbd228304bccb7c7aU,0x3cafacf4bd03a1a6U,0xbb9d62823c6a75c5U,0xbd7cbe00bdcce5dcU,0x3d863147bd3bc292U,0x3cd24f89bd5572c0U,0xbde93ac8bd1a8168U,0xbc828708bd049e5bU,0x3da42c1b3b7ab47eU,0xbd9c55be3b82936eU,0xbc71fcd93cbb991aU,0x3d3dde103b36c063U,0xbd1cace4bce0a53fU,0xbc31d988bd96447cU,0x3c910a1cbdbc836aU,0x3d198096bc1139d1U,0xbb54264b3cf2fb1bU,0xbcbdadf03bfcd6d1U,0xba402f253cf53874U,0xbd11aff2bd99dc27U,0xbc97e438bde4c432U,0xbcb9caefbc36395eU,0x3ca9e6e0bd355a0aU,0xbd1b80cfbd07e3ceU,0x3bc0c16ebd426bc2U,0xbce7f7e7bdb1b2cfU,0xbcd96a16bd537f98U,0x3cdef3f9bd5b651dU,0x3d8fd7ec3b1151f2U,0x3d8a6c15bcbf3f1cU,0xbbb3f48fbc4a3044U,0xbd0233353d5d44a3U,0xbbb166c53da950d2U,0x3d1d86bbbd3ef60dU,0x3cec97c13baf8852U,0xbc5d7ed1bd814c92U,0x3cc594993c64fbd8U,0xbd295554bcdd0e68U,0xbd02dfef3c97f2d4U,0x3d7823263d28a8f3U,0x3c6b7ea739cb6001U,0xbd2409b13d3d52b8U,0xbb466467bd3833e8U,0x3db964583cd0cacdU,0x3cb48b94bd61e5b1U,0x3d2126b6bcb9ea32U,0x3d0047e93bd43cc3U,0x3da4a1f4bbcc0ed3U,0x3defd90cbc9b5a44U,0xbd80a4303c614dc4U,0x3c817fd53d6998a3U,0xbda307fc3cf2d5edU,0xbcc7f610bc36e098U,0x3d4b1fa7bc3a748eU,0x3c984b0ebc96dba7U,0x3d2984a6bc8ab5e2U,0x3c5a30fa3ac3a52fU,0xbba00fe73dcc20b2U,0xbd1424eb3d4baa7cU,0xbc728923bca12983U,0x3a97676ab84c1f3eU,0xb9c42811397869cfU,0xb914a0f9b77f8d67U,0xb9e48840b7838806U,0xb9470fd4b98c7908U,0xba2586d2389f3a9dU,0xb9f61368b9d5697dU,0xb8d93a80b9975c03U,0x381bcb4b397ad074U,0x38b0dcbfb7b4fa7dU,0x391a3fafb6d3f8e5U,0xb86acab539d9fe37U,0x38be6ef7ba2c13a6U,0xb98e9a20b9c2ecdbU,0x38aeca1939ab94bcU,0xb9b67187b8de9954U,0x3a1a4aa539837748U,0x398829563a56878aU,0xb9288c8c36ab79faU,0xb998c8f6381376a4U,0x38e639cf39281619U,0xb99e7907b92dff77U,0xb99c362c3966fd80U,0xb8fa4ff63a9719c3U,0x390f00613a452387U,0x3a8ef6b639b8aaa8U,0xb9015a513ab0f136U,0x380333e4ba1f3b36U,0x379cbdcab868e5bfU,0xb934c0a33a9af5ccU,0x383004abb8996688U,0xb6f611cab99ada0eU,0xbd2e5b30bdc553a0U,0xbc22028b3de17fe1U,0x3dfbf0853cf7012eU,0xbd5ae975bd7d329dU,0xbd5d6378bdf40101U,0x3d330bd9bc663347U,0x3d8833e1bd68fe02U,0xbc84c461bd0c0605U,0x3d2f30b93e1b1133U,0x3d76ff2c3c055354U,0x3cfcbcc03b961ecfU,0x3c8a25fe3be79cc4U,0x3d46314b3e0c53feU,0xbd43bf1d3c0357dbU,0xbd3bbd46bdab19fdU,0x3d0a79a1bd896531U,0xbd1263bb3d8e9f6dU,0x3d4282073dea9604U,0xbdd9d408be10cd7fU,0x3c4060e6bd516c74U,0xbd0e9441bd17f24aU,0xbc31606c3d3e0a5eU,0xbd6e8e4a3d10bf9cU,0xbd768e9bbd70c700U,0x3cd83877bd0eaa96U,0xbe025fd03ca31a1fU,0x3c9593afbdc865ebU,0x3abcffc3bd794eb6U,0xbb6f70d43df2406bU,0xbd8eaf86bcd1353cU,0x3d02b5483ca04092U,0xba6cd1283c963af8U,0xbd22cdac3d7a6b6aU,0x3d21c9f5bc73671cU,0xbb8fac91bd048fc5U,0xbca33347bcca57baU,0xbd9ab50fbc587ed5U,0xbcdc9ccfbd1d432cU,0x3cfe2ad63d6c5905U,0xbcc14776bd432303U,0x3cebdf91bd3b57a7U,0x3c89f3193c1024dcU,0xbd25524bbcd6445aU,0x3bf94ebdbd62cd77U,0xbcc815c73d1f4175U,0xbd6578f33be9a9b4U,0xbd25b3613d066b80U,0xbca0c7b23cfaa1a1U,0xbd9f81763c6c4e21U,0x3b81ff16bc9cd4c0U,0x3d47413fbcea0271U,0x3c2b8bb33ccdb13eU,0x3a3925f03d2059bfU,0x3c619c59bd19f6ffU,0xbc7a40743d136e99U,0xbb98e63abd239977U,0xbc384b19bd5f8f82U,0xbdc94c7bbda924dcU,0xbd802469bc8e731cU,0xbccaa67bbc12618bU,0x3cce3543bcce614fU,0xbd083774bc92b90cU,0xbd1e2db0bc39915eU,0x3991d3d0bcf14e9fU,0x3c06915c3e2d321aU,0xbe0513413d9753ebU,0xbd8bf585bd937f8fU,0x3d55401a3a78c3abU,0x3e0dfc60bdda6ad8U,0xbddf6e3dbe1d8e78U,0xbdb7256d3d1da930U,0x3d7f3d3f3e120824U,0x3d6b12a4bdb3d856U,0xbc3e26c23e17ec56U,0xbb9c89c8be1eda34U,0xbde5c4773cc0ed36U,0x3d65f7843d42c66dU,0x3c208225bd919edfU,0xbc0defdd3dfe0eebU,0xbd41beffbdb79f7dU,0x3c2dfc12bdc2563cU,0xbd2c1435bd501a94U,0xbd4175c73d0dd126U,0xbd22c90fbcf7dbfbU,0x3d999e7c3dac973fU,0xbc8022b93a0fa126U,0x3d3f7952be11a53bU,0xbe048e0dbdf8d810U,0xbde46df4bd3cfe0bU,0x3d83bad83d64a8b4U,0xbd1733443d2b8941U,0xbdaf29823dde3414U,0xbd4b78d1bc756246U,0x3d2c1dd6bd94e5c0U,0xbd5f6475bd75b013U,0xbb6266833d14fc4eU,0xbc9c54933cee5b35U,0x3c7a13ac3cac7d28U,0x3c5a78b8bc2d8264U,0xbc07c6aebb4b63b4U,0x3d11b59bbd814a8bU,0x3ce60822bd0ee6efU,0xbd8fac5ebd8cd696U,0x3cab9a523c8bf58cU,0xbcbf240bbb96a582U,0x3b01556b3cd9bfa7U,0x3cd18418bc7053baU,0xbd90f5f4bada4df5U,0xbd6a3b8fbc2501e4U,0xbc705f18bcefd384U,0xb925d6babd37887eU,0x3c1e98ccbdeaf8acU,0xbd338d5abcf00134U,0xbba765003d03f767U,0xbd9ccddbbb44d962U,0x3d78c379bd5b712fU,0xbbaaee143ca2d00cU,0x3b303ecdbcd18a20U,0x3c4fd37f3da858e0U,0xbb85f4753d1d2d55U,0xbc18f9d83d26b76fU,0xbcaa6c0fbc319b74U,0x3d45f9ca3c5646f7U,0x3c4314a5396d2d8fU,0xbd5458483d192f74U,0x3cc0c558bd201a3aU,0x3d447eafbca4c1f9U,0x3bc9bc6cbc43e43fU,0xbce98b093d1b0e8aU,0xbc6955a23c031affU,0x3b9392a13d6c215fU,0xbbbbee8fbc84667cU,0x3da0bacd3d5a169aU,0xbc96e5e1bc49e80bU,0x3b4c872e3ac2c3d6U,0xbc8adb113d04f067U,0xbb2ce725bb5ec80aU,0x3c166245bb8974ccU,0xbbc42624bbbc72cfU,0xbb74663bbc892970U,0x38d834d1bd8293d6U,0x3c812cfb3c3d9659U,0x3a6ff734b9006522U,0xbacd430cbc2f6f36U,0x3be7e24cbc91de05U,0xbcbfeb9a3c335696U,0xbc9e670c3cdb787aU,0xbd04d1583bcd7ddeU,0xbcb6d970bbe819fbU,0x3d016b803d454543U,0xbc73aa7fbc4e5987U,0xbd2db9083cfb0c7aU,0xbc715cd73d42645cU,0x3c8fef2a3b2e713dU,0xbce698193da75966U,0x3c83bae9bb9b1a62U,0xbc1608b73d3b7b68U,0x3b9aceadbc922411U,0xbd1fb9f7bd1c3300U,0xbcc15a2fbcbedab4U,0x3d5cd316bbc271d3U,0x3c9c8ded3cb0160bU,0x3c89a042bcb511d7U,0x3cbfd69f3d72f68dU,0x3d6743363b9accebU,0x3c4c862ebd6003c2U,0xbc3531e33d204a4fU,0x3cdfa7f83d378bdeU,0xbcd435bcbcb1301fU,0xba3be4433c9ff64dU,0x3c6615853b3ea9c1U,0xbbd1e4f23c66b454U,0x3b7fbeaebd731031U,0xbcd34e8e3d011370U,0xbc265e203c6a7e82U,0x3d18dfbd3c669b9eU,0xbcdc9a643d451d9eU,0xbc0763db3d3db6d0U,0x3d58d8bcbdb75a95U,0x3c92bba93da9e709U,0xbbe74d6a3b7ff82aU,0xbc8574173bba3082U,0x3cc97c78bcab7646U,0x3d248b51bd71e57cU,0x3c587fbf3b64bf87U,0xbc50b7cd3ce81599U,0xbcb6deadbd5274e5U,0xbcfd01a23cb7f744U,0x3d3275ce3c4a015cU,0xbc452b313ccafc54U,0xbd30ca7d3c5cf28bU,0x3b9b52753c9acfe8U,0x3d05a037bd9dc42fU,0xbdbc4907bd09b65fU,0x3cae2c07be0768ecU,0xbd03f0593d92bc17U,0x3cd28211bc2b6076U,0x3d4b8625bd6faf03U,0xbd54ba64bd16db25U,0xbe15376d3cadecf2U,0xbcd41cb9bdee3ab6U,0x3da51425be412816U,0xbe398dee3d9fd900U,0xbd0bda463d00fe7fU,0xbdb9784bbd560baeU,0xbcc90e163c59ec36U,0xbc2b5d093e274c6eU,0x3d31c3113da4a6e2U,0x3bd0eda53d10bd1dU,0x3cab8b1ebd8c6a82U,0x3d57b26dbe44841cU,0x3db701d53e145428U,0x3d1ad91b3d1e9f95U,0x3cbcba39bd7a605eU,0xbe2365b0bc9e1ce8U,0x3d94d6ddbcdb8841U,0xbc9291f5bdc143ffU,0xbdc2d17f3d71ba2aU,0x3c75701ebe01c3bcU,0xbcf69cbbbe11cd42U,0x3d3e1a5abd0dfe62U,0x3cf743fcbc860d7fU,0xbcb216353bf2222cU,0x3db5661ebe1221b2U,0xbc0c745f3d57cb32U,0xbc6f1a7b3d4c5bc9U,0x3c7afc58bdc5f164U,0xbb0e46aa3b603ad7U,0xbc18e06f3d204fc8U,0xbd4a8ea63daf2e81U,0xbbe5f6a13e02230eU,0xbd47541cbc9c0d37U,0x3ccbf3cf3d596849U,0x3d4c87303c9ec005U,0xbda4b2943d5ad672U,0x3c59fbbc3d02fbedU,0xbcaea6fe3e44bb4bU,0xbd848f5fbc67b4a7U,0x3c47f21a3d0278ccU,0xba48b9633c26b60eU,0x3cf1c8e53d8eed96U,0xbc8315ce3d0e7e61U,0x3bf06fcdbd50f81cU,0xbda18c08bceca57fU,0xbcdb1f3f3d0c79faU,0xbd4ca8adbcd107c5U,0xbc759bc0bdbc3152U,0x3b6d209cbd0825edU,0x3d95bfa7baf9224aU,0xbd4b4592bcdee2a4U,0xbc35e6f3bc563c07U,0xbc99cf65bde8b54bU,0x3cc3fba23ccccbebU,0xbca303bdbd7425dcU,0xbdc4cd0c3d9834ddU,0x3da74f58bd4f7d1aU,0x3c81e23fbc1786faU,0xbd80d29f3dc31207U,0xbdb185b2bdeab2b6U,0xbd09d7b23b2e6215U,0x3d9aad7dbbdd1454U,0xbba8d5b9bd5e3901U,0xbdab5ea03c99da2cU,0xbdac42303c6e33d4U,0xbd740a903ccca29fU,0x3cf26201bd181710U,0xbd93e01cbcadf5deU,0xbcf8266db9bce51aU,0x3cb59019bc303c86U,0xbda17c4bbd5687c7U,0x3de0f7cc3ade3e21U,0xbd16ecfabc9c3a24U,0x3d74ceb73d4fb944U,0xbd9e1fdbbdad8e4cU,0xbd1154c7bcd643f5U,0xbde3a3a6bcbc9c6fU,0xbe073e723d8ef7fcU,0x3e0e1505bbac64d2U,0x3bac5ad3be2546c8U,0x3d283cfdbda5c23cU,0x3cefcfd6bd94eb78U,0x3d5465c43d16e8ffU,0x3ca213a83c0e1939U,0xbe2937fd3cab5d8bU,0x3d7e1c4dbd092594U,0x3d1da308bce4f0c5U,0xbd582864bd633dc7U,0x3d853399bd702f09U,0xbba37ab0bbbf6e04U,0xbced7466bac5bf94U,0xbb898f02bccf74ecU,0xbc8a9d0dbcd3a124U,0x3d25bb1a3d2d24a6U,0x3cc2cf013cbd50bfU,0x3cbc523fbd8de215U,0xbc61377e3d22c300U,0x3c84e4593dd004eaU,0x3ca9c13c3d9a840aU,0xbcd68855bd561c4aU,0x3c651cc63d0049e1U,0xbceb5f863c9ffa24U,0x3c8c00aa3cc7acb9U,0x3d331168bc7720d3U,0x3cbc1d2e3d3c4f0eU,0xbc5b9d073da13c1dU,0x3c3d0bf53d0892b2U,0xbb84ed443d60be51U,0xbba5e02f3d3e3f54U,0xbcb83f95babdcae7U,0xbca1791cbc8388b9U,0x3bef7999bb87724dU,0x3d23b9253c9c526bU,0x3ca1beea3c461e25U,0x3bb94beb3d373d66U,0x3a9d1ac93c9d6567U,0x3c91f8353c28ccaeU,0x3d54ea543c655cc4U,0xbbe532c33ca1de54U,0x3c21d59ebd03313fU,0x3d688d2aba4aa369U,0x3d74e56d3d31ba61U,0xbc72e624bcfdd39fU,0x3c4e8831bdcea4c0U,0x3c458e6dbdd75d9aU,0xbd49dcb33d879bd1U,0xbbb9901abd5f3cd3U,0x3b86bb6d3d07fee8U,0xbd828390bc1271baU,0x3d9645a3bd50af58U,0x3981a8b7bdd501b9U,0xbd86e373bd9588e6U,0x3d43a1ef3d2fbed5U,0x3da8365ebc700eb6U,0xbd899c933c8c20b6U,0x3da1f36f3c778003U,0x3bbc6a1c3d3f8e3bU,0x3be62c89bc5954e1U,0xbd0de9a4bd334aa1U,0x3d14978fbd82b7d0U,0xbd229c723d002b25U,0xbd3f2f12bd162f03U,0xbdb39f143d3ffef6U,0xbda10883bdb21e41U,0xbc8b8714bd2f5671U,0x3d2c7a90bd7eabb5U,0xbd8f9cbebdcd55fbU,0xbced3ad7bc4ad813U,0xbe101f49bcd271dfU,0x3d730c1b3d07420cU,0xbb48932e3db8ff63U,0xbca01323bc82a885U,0xbbe80ff8bbddf154U,0x3d82a2b0bda1b6b6U,0xbde156993dc486a4U,0xbdc06882bd126bd7U,0xbcf85b98bcbf24feU,0x3d29f9663d2f6c1eU,0xbd1f17c1bd3390e0U,0xbd00b0d83d113359U,0xbd46909cbe03ee8aU,0xbc6bb046bd278d1cU,0x3bffd0d53cbad6baU,0xbd2a7acebc8721e2U,0xbd98b6483c2a43d9U,0xbb93b073bbcd9eb2U,0xbd433aa9bc42905dU,0x3d612106bd2e929bU,0x3c46cedb3d01d873U,0x3ce60b25bbbc3e6bU,0xbd141860bddd81deU,0x3cc1e19ebdd34f48U,0xbdb74c983cf8f801U,0xbdc9a3da3cee7208U,0x3e1b1ad9bd086575U,0xbd16dd9cbd662bdfU,0x3cfc3f8bbdc84a51U,0xbd98173abcd7d05bU,0x3d457b253c2008deU,0xbcece9533c8e2a74U,0x3b6abca1be2142ecU,0x3d43d938bcfb605aU,0xbc9ead2d3c430ec8U,0xbd172e9ebdae666fU,0x3ca440ef3c5dddc4U,0x3c9dcba2bbc33034U,0xbcc449cabd2764caU,0xbbcc14ecbd42b29eU,0xbcacf984bd986029U,0xbcd3680dbb80ea14U,0xbba3fc923cc42571U,0x3b16d0dbba53fb2fU,0xbc10027b3d09cfdfU,0xbbde963dbd84feccU,0xbd1a85ffbdadf354U,0xbc83da683c9ff497U,0xbca1dbc0bdbfb391U,0xbd3bfe62bd4769b6U,0x3ce335fe3c80eb7aU,0xbdc77c98bdc2ffc8U,0x3ca542bcbda99f55U,0x3d1decccbd71b2bcU,0x3caba0b43ce6814cU,0xbda58bd13c51f71dU,0x3ba0620fbe40c735U,0xbd4ac9b4ba867fd6U,0x3d1265e3bcb312f5U,0x396af634b9b784abU,0xbc5ec8ccbcc22ff2U,0xbcb8b5bc3bc9a225U,0x3c865519bcbead5bU,0xbc9842b53bc166f2U,0x3ca9f2a6bd06e193U,0xbe1bfb1a3cd157c3U,0x3d6e11c3bcd4f4adU,0x3ccda0a23c4aa26dU,0xbd257eb6bc452572U,0xbf45cbbebf5b2bb9U,0xbf9367873f2b9034U,0x3d1d6bd4beb7df58U,0xbecbf49abf1c4c76U,0xbf3d013cbf922db7U,0x3e0fd508bf0af898U,0xbff11740bf52da53U,0xbea8e6963fb37ebeU,0x3e27ba883e5ff5c1U,0xbfac47503e077239U,0xbd987408bf987b34U,0xbfb65bb9bfac3d04U,0x3dec4bd23d8d2a6bU,0xbdfcd5b7bf910f60U,0xbcca9a59bfc2e33eU,0x3eb6e914bf296530U,0x3f4b1ce9bfeb516bU,0xbf445a9dbf4f6315U,0xbfb7508a3e50fdf2U,0xbf2af8703d1b2611U,0xbf91489cbc980cb9U,0xbf4bb6ad3f804628U,0x3ee44642bed8a4f6U,0xbfa8b32f3f1ed646U,0xbfd2a5e23ed71073U,0xbfbe5dcabf8c53d5U,0xbf0c470a3e80d1fcU,0xbf705eedbfaf5accU,0x3cb72ce6c0041318U,0xbf2cca67bf4bbb65U,0x3ec47acfc0001998U,0x3d4926e63e8f68caU,0xbdc2b086be487cceU,0x3da913e4be404162U,0x3db07f103c16b8e4U,0xbdf0f958be77000cU,0xbe7fb03bbd8471a1U,0x3e48f5973e1fa3b6U,0x3e88eedd3e42f602U,0x3ce6e2f1bda8e295U,0xbdaf0afd3d0e3d0bU,0xbde64ec8bcbcf5a3U,0x3d8730d03d80e0c8U,0x3c88a5ae3e093f41U,0x3d5cbe3b3d90c114U,0x3e792fde3e508a0eU,0xbd5aea8dbcf5d4e2U,0x3e3bd010bcb0ade0U,0x3eaa1f84be379224U,0x3d41629bbe3b88f4U,0xbd296bda3cb79e0aU,0xbc1ebef0bde647e8U,0x3e53b9cfbd7d7ce0U,0xbe43b6d23dce2be3U,0x3d08a17cbe335bacU,0xbcece94b3e42bdaeU,0xbdee0aea3de9a222U,0x3d5ece443ea421e6U,0x3e6ff6f43e336efaU,0x3dd67461bd344b46U,0xbe9840583e9a6b08U,0xbd38a6403e48572dU,0xbd9a3b2cbe0354c8U,0xbd930c65bd665470U,0xbc51bdc7bdc31af8U,0xbdd008d6bdfd69e4U,0xbbfc9ce83d913e37U,0xbdc2069f3d848640U,0x3dee9cf13d5fc897U,0x3ddb3307be1bbbabU,0xbcbff2c9be137e30U,0xbdb05e48be7189c1U,0xbdde2448bbc5611fU,0xbd77d54cbe2cef4cU,0xbca3758dbd7c22fdU,0x3e19bed73df21540U,0x3b4dd234bdcbb4abU,0xbd78304bbe188b4cU,0x3c453a2bbd602162U,0x3c942455be6b590dU,0x3cb77c5dbd983074U,0xbdc33ff0bd47134aU,0xbe1cca8abdfdc464U,0x3c2e8463be4d592fU,0xbe1e7c75be746e38U,0xbe4758dd3e043d4dU,0xbe0fcb733d8f9469U,0xbcbb9ed83df6829bU,0xbe4cdf6f3dc1f078U,0x3c95b25a3d16a30bU,0x3dc1de873dc84764U,0xbe142cf1be010897U,0xbe9062bcbe9a94d8U,0xbecb84653d792f99U,0x3cd22cffbe0afd47U,0xbd7056a3bd99ef20U,0x3c41b66b3c4fa397U,0xbe25dfc8bdd1a708U,0xbd5c9ba53dbcda36U,0x3bab777fbdb12717U,0x3d5ab00abd5b65feU,0x3cc0e85c3d264798U,0xbcd17393bcffbddbU,0x3d053018be3323b9U,0xbd3c2a08be2e726dU,0xbd0b26103d2678edU,0x3d6153c3bd53b7fbU,0xbcb9d0d3bd441f3cU,0xbe1edfecbd8f8f9bU,0x3d9a37d23d0b131bU,0xbda69dac3c9c25adU,0x3c18ebe93d05888dU,0xbe59476a3d1a5019U,0xbd3b77a03d0a2b32U,0xbcebbbcebdac2b9eU,0x3d528d2b3d8951caU,0x3d0709c4be00c7d8U,0xbd89b6ebbdc1f47aU,0xbbbf60babcd90b6cU,0xbbe49b153d3645a9U,0x3d55cab33d0f75adU,0xbc9fbcd0bd4538a7U,0xbd5375b03c8a8b2aU,0x3b591e573c85e9d6U,0x3c7b082c3da0d6c5U,0xbe5e17febd7da26aU,0xbcb5e3c83da9ec53U,0xbbb0f3cc3d7ce5d8U,0xbd6425243e6699f9U,0x3c6bae673dda1cfbU,0xbd6978fabebe78bcU,0xbe0a8869be13e48fU,0x3dd415cabe35de05U,0xbea1766ebccae308U,0xbe826954bd7d6858U,0xbe427cc43e5e1d07U,0xbda4bbba3d86e130U,0x3d1e4a873eabddc1U,0xbe8b58263e13adfaU,0x3e6cedd8be6d46c8U,0xbea841e8be141e22U,0xbe4978f2bea1b985U,0x3c216bdcbd940d22U,0xbdd5773bbca29812U,0xbe017f9fbe47e878U,0xbe2a376e3e806bd0U,0x3d821a343da9c37cU,0xbe52894bbd03a7faU,0xbdfe28323e5517dcU,0x3dbb054cbe8ab0e1U,0xbdf31227be87afb9U,0x3dae1545be1f7ce8U,0xbcb33fcfbde47e05U,0xbe653883be0eb7a3U,0x3dc87cb93e520842U,0xbea84e5dbdb3faecU,0x3cd6c9d6be37cd8dU,0x3d994256be9150ddU,0x3caf7d86bdff8f15U,0x3cfa65b5bec9a78dU,0x3dab57b33d36b858U,0x3caaba283d84899bU,0x3e2ca847be0a4c65U,0xbe427c10be0d6dfaU,0xbd350f66be9aa690U,0x3afc5a583d13304bU,0xbdc67ca23e136df3U,0xbc329370bca7f066U,0xbdd930a23dac449bU,0xbd7ca08bbd7fa871U,0x3caf11e7bb8ca011U,0xbc678f6cbe99341fU,0x3e12eaee3e3c7521U,0x3d869838beea7e9bU,0xbd98ed893dd8c00bU,0xbeaac2f7bdbd956bU,0xbca82ce83dba17efU,0xbd4a2dfa3d11d595U,0xbdb8671b3e24bb2bU,0x3e0a090a3c413790U,0x3e9d7f6c3c96ab9dU,0xbd7f50c4be29f60cU,0xbb8fd0ee3c216601U,0x3c4ff801be31c2fcU,0xbe2975e7bec0a706U,0x3e0421bf3d99c199U,0x3db1b0f83db687fbU,0x3d3d5cd7be204723U,0x3d144fd03c0ed664U,0xbd84ec6abe162d9eU,0x3c7562b03c719345U,0x3db8db0a3d9046e1U,0xbabdbeb6be15ba2cU,0x3e93d32b3d5f2e23U,0xbe9d9e943be48202U,0x3e776d84be80519bU,0xbdce2524bdaa3413U,0xbca090e83d7a957cU,0x3e47a0063c3e86abU,0x3d68b0f6be205a20U,0xbdde03523d8f60ccU,0x3ce2bd49bd7b49bdU,0x3de47cd4be020a40U,0xbe242759bcc115c4U,0x3db32cebbd4c6ba6U,0x3dc439b73e67ab93U,0x3d47690fbe1daf8fU,0x3e05b1cb3d99e935U,0x3d4ec852be005fb5U,0xbd6011133daf5a9eU,0xbd082f523e4eea5cU,0xbd38e4afbd1544a2U,0xbd0481233dbc8b42U,0x3e5c62a33da1e562U,0x3de1d144be352d9dU,0x3c8ad95b3bb3d0deU,0xbe00a6993d18d9f8U,0xbe4cc0c0be26b54bU,0x3e19133bbe26f07eU,0x3e753c993e94400fU,0xbdd4101bbd99719dU,0xbdcc5e2dbe4489b7U,0x3c4ab513bdcc3b31U,0x3d35b5f63e5b3a8eU,0xbe102f433e0119d0U,0x3d5c31933cdf2a29U,0x3e5cd5973ea4cc9dU,0x3de9bf503db940d1U,0x3d7867f3bceb6292U,0x3e0f71e1bd38259dU,0xbd8c39e33ea25b45U,0x3e5a4d903e9e3034U,0x3dd8ec103e12b75cU,0xbdb872b53df9ad99U,0x3e841c953d8fbad4U,0x3e710049bc9dcd69U,0x3e1a87dbbac12552U,0x3ed0144ebc1e84b2U,0xbde6292b3df56087U,0x3dbaab593e11905fU,0xbc2a2cc1bd26de82U,0xbdcd8d703ceaf9a0U,0x3d973424be52107eU,0x3e29331dbcde02edU,0x3e0500c93dd22d3eU,0xbed208ef3b6175fcU,0x3df9a4a23e8c0fceU,0xbebed36fbde220b7U,0xbdcf8524bde4f690U,0xbbf3d07b3cefa696U,0x3d98b8963dc52b1cU,0x3e01e1733e5b05d5U,0xbd678953bd5c8b69U,0xbe27e72a3c237eefU,0x3e2ad79d3e8940a4U,0xbe32f2843e9b22deU,0xbdd90cfe3eda56f8U,0xbec72d2fbdecd8aaU,0xbecfbc1dbe384994U,0x3e819dd7b9cdc690U,0xbc2250933d999a39U,0xbda73eb03db849d2U,0x3e0a068e3e557c5fU,0x3e92cd103c505dfdU,0x3d808cabbe9f57dcU,0x3cdbdf613f3222d7U,0x3ea2ecb4be01f254U,0xbe712a0d3e2410d2U,0x3eb7b5a6bdcb4b71U,0x3e9c27c33e792822U,0x3e98fd0ebd823679U,0x3e1c10b03e2c61b5U,0x3e98472d3d846470U,0xbccb4e7abd9296d6U,0x3e1e7cee3e18d869U,0xbb299a8d3d2d046eU,0xbcf99cd93e1a3b25U,0x3d5b332c3dd74f5eU,0x3ec25901bdb4d747U,0xbd58c967bdc3ea69U,0xbe5cd9e6bd028c99U,0xbd388fe1bb32a9b8U,0xbcebf5f9be8f3de6U,0x3e1c2f3a3e625f05U,0x3e172dd03d318848U,0x3e8f4961be4104f8U,0xbe22ac013c385bcfU,0x3dcdf9ff3ea4dd4bU,0xbcd8fee03b6bd673U,0x3e3225ba3e325015U,0x3e41225ebe29e3faU,0x3d089ea2be0ecb42U,0xbd313e2cbdf8a140U,0x3dbbd9be3ccea429U,0x3c9d1199bd930174U,0xbd937de6bda7b037U,0xbe0f751f3e1f41d5U,0x3d084da13e857d0eU,0xbe056398be3500acU,0xbe81666e3e011cebU,0xbe53d9203d87ad11U,0xbe9e3a0cbd3495cbU,0x3ddc6b86bc1457a8U,0xbd036788be648e72U,0x3dad27103d1457d8U,0x3dffc5733d2a4bc1U,0xbdb7365bbe2a823cU,0x3de5a9e6bda5e08aU,0x3d80b1563dc66778U,0x3e4fb8223d863f6aU,0xbe1a24713d73da49U,0x3e2020813d97df4dU,0xbdbd15d53c880ca0U,0xbe02ebe03b5c6e68U,0xbcc9b306bd1fc280U,0xbdb232e9be2c31d5U,0xbce795b6bdeda75aU,0x3e1efdf23d6cafaeU,0xbe1bec94be1e71afU,0xbdccd554be43a626U,0x3c496497bdb808ecU,0xbeacbbf4bd4e5e60U,0x3dc777323d81d35bU,0x3e3ba1c83dc686a5U,0xbd9b56983d9228daU,0xbe434a17bd8dec23U,0x3d8c9703be80cd62U,0x3cdbfc82bd850c23U,0x3e2403fdbe75dcd2U,0xbd7af05cbdd739c9U,0x3e745af03e18e00aU,0x3e4767153ac217a7U,0xbc9ecf613d7a800dU,0x3e0457afbdbdaa8bU,0xbce81dadbba46e01U,0xbd436127bb5dbc17U,0xbcba2955bd221924U,0x3d8205ca3e067f0eU,0x3e2cc9533e81b627U,0xbe7f2b13be1327d0U,0xbeb2e27dbec1d607U,0xbb8cfca43e15fefbU,0x3e488e993d18354bU,0xbda6b0be3d4d2221U,0x3e0208393de22a0cU,0x3d3a31d8bea8a14cU,0xbe04106f3e022e0fU,0x3db682ff3eaaa0b7U,0x3d2fbcb9be2cb8cbU,0x3c711e923e5621afU,0x3dafe1a93df2ca12U,0xbe4c68473e0d0e3fU,0xbdf16b1b3eafb6c9U,0x3dcbdee33e4081e6U,0x3db126dabe40264fU,0xbcc9a5c1bd349277U,0x3e5a5b17be509b2aU,0x3e10cac13d73f36bU,0x3d372b5f3e0d7f29U,0x3d76f3ad3e08b6a2U,0x3e328c323d0b9825U,0x3d28fe173e569601U,0xbdc70f99bcad2064U,0xbe94da6f3e037c35U,0xbe70c05ebdb0cabeU,0xbc9444e33d777bdcU,0x3dd91d7e3e18db9fU,0x3d359c093e1450ccU,0x3dbca0823bea4f09U,0xbdf34722bc8cf6c2U,0x3d2bf8c73e1f2320U,0x3d3b024a3e9143b3U,0x3dccae32ba330912U,0xbe6c4003be8b98adU,0x3dd2f90c3d43eb21U,0x3cf9f905bdf571f1U,0x3d02ade9bdc17d54U,0xbe1807043e8ebf94U,0x3e71c89fbde6289bU,0x3dcccdd9bcece4adU,0x3ea94ba13e6e8f6aU,0xbe2b16ad3d8dd60bU,0x3e9a5a18be87b663U,0x3e2c7d7bbcb05ca0U,0x3ea4f9d53da8ec6fU,0x3decd3853e09b743U,0x3d942798bd86254dU,0x3df41260bd624940U,0x3e7507273db4819aU,0xbd45b91bbc63cb80U,0x3da0b4a83ddbcd73U,0x3d5c50a53dbd8ecfU,0xbe02dc5d3daf24c6U,0x3d599a663e5dc01fU,0x3d5d170cbe970682U,0xbd6461353cd01258U,0x3d415c9abcd4c23dU,0xbce919f83c9ea315U,0xbc6b788dbe750190U,0x3d7500a13d49a35dU,0xbe165e63be80926eU,0x3d814ea73e6452d3U,0xbe30751f3ec297feU,0x3b25bdf2be1cf509U,0xbd3c5b273d9fc61aU,0x3d461d50be5e79acU,0x3e4f83543d6473cdU,0xbe1c110b3dac9827U,0x3c96e12d3db965a0U,0x3e1b66e73e19269bU,0x3deb6f133ddf1b9bU,0xbd978f003deca261U,0xbdce487dbe55d631U,0xbcddf9e73b95a388U,0xbd0b323e3d3cca6fU,0xbdaf04c43c112a36U,0xbb8de52fbe0c705cU,0xbec53da23dd0c948U,0xbe0027803db7f162U,0x3df2a7b63eb68b57U,0x3edf8d473de6c712U,0x3dae09383de37d23U,0x3e3f166c3e429df4U,0x3e156b743e432d2eU,0xbeb50468be8fac66U,0x3d68d9b8bddcf18eU,0x3e5ab7e6bc8fd367U,0xbd8bb01abdbba099U,0xbdc139d7bd35d72aU,0x3e073bc8bc8a3e6eU,0xbdeb954ebde8c270U,0xbd32d2803c6b980cU,0xbd4586cc3d85f8ecU,0x3c96d8e7be1fb652U,0xbdb9a3643c35a2ffU,0xbd9500f9be533622U,0xbd97a9debe138b81U,0x3e305540bed0f041U,0x3c87dcc83d2beab4U,0x3e0116d43da536aaU,0xbddd30e73e6496caU,0x3d9608343e71c05bU,0x3d327508bd3c61feU,0xbdb19989bd828fabU,0xbe47dbc5be25e4e7U,0xbd46fa2bbe967256U,0x3d93073dbe9c6bbfU,0xbdc683393d872bbaU,0x3d49349b3c444a87U,0xbe0baebfbd6e1c2aU,0x3c74e02fbd313bd6U,0x3d341b2abe06f547U,0x3db40ed0bd742f0bU,0xbd1ea491bd91e482U,0x3d2931a1bcc11e59U,0x3d392cd53dd581baU,0xbdc66f17be63298bU,0xbc471fd13bece2eeU,0x3c2f8d4bbd3abb34U,0x3b0f31bfbeb68f88U,0xbcc39e6cbd2efa9aU,0xbd2754773d361a0dU,0xbe8e6ded3d710f9eU,0xbc2450f43bc5f6a6U,0xbebc6319bd2b910eU,0x3cb357d6be2c7747U,0xbcc4a75fbd1ca357U,0xbd522779bd8e04bfU,0x3cc58010bd814dbaU,0x3cbb524f3df79d8fU,0x3caef0c73cd2cfa1U,0x3c80eb22bddd8b97U,0x3d82be483d125df7U,0x3d388bfcbce01258U,0xbc994385bd862effU,0x3cf4d146bb5a533aU,0x3ccac09c3cea4c54U,0xbdf8156fbc9de68aU,0xbd401dae3cb44a1eU,0x3d0aab7b3d0fd3e0U,0x3db454783e713434U,0x3d79b9b73d62024cU,0xbc7b0cfd3daa2d90U,0xbda7dff23c97242dU,0xbe81f4f43d20412dU,0xbd291a57bd9016bbU,0xbdbca926be35ba05U,0xbd862d2f3db70df0U,0xbd82187abd18c682U,0x3e066afebe955eebU,0xbca18496be529caeU,0xbd8a84703e45bdebU,0x3c604655be71fc95U,0xbe9432393dd8282fU,0x3d3ac59cbe5cf027U,0x3db660b43db95f7bU,0x3e38a329bcdb7a2dU,0x3d9007083d9d63b7U,0x3daa6041bebe5e93U,0xbd5afee73d6b407dU,0x3d81aa06bdd2e76aU,0xbda2df6c3d8db4d0U,0x3d9a74fa3d56554bU,0xbcf75c183dba1687U,0xbdbc7715bd7e379cU,0x3e176be3be735209U,0x3d8538183e91f694U,0x3dd5b53c3cae1ee9U,0x3af1906bbe31a0e7U,0x3d50725e3ebc07f1U,0x3de56cb7bd99593dU,0x3bf27248bdec2390U,0xbd1a2ae93c15aa06U,0xbcaab9babd1f5f81U,0xbdac68423c23c00fU,0xbd5380253c05d5bbU,0x3ced2db7bd0cd3f2U,0x3d00bb5dbc0c568cU,0x3cb547a7bddc1a8aU,0xbcc52451ba65719dU,0xbe1ca5ad3d86555cU,0xbd36a6fc3ddb618cU,0xbd2b68d2bdc6191aU,0x3d07109e3d8821acU,0x3dc07132be45d933U,0xbd262c793b8446edU,0x3c8836b5bcc2aac3U,0xbcb806d9bdec84e0U,0x3d4a3e54bd7b2481U,0xbd194d3dbbd8fc1cU,0xbddf059dbca1cc16U,0x3cbc6f2fbd95ccb2U,0x3d2e6c53bdc662d7U,0xbca3a214bd5b6685U,0xbcdb4352bcd19f6cU,0x3dcbc460bc7eaad6U,0xbdbbbe56bcb581cfU,0x3a62b5f73d7351beU,0xbdc15a633b589916U,0x3ceb8b383c8f06d5U,0xbe2e9160bcb2fd11U,0x3d087176394344ccU,0xbd4ca990bd14fe1aU,0xbd71ca62bd386c2eU,0x3e60e9dcbd66b262U,0xbda13b85bd2a20cdU,0x3e09f9b53d18c6e3U,0x3d895bb4bdb0a24aU,0xbda969c9bdee1446U,0x3e1752cc3de4364cU,0xbcc4cab6bd8daa38U,0x3cf34d733e4d86eaU,0xbe9ceb5bbe0ecb20U,0xbdbfa164bda13241U,0xbcbb61e43d3d334dU,0xbdfddc53beb92bf9U,0xbe849d883e0b5049U,0xbd74f9e4bcab5d16U,0xbee5ad23bda65d0dU,0xbc1385d6bcdc0b13U,0xbe83440dbd713d36U,0x3e1fc6333e98fef9U,0xbe2925223dd477ceU,0x3d656bfebe19fcbfU,0xbcf20196bd9ae9bcU,0xbe9d0612bddfe66aU,0x3db6a2963db35224U,0xbe9fefb3bdb60c2bU,0xbe65760dbe5d9d5fU,0x3e480e00bd66bbefU,0x3dd56bbc3db57708U,0x3dab2fe73cff1fbfU,0xbd1b3c37be6d9f25U,0xbcd7e0083e608532U,0x3cf2dd0a3dd9fe82U,0xbe58a1c73dd2ac8bU,0xbd1375b83e2503b5U,0x3d921873be8e9fd5U,0xbd80279bbd51253fU,0xbd8006cdbd60443bU,0xbe634449bc1bb2ffU,0xbe0e86d1bd1eb54fU,0xbe32fee73d092ad9U,0xbe1ec3d7be204298U,0xbe25c8d23dee1b80U,0x3d5ab8963e928b65U,0xbe228394be11db95U,0xbde9c63fbe8654f0U,0x3d1af14b3e41bdd2U,0xbdf7f37cbe9e75a8U,0xbed26dac3c91e68eU,0xbe691d593b6cb2a5U,0xbcfd0af53e7aeb1cU,0xbe1de7cabc7bc238U,0xbd9e6fa83d8cd1d0U,0xbd5122743d9022fbU,0xbdd9450dbeabdfcbU,0x3e7b6b96bdc73838U,0xbd320ed73c6c23e2U,0x3e074cf4be893431U,0x3d71917bbe0dde1eU,0xbc3e1ed7bdd90418U,0xbd681246bb916b99U,0xbe11bef4be4a5780U,0xbd148db7bda594f8U,0x3e818f2ebe5c84fdU,0x3c79611b3dbbf564U,0x3cc81357bd928260U,0xbe033db13d68d164U,0x3e3a6eda3d99af11U,0x3d0cee11bd7b9696U,0x3d9548acbd592a98U,0x3d991af2bd6f90d8U,0xbe13dcf1bc5eea2cU,0xbe8f144ebd844a04U,0xbc95ed083e1b3917U,0xbd793ffd3d9a5671U,0xbc8bff7bbd589d7aU,0xbca42856bdca05e7U,0xbe68db2cbd55352bU,0x3cad3c0abeda1a42U,0xbdb391a7be24da4dU,0xbe2f4047beaa4647U,0x3c646f93beb92773U,0x3d027505be4203d6U,0x3b9382693c1bf58eU,0xbeace782bd9826d1U,0x3d03808bbea9481cU,0x3e7a469ab9f4bb91U,0x3c807eb43e02fbaaU,0xbd1120afbdd2a9ddU,0xbe327abd3b82a012U,0xbc3b1b273d03b230U,0xbd9a8728bdd805c6U,0x3b0c5b4dbd003165U,0xbe1be9a6be178620U,0xbecd7ff23e1a0823U,0xbdb047263d8fb1eaU,0x3ddb20463d990b6bU,0x3ca276f6bd465bfaU,0xbd8c1a8b3e83827dU,0xbd9586e93e513893U,0xbd87fff7bd8f3a2fU,0x3e8b08fbbe43854cU,0x3daa55a6bcafd8b2U,0x3e1036cabc20345bU,0x3e36c0a83ed12d28U,0x3e8851603e0d7424U,0x3e316bd13e726da4U,0xbd112a7b3d31d556U,0x3e2f11b23e48ed04U,0x3e8058ddbb45efd6U,0x3e2c53f43ec92f3fU,0x3eb3bdc93e03668dU,0x3e13b5913e6d31edU,0x3d215cf83e0ea5f4U,0xbe074984bd0e50e8U,0x3e0cdd263db59396U,0x3e12c5af3ebfe2d3U,0x3d2923613dd41f4aU,0xbc5da3a13e2933fbU,0xbe55495e3e003394U,0x3e3bbb933dad1d33U,0xbe0c2296bc08df61U,0x3e7716e8be28d993U,0xbdd8df363d90d8c4U,0x3d93f28bbd22982cU,0x3e4e62463e08aeffU,0x3e06feb73eb5eb3bU,0xbdff895c3dd271e3U,0xbc8402be3ede8739U,0xbcbf5dce3da5f461U,0xbda6da083cfe3cdfU,0x3ee343173ec84cfbU,0x3d8254fabd2ce650U,0x3d311582bdc867bdU,0x3d868e40bdea4f79U,0xbdb3ee34bda74befU,0xbe04b8e53df02c4dU,0xbe4f60e43e9ed5a2U,0x3e5302bc3ea6bd74U,0x3e1d48edbddb61ffU,0xbe154af3be1f264bU,0xbe00471ebc6b896cU,0x3d6ef5393eacb5ccU,0xbe263acbbe48b12cU,0xbcdeb5f5beb1414fU,0xbdf9ede3bee009a0U,0x3a353916be9d39f4U,0x3e2f45ea3daecef1U,0xbeb50df5be857e26U,0xbe9a56d0bddbdde8U,0xbe5d42f63d578f2bU,0xbe8a23a3be40a764U,0xbd8562d03e72a8b2U,0xbe56bdf8beb554a2U,0xbe1ea1bdbe6b2a60U,0xbe672c8abd49cf1fU,0xbda37019bed9016fU,0x3e872cdebec7ded3U,0x3cbe4dc8bebe4b8fU,0xbe82bda3be166317U,0x3dd802ee3ddc29beU,0x3e18f6bf3e09905aU,0x3d4486f9bd940de8U,0xbcc065a8be1789afU,0x3e2e416cbe0b1232U,0xbe06f33fbf14d6d6U,0xbe0a2009be90a8d1U,0xbd8c20a63eb32ccfU,0x3e2aae673dad3553U,0xbe19e00b3d46b1c4U,0xbea089a2be4f1ce2U,0xbe5711efbda40966U,0xbe1a761bbe9a50c7U,0xbe529abf3e2b1f5eU,0x3e907bee3e7436b5U,0xbdeb74c8bdd5510fU,0x3e6bcb8fbe7ffc10U,0xbdb63169be29230cU,0x3dea4693bcc61f9aU,0x3df5952cbe389c49U,0xbe57d1663da1b87fU,0x3e12f552be1098fbU,0x3d5ffed3be1286d6U,0x3d85e2c93e30247eU,0x3d36c74cbe07f16dU,0x3e77bd013d975fb6U,0xbea04d01bdd356ceU,0x3e8222813afb6bccU,0x3dfd39d23dc7da84U,0xbe34ba83be9551d5U,0xbdaa45d33e628946U,0xbe9999db3e2b8bccU,0x3d91f7d0beac7d99U,0xbe98df1f3c692057U,0xbdf10f66bdb46366U,0x3dc2c893bec3bb8dU,0xbda28ed73d1ebdaaU,0xbda6d293bd8b053bU,0xbea14605be4c9369U,0xbd24553c3c835ac0U,0x3df0f8b03d8b4c66U,0xbd4b03be3c9f5954U,0xbd866f573e0c2292U,0xbe5946c4be045fcaU,0xbba47b7bbd9e740eU,0xbe3fff283dc33c5dU,0x3d176b2bbe3c0f2aU,0x3ceacc8f3e2d6cacU,0xbe016b17be33bf87U,0xbc9523c13d091e23U,0x3df239643d0e1337U,0x3c4226f0bbe31708U,0xbc9c9af63d07e0b9U,0xbe579a18be3c47ceU,0xbda4a273bde5e37bU,0x3c7204af3e7621baU,0xbe23493c3e7014baU,0x3ad7edce3d576899U,0x3e0c5562bdb20e20U,0xbd46fe773d5c9dd8U,0x3db4ea9f3cb5b6acU,0x3db42c2ebdec8e21U,0xbdf78f1f3d6e2630U,0xbda70ab8bda2c309U,0x3dc68902bd700674U,0xbe94669bbd813e12U,0xbe5400fd3d476821U,0x3d35d6cbbe61005fU,0xbdfa31d8bd7b99a7U,0xbccf8440be8268cfU,0xbecbda48bd8428a9U,0xbc7948be3c72de01U,0x3d0b0328bce90c90U,0x3de32d51be747981U,0xbe12d1a83de3db74U,0xbd9d92fa3d371051U,0x3caf8489bd891434U,0xbd10f676bdf027adU,0x3c03e1debc9d9ce1U,0x3d701fd3bcc69998U,0xbe098831bb21b56aU,0xbc4d347e3be8bb71U,0xbcfe93923cd3d8dbU,0xbdaef5a9be3d0122U,0xbc73a0e8bc8a0c0fU,0xbc0ff3463c8af602U,0xbd9c16b9bd9bba09U,0xbe0b4591bdecfae6U,0xbc87cac43d0c6acfU,0xbe34acedbc59707eU,0xbe66dfe9bd9469aeU,0xbebb92d4bdcc6b84U,0x3d933da5bcc9985cU,0xbdd5bd87bd183492U,0xbdb0fa1bbe2463c0U,0x3d860d00bc8324baU,0x3dff38adbd7f1033U,0xbdcd60efbd261109U,0xbdd3d2cabd2827ccU,0xbe4d1ab0bb3b3d5eU,0xbde034533c77829dU,0xbd27eacd3e2eeb1dU,0x3d2df2aabcaa0451U,0x3e312d4cbe1dac0bU,0xbe1cde3a3d19010cU,0xbd258efe3e359549U,0x3e5c78edbe8f8743U,0x3dbf7f923e1224f5U,0xbd3965ff3d5735ffU,0x3d2be5f93d391cdbU,0x3e228120be1223d6U,0xbdfd99183d8e0e02U,0x3dda44b3bd13ad4cU,0x3dfc62e53d75c34bU,0x3e0f22dabe00e6ccU,0xbda27417be1d39fdU,0x3e154d4e3e3058f2U,0xbdac5665bdb3f62eU,0xbe0e24623cd24e52U,0xbe083ffabd861f2eU,0xbea3d242be883397U,0xbe6b29d0be87f043U,0xbd8d8846be5029dcU,0xbdeffdf83caf9722U,0x3be4226dbe632589U,0xbe01f05c3d890a91U,0x3d2bdf233c997ef2U,0x3c9492f9be1ea2e6U,0x3d95da773e1580f2U,0x3e4b6a1cbe12845eU,0x3d1a2da83e27d86aU,0xbdeaa441be4c1268U,0xbd18cc413d694debU,0xbbe52d58be4e9bd2U,0xbd53f553bcff60a9U,0x3ce0a0143de80fa2U,0xbb358ab0be613dc9U,0x3d4ad186be8363e1U,0x3cf3884b3e143c17U,0x3e3888723e1ee472U,0x3c6390cfbdf30b34U,0xbe88dd80be951b4bU,0xbe86e7e3be97959fU,0x3e0dfae13e07b699U,0xbe9f9d833db250b7U,0x3e002b49bdbc5d12U,0xbe3d743abc581481U,0xbd6a52043c0ca5f2U,0xbd86d4ac3e3f1904U,0xbd8b91633d753fb5U,0xbc2c363abe208ae2U,0x3e35ada4bd98e5b2U,0x3dd917f03da28820U,0x3e068f08be40980aU,0xbde0c4c1be1f6ed1U,0x3d8112d53e90324cU,0x3da73f533d88861cU,0xbd1ea55d3d2ddf68U,0x3d36876ebd88e151U,0xbe5cad363d26e158U,0x3d1cafc3beacedeeU,0x3d2a7f8b3d6df3e7U,0x3cc8ba20be06e1e8U,0xbd893ca7be5a1c51U,0x3cdd746b3deddd33U,0xbc214629bd8c9ce8U,0xbdda6e6e3bd11a96U,0xbb48b901bcb066d5U,0x3ddb78d4be509d43U,0xbca8226abed592ccU,0xbd42e42dbcf81f56U,0x3d6c9364bd970411U,0xbd17e30bbd2dd041U,0xbde727263dc7779bU,0xbe9da7bdbd32e1efU,0x3dc5b6413dcaf1efU,0x3cb00f8c3d160896U,0x3d421c71bbfd2931U,0x3da054f43c424c43U,0xbd1b27e8bda93a93U,0xbc8bd444bd823f3aU,0x3ca1b100bbdde52fU,0x3e261ad7bd11cceeU,0x3d0835f33da33f2dU,0x3c657f533d40ecebU,0xbda781a63d64fd33U,0xbe42e9733c1116e3U,0x3c7b8098be974ac1U,0xbdeffafb3ca7c59dU,0x3e68574dbdccc5c7U,0xbd806f63bde006bcU,0xbdd319f73d608133U,0x3c0a1ac2bd878789U,0xbdcae52a3d47caa1U,0x3b765b8cbdeec7e9U,0xbd4cb299be5d3870U,0x3e62aac6bcd17138U,0xbe33d81ebe298225U,0xbd76bb99bd72fd25U,0x3da7e08fbe4670d8U,0x3d16dd82bd95a240U,0xbe8559a4be9c3e26U,0xbda0c6883e0d9b23U,0x3eaf21f7be818aceU,0xbda99088be8337efU,0xbe931e6f3d866852U,0x3d2e161cbe18924dU,0xbed05c383dd08f6aU,0x3dba18f13d756196U,0x3e382003beb233eeU,0x3e88141c3d8f2a7aU,0x3ca3bcc63e358ddeU,0xbc4abc81be862a62U,0xbe1b88f63c605876U,0xbd9ea75abdd0178fU,0xbde09e083e2c1fedU,0xbea861383e128b21U,0x3d9a7ffebdc58c98U,0xbe8c1a56bda92316U,0x3e1b6f7f3e231fb5U,0xbe3a7360bdba1819U,0xbdf54d63be2de808U,0xbe10b283bca52f44U,0xbe6bdcbe3d0eea57U,0x3da72b53bdfadb75U,0x3e6cc1fbbd37089cU,0xbd9effbabcd694f2U,0xbde13608bdcca04eU,0x3c441f243dbc6c95U,0x3da25716bdf57bd1U,0x3e136087be194b5bU,0xbe25b9fabdfae799U,0x3d9be6fd3df6b689U,0x3dd92b023c463a3bU,0xbdf0e4a2be490a8bU,0x3e0e87f03da61ed2U,0x3db068443cebce30U,0xbdf7ccddbde8b836U,0xbcc349a73e2698c7U,0x3ded0c41be0621d3U,0xbdca5eb03cea9586U,0xbe152e1f3e2a2976U,0xbe4470293e27ba6aU,0x3e8a4c9c3dc2e2ebU,0x3dd6757dbd56aecfU,0xbc2a307a3b9e7db5U,0xbe42e8003ca8ae3dU,0xbe143604be79484dU,0x3dc51c8a3e4c8433U,0xbed11b9f3c0957e6U,0xbc1f705ebc4c7181U,0xbdd12addbe9cd266U,0xbd8c81d0bda5874eU,0x3d0ff02fbd323745U,0xbd8a629abe190dc3U,0xbd60d5a3be00c467U,0x3dda8eac3dcf9cefU,0xbd4eb0283e147fb8U,0xbe0d4163be708319U,0xbe410edb3e1daf2eU,0x3d44d0d6bd780401U,0xbdfc3bf53e178ffdU,0x3c7debe23d6d3cf7U,0x3d17ea3cbc365b73U,0x3ca12cd0be71b567U,0xbe41251cbd2c1551U,0x3c3d65ea3e3942e6U,0x3e02510c3e34d001U,0xbddc78633dec44a0U,0x3cc36ca33c64b248U,0xbc58b95ebe19dc12U,0x3dc4ce803d3b9c95U,0xbc976b5cbd90be99U,0x3c9b95113c7f7e17U,0x3da2bb1abd438221U,0x3c6a19dbbe01e5d4U,0x3da17b0b3e9c78fdU,0xbce74bd8bba1afb7U,0xbcd845be3d27469fU,0xbe9a57e4be28765dU,0xbe5770333e0442a6U,0xbe33eb89be523b9cU,0xbe236dd4be1fbfacU,0xbca8938b3d2d8397U,0xbe8a2159be0d2e6aU,0xbe93e68b3d077170U,0xbc7d03b9beacc1efU,0x3dfcb9303e06a71aU,0xbe3bb5a1be913ca9U,0x3dc43678be6e62e4U,0xbe13c3723d3277c6U,0x3e06ccf63e98f8f5U,0xbe61bb013cc443bfU,0x3e3a9fb0bcf435cfU,0xbda2b678be0ee360U,0xbe6c422a3e0756b0U,0x3d8f104ebe0e85bdU,0x3e1f0815be889897U,0x3daa164abdf389d9U,0x3ddc8f7bbe7b66ffU,0x3df4c5263cacb817U,0x3e8277643d1f675bU,0x3e19a097bd976805U,0x3de0e3463d1d7a76U,0x3eb7ce18bdbd9108U,0xbd567a7dbd0148afU,0x3da2e6b33e2f4673U,0x3cabcf5fbc605c03U,0xbd7f7196be22b92fU,0xbdd889fa3e3ebc39U,0xbe24052a3e374690U,0xbe27b3483efaf8a8U,0x3cdcfa72be47dd51U,0xbe00bb8bbea067f5U,0xbe33aedcbe9a9e20U,0xbd5ad2483d46d369U,0xbb001aeebd5ff94aU,0xbd8124dabcbfbe6fU,0x3e4a8165bda8af13U,0xbe30ee983d7090c0U,0x3dd9e3ecbe69f3efU,0x3df16ec33e0e5842U,0xbde56d25bdc73c59U,0xbbfae5c9bc643478U,0x3dbfc86b3e06a9aeU,0x3e15a1ac3d1d8289U,0x3d5de891bd82e9c5U,0xbd0544d13d7f0303U,0xbda804a7bc6f5dceU,0x3e1123e23a849e9bU,0x3ba80d893bfc65c1U,0xbd52eca23d117265U,0x3df3fd86be3a3182U,0x3d13f533be2e7ebbU,0x3e2ba802bd7edae3U,0x3d99da8d3d34009dU,0xbe037188bdd2ded5U,0x3ca34bb4bd8211b8U,0xbe40cc04bcf931a0U,0x3d95026fbdd8312eU,0xbdbf912e3cc4116cU,0x3e109804be0a2c98U,0x3ca1aa76bca6be47U,0xbdb1dbba3e0aef35U,0x3e37c6f83dda2fb9U,0x3d8f17adbd700df9U,0xbe5a8101bdd14124U,0xbcb0eb053c80ecf8U,0xbcb10c4ebc2c2e23U,0x3b7d0bbc3d872e50U,0xbe2998723db0bb68U,0x3d778a64bd8f5023U,0xbcc53209bc537949U,0xbdc754ad3e20379aU,0xbe9a06603e18f916U,0x3c192da13ddcfd4cU,0xbe30f7fbbdf2b215U,0xbdaf408b3db3decdU,0x3e3c1d38be006c9eU,0xbe947cc7bd641607U,0xbdfb65ffbe3214b0U,0xbdc92c3c3d81e69bU,0xbe388b76be81368aU,0xbdc227ca3e3d862fU,0xbdcfb1adbdf28068U,0xbecb07493d249c91U,0xbe3b0a3b3eb4c618U,0xbc807e25bda32b32U,0x3d30dd06bda5f2d8U,0xbe0cadfe3e439bd6U,0xbd943a56bba4cc3bU,0xbd96eff0be5dfeb4U,0x3db1b1a73cd69a23U,0x3e281d7d3d513031U,0x3e7067edbde846f3U,0x3e6a38f5be23b049U,0xbddb70dcbd74b9dcU,0x3e7d6cdebd997bfcU,0xbe0d00a53d725be0U,0xbebdec29bde869bfU,0xbdd9720cbd4ac0a4U,0x3d29ab31be1eb0adU,0x3d9ae851bebb60cbU,0x3d97797cbe6f8d0bU,0xbd6b7d8d3cd06d85U,0xbd0c0501bcdc81a4U,0xbd3df5ff3bdeba5eU,0xbd8ac84a3d94369fU,0xbe24fe71bd783780U,0xbe2229efbdf36779U,0xbcd2ce08bd73a88bU,0xbe4ec1803dd09032U,0xbe8b6fa5bd0f0a71U,0xbe1ae1483ca24022U,0xbe0e8d15be0e6abbU,0xbdf59610be1115aeU,0xbd9d5a35bdadb95dU,0xbe0adbf33e014bbeU,0x3d210eb3bd7f9d0cU,0xbea18280bed6aa67U,0x3deb28e63a29d43aU,0xbe93f5243c154579U,0x3e4df4993d753ca9U,0xbd39b8a4bd854519U,0x3cdb1a58bebe2e1cU,0x3c87ccf23d4a44f0U,0xbca6f3733cf0c992U,0x3d9edf6b3cc365adU,0xbd8683c03dcb6d31U,0x3d392aaebc4ffc57U,0x3cfedc41bc44afcbU,0x3d19aee73d8ca731U,0xbd07e117bdc5bf93U,0xbd72dd8abe197480U,0x3d7597863dce45f1U,0xbe1509e63da3a0baU,0xbdba18be3dc98a5dU,0xbdfba033be9337e7U,0x3d4930debd25142dU,0xbca68454bd98052cU,0xbe664b7f3cae5adeU,0xbdcdf0d5bd61dd2bU,0xbe4bf73f3dd8b537U,0xbe43b555be1fce4bU,0xbdee3c75bd48851cU,0xbddf3e533caa80a7U,0x3b0e2b143d8fc66bU,0xbe380f6ebe040407U,0x3c2c2e9fbd1e765aU,0xbdfc4276bcdfb15cU,0x3d21b1b63d874f0cU,0xbdf8d648bc55df84U,0xbcec8cf63dbc23c2U,0xbcea8d733e222280U,0x3d73dfdfbe22057fU,0xbe479249bdb08a85U,0x3da816d8be8066a5U,0xbe8271463d7ad877U,0xbd65f690bd246aacU,0x3d8ed7133d0b9921U,0xbd997a72bf00d227U,0xbd341f363d8ff933U,0xbdbee5df3d294b12U,0x3e02aba73d20f4b5U,0xbe8c62823d569805U,0xbe7ade5dbd69c153U,0x3de9bc0dbdddb406U,0xbb7835aabb9e8683U,0xbf14539fbdeac5e7U,0xbd1255d8be841eb4U,0xbd359caebe03b16fU,0xbd8f39813ccc019fU,0x3df41b4e3d94658aU,0xbd94edffbc82c55bU,0xbcfe4492bdc2d79aU,0xbea38ecfbd6597d4U,0xbea96e5bbe8e4959U,0xbd841a1b3e3c6035U,0xbdabfcbfbe626a58U,0x3e202559be09a467U,0xba84d52dbdeedc0eU,0xbd596e423cffde73U,0xbe20232cbdbf165cU,0x3d6f4512bee2f50bU,0xbd26e1ffbdc37208U,0xbe2a2eb9bd2828a9U,0x3dec89c43e33eb57U,0x3e7b3d6c3d3165fcU,0xbe1f822fbd2b97c2U,0xbe8e051cbcc3f136U,0xbe9885e7be218958U,0xbd6e13f53d44742aU,0xbd4f4c133d078b52U,0x3c1cde493dc723c6U,0xbe1f2b993da89ef0U,0xbc87f0793e2d5736U,0xbd7d6eb9bb9b1f4eU,0xbe88cb92be97ba32U,0xbd1ca04fbe3549baU,0x3dac89413d073bafU,0x3e13a397be67ea1bU,0x3b709b20bd41e8d0U,0xbe2a4803be85259cU,0x3da867a03d899e41U,0xbe185416bd145a46U,0x3ec6afeb3daa25a6U,0x3dd795d23ca1946fU,0x3d4698183dde87f3U,0x3d3451083dac41b0U,0x3e897d74bd8dd6d6U,0x3ba0512f3a1d163aU,0xbec2b7ecbe2d09e8U,0x3dc46b5e3de7a4a6U,0xbd329ff0bcd15f86U,0xbc306d57be8d2397U,0x3e59cb1c3d9e9313U,0xbdd4efefbcc957a2U,0x3ce455853dec20a4U,0xbdac975ebe8fc73fU,0xbd85edc7be3da2cdU,0x3d98f5113e16523dU,0x3e0432453d81db68U,0x3e558d8f3d403cccU,0xbd43dad1be0f6beaU,0x3eb239c23d27d88eU,0x3e4cdc4b3d8c7547U,0xbe3641febc485872U,0xbe020e0bbe129b22U,0xbd7ad959bd78a5b8U,0x3e95688b3d651be5U,0x3daf23e2bdf8aa2bU,0xbd435e5fbe580a25U,0x3d9fa82d3ebe20cfU,0xbe6027d93eb78165U,0x3ddf89973d7bbc4eU,0x3dd09ed0be259267U,0x3e0784623d298ea2U,0xbdef545dbd9df778U,0xbe40f73a3ce6ff56U,0x3e4b8d4ebb8f16b4U,0x3e026a5ebd925cc9U,0x3d1291143cae337cU,0xbd2024673b3bd0b0U,0x3ca4d9ca3e762756U,0xbcb705f43d4804adU,0xbdbb6a35bdb4621cU,0x3c01e9963d24828cU,0x3e1dcb613e5c929dU,0xbc23c3a53d4e1f3cU,0x3e083ac63b578769U,0xbe080ff13d77698aU,0x3dce24833d9a0383U,0x3dae68d13e0914baU,0x3e0b7b58be8ed9d9U,0xbd19f2dabcd6416bU,0x3e2f32b0bd336a87U,0xbd98639f3dd158baU,0x3d5855793e030527U,0xbe5fb1f7bdb32f17U,0x3ddd420fbdd37d00U,0x3ea69eb23e1f5d2cU,0x3e65c1f3bdcae536U,0xbe4093e9bcac533bU,0xbd3f4a083d49fad3U,0x3ead162fbdbb4bb4U,0x3d5434cf3dab4438U,0xbd9800bbbded7488U,0x3e067caebd9bb0acU,0xbea0939dbd91a313U,0xbde910b5bcb41d0bU,0xbdc2761e3dab4442U,0xbde3efebbdc518fdU,0xbd915fc03c595c6eU,0xbddcdc03bda6a631U,0xbe114dd5bdcd3eecU,0xbe520a95bd2051c8U,0xbd5e7044bd674af7U,0x3ecbc3cdbdb73fa0U,0x3e7914a9bd0b634aU,0xbcec59b9bd500b1dU,0xbd5442f03ca221d5U,0x3d139514bd74750cU,0x3dd68009bdb56a46U,0xbe31f031bc532051U,0xbe4d50dcbdae9c1eU,0xbe5f6af0bcd3fbfaU,0xbdae3905bdad6472U,0xbd8fbf653e32ea2fU,0xbd6f8a8dbe9ff0bfU,0xbe093a50bdc5b3fcU,0xbd45c41e3d4b3b01U,0x3c5454c6bbf8c904U,0xbe8528a5bd0f3aeeU,0xbe2ec2eabd195c50U,0xbdbec90b3ce7be4fU,0xbe02623c3cd89bcdU,0xbedb57f63de52329U,0xbcffbb00bdba3bfdU,0xbdd924b6be61945eU,0xbbc3fe603da52472U,0xbdb0fbed3b49fe1eU,0xbd39b9733caa38e3U,0x3ddd9385bde5bb98U,0xbd100dc13e5ee4b5U,0x3e4198e63e2ff7cfU,0xbd2aa56cbcb8418bU,0xbe930033be412bb9U,0xbe9ff8a13d8ed889U,0xbd6f110dbe22ff19U,0xbeb18e4e3e00419eU,0xbdbe82583de727eeU,0x3bef07c1bd5ccb58U,0x3d2a1b43be61429fU,