/**
  ******************************************************************************
  * @file    network_data_params.c
  * @author  AST Embedded Analytics Research Platform
  * @date    2026-03-26T08:41:28+0100
  * @brief   AI Tool Automatic Code Generator for Embedded NN computing
  ******************************************************************************
  * Copyright (c) 2026 STMicroelectronics.
  * All rights reserved.
  *
  * This software is licensed under terms that can be found in the LICENSE file
  * in the root directory of this software component.
  * If no LICENSE file comes with this software, it is provided AS-IS.
  ******************************************************************************
  */

#include "network_data_params.h"


/**  Activations Section  ****************************************************/
ai_handle g_network_activations_table[1 + 2] = {
  AI_HANDLE_PTR(AI_MAGIC_MARKER),
  AI_HANDLE_PTR(NULL),
  AI_HANDLE_PTR(AI_MAGIC_MARKER),
};




/**  Weights Section  ********************************************************/
AI_ALIGNED(32)
const ai_u64 s_network_weights_array_u64[2026] = {
  0xbca256afbe038e5bU, 0xbdcd20da3d86693fU, 0x3ceee90d3d6bf5f1U, 0xbd5a73b83e08ffa5U,
  0x3dc00f363d826b80U, 0xbd208238bd888235U, 0xbe010dc73d87bf68U, 0x3cc07810bd91076cU,
  0x3dd241eebc2b3244U, 0x3e25152cbe0b6d0bU, 0x3d41e8123d1b87e6U, 0x3d5ae7fc3d6ed552U,
  0x3dc3d0063dcb1da7U, 0xbd1857af3e0097c6U, 0x3ca2c3b73c90e937U, 0x3d4dc301bdc31670U,
  0xbe18b121bd32a2a0U, 0xbc0485883d147baaU, 0xbcd382dc3cba3568U, 0x3ddaff733dc2ab7eU,
  0xbd4027b03ba80fb6U, 0xbc8dafd8bdef50c2U, 0xbe13033dbd216cb0U, 0xbd3332ac3db09355U,
  0xbe2c13d13d9e4ff9U, 0x3d81a94cbd3ada96U, 0x3a80b193be13e7a7U, 0xbdd72283bdd8ce8cU,
  0x3e1338323cf631b3U, 0xbc723882bdac14a2U, 0xbcf7b667bdf8e365U, 0x3ddb68cf3d52ba2dU,
  0xbd0b07e0bdde7f11U, 0xbde1897f3d7272efU, 0x3b8007cabdd43119U, 0xbdece88f3dc94217U,
  0x3d2e07783c9bcde6U, 0xbd51a4803e00a3b3U, 0x3dac31103d843f1aU, 0x3d7529d43d52741cU,
  0xbdef47cebe15f3ffU, 0x3ee8aa1abeb7ea92U, 0xbec4c7eebef73800U, 0x3e717b7bbe63c10cU,
  0x3f105648be089a4dU, 0x3ede340ebeba9520U, 0xbe338c313f009b92U, 0xbf063311bef4b6d1U,
  0xbe965ee53eb93277U, 0xbdcc102a3e9f08c5U, 0xbdb44730be4389d2U, 0x3acb30a73dd7830aU,
  0xbdcd516a3e7b3da0U, 0xbe09539fbd96876aU, 0xbd5db3adbdc4106fU, 0xbd96adcb3ea87b7bU,
  0xbe0eecda3e2f9bebU, 0xbe5794913b48d943U, 0xbe62dedbbe457d42U, 0xbcbc1abc3e591af7U,
  0x3dedf24b3e2c01dbU, 0x3e28e2ab3c59d37eU, 0x3e17540a3dd3b253U, 0x3cfc890ebe1d4c6eU,
  0xbda381fc3c1c1a7bU, 0xbe6b04f83d64097eU, 0xbe417269be0c224aU, 0xbe50e5173e686de5U,
  0x3d4c6d06bcd8904fU, 0x3e3f58703e3a0470U, 0x3ccb4eaf3e374164U, 0xbd95ba743c75d093U,
  0x3e568b23bd114914U, 0xbd8d40663e009cc9U, 0x3dc7501e3d15f838U, 0x3ded2bb73e2954a5U,
  0xbe56b3cc3ddd46cdU, 0xbcfaf5f13e361948U, 0x3e866beabe4c782eU, 0x3e9d3221bcdc36c0U,
  0x3df8b6fe3d85f599U, 0x3e754b86be7b38d4U, 0xbc03d4083f0109a8U, 0x3e22e743bd206c2aU,
  0xbed794fabb418ef7U, 0xbea8daa7be928acbU, 0x3d0d780cbeb5df52U, 0x3ed63d503e6ca912U,
  0xbe2321fdbe3015e0U, 0xbe2fe9693e86c324U, 0x3c8de636bd7a8463U, 0xbe3037b3bd94644dU,
  0xbda249a33e7ba283U, 0xbd5906b43e4dc87bU, 0xbdc439a0be82acc6U, 0x3de239353e6eb35dU,
  0xbdf2dc40bd658dfaU, 0xbe4b45bc3e4f437aU, 0x3d47fa8b3e083d46U, 0x3de1e6513d158cc8U,
  0x3d79845d3d1405bdU, 0xbd81b9623e111422U, 0xbd45b2f7bba48522U, 0xbdefd77f3e2b9c98U,
  0xbca5c727bde29d10U, 0xbe7c7f033df737b9U, 0x3d2944d13deb2240U, 0x3cce78d83e397c3aU,
  0xbe1d03bcbdd1fe54U, 0x3d97902a3e6fdd7aU, 0x3dd351f83d4c16edU, 0x3e01052a3e745116U,
  0x3d72ba2e3e1f2046U, 0xbe3ebb773e870d5fU, 0x3d13e3563e368ca0U, 0xbc79220cbdbc7c4bU,
  0xbe299f7e3e3d8aebU, 0x3b8d320dbe202e05U, 0xbd1ea2203e0a58fcU, 0x3e3244633c2dcb1dU,
  0x3e2616fbbc47675bU, 0xbe9882b63e8ebb0aU, 0x3d5445af3e39964fU, 0xbe4328c7be29cc48U,
  0x3d56aaa8be308c06U, 0xbe502c573e9c732fU, 0xbc429e2d3d8ea36bU, 0x3e84c2d53dcc666cU,
  0xbd42d1083eafb157U, 0xbe14b98c3e5a7a4eU, 0xbdcd255bbd687c99U, 0xbe51751f3ec769fbU,
  0xbe671d533d534ddaU, 0x3d2eba053e6fade9U, 0x3e64a995bde54554U, 0xbda40d6abdc50bccU,
  0x3e8f73afbd0a2670U, 0x3c2e9f40be29a7e1U, 0x3d81c505be853e0cU, 0x3e3068ea3e518236U,
  0xbe9f6d803d4fb8cfU, 0xbdc2c7e63ec88e3eU, 0x3ec3669cbeb1a44eU, 0xbd8143ff3e4fa86bU,
  0xbe17ed053e3279feU, 0xbde433663ead4041U, 0xbe5336b93c81a0eaU, 0x3d84edc0be236fd1U,
  0xbe42a9a83ed0dbbcU, 0xbe1dbffa3dbefb70U, 0xbe055dd33e5cac00U, 0xbdff27ea3ea97d81U,
  0xbee08c2b3e89a989U, 0x3ebd0e1f3f0031d6U, 0xbe3748dfbe089820U, 0x3d9031373e6880e7U,
  0xbd5e2eb3be0b3f2bU, 0x3eabe7563c3ecd7eU, 0x3e4829653d45bbd8U, 0x3eb6d5813d2b3940U,
  0x3e845d663ca1040fU, 0xbde3e675be0d0c32U, 0x3e82f28b3e0820edU, 0x3ee4b905bc9e57b3U,
  0xbddd078bbdec0aa9U, 0xbe3f3e403dd4e8eaU, 0xbde68ad4be698100U, 0x3e7303ca3f034471U,
  0x3ca4e6e83e132fd0U, 0xbe402fd03dafe32eU, 0x3e01ce533e263094U, 0xbe4e1015bd90db55U,
  0xbe22595d3dc7b24aU, 0xbd4439323e3afb3bU, 0xbd46ba19bde1f7d4U, 0x3dd7a271bc8f0e85U,
  0x3e32aeff3d4d418eU, 0xbe0f05b33e4bcb1fU, 0x3e8694b0bd5030e7U, 0x3c324f263df288c9U,
  0xbd9d3ef63e44d568U, 0x3d9b40193ebdc45cU, 0xbd975f3fbe092ee3U, 0x3e5382603e36c3f1U,
  0x3d8a984ebd53241eU, 0x3e3691d53c9f4434U, 0xbccc64f83d3f107eU, 0x3d4636d33dc7217dU,
  0xbea33586bd995d25U, 0xbdfed0c03d86f8a0U, 0x3e54ec403cc4067bU, 0xbdc5f6313ea11f00U,
  0x3df0849dbdd7b9b4U, 0x3bd5f5903e4353dcU, 0xbcfbcc403d80a266U, 0xbe4542393d94ea55U,
  0xbe86d1c23d6da5c4U, 0xbda4700bbd060471U, 0xbdd0de74bddff842U, 0x3e31c5653d423d3aU,
  0xbdf26d693e1eed3dU, 0xbe273d363d688946U, 0xbd0756d83e1f2b85U, 0x3d8f03a339ec8ee5U,
  0xbd9b50b7be146bdaU, 0xbe6574f63d809f4fU, 0x3e04a4c4be3e5732U, 0x3e84aae13e1cdf5eU,
  0x3da407fc3e19e913U, 0xbdca33d63dfac05eU, 0xbce793e0bd81add0U, 0xbdf9e8f03e3b9faeU,
  0xbcbf0778bd748cfeU, 0x3ceb1e383c79d6daU, 0xbe34544c3e20ac12U, 0x3a39a7533e5c2d4dU,
  0x3d702e5bbe33254eU, 0x3dc6791abd2ede2eU, 0xbc839b103d35b5cfU, 0xbd2a70ad3e12cdffU,
  0x3e3b82d13deb9981U, 0xbdd28adbbd9dacdcU, 0xbc0af33abe1ff2b4U, 0x3e8b171dbe04c964U,
  0x3d6f1e293d4b8495U, 0xbd5b75713b95d22eU, 0xbd43bb2c3db10f7eU, 0xbdfa89afbe0f0da3U,
  0xbe066882bd9ac5c0U, 0x3d2fd730bb6bd093U, 0x3c3ec555bcbe2debU, 0x3e15cb6cbdf203fdU,
  0xbdadd72b3e49726dU, 0xbdcc38a23ddbfd7cU, 0x3e54a064be06283bU, 0x3db9817dbdb16410U,
  0xbe5c13763c74eec5U, 0xbdf9f88e3dc409a6U, 0x3dba4ca9bdf988d6U, 0x3e06d4333e578862U,
  0x3d8a7430bdb8a8b0U, 0xbe08e83f3e2afe13U, 0x3c4c9b4abd9d3091U, 0xbe12c9113e43069bU,
  0xbe093434bd0814faU, 0x3da1025b3e965561U, 0x3e2ae399bc1dbc81U, 0x3c7341af3cf9d5b3U,
  0xbd2e1c69be71b230U, 0xbc9172723d178cbcU, 0x3e6c8c1f3d9527c0U, 0xbe8390be3c0faecdU,
  0xbe7078633df66dc1U, 0xbe51c7b4be5218c6U, 0xbcda1eb1be0bb602U, 0x3bffca2c3e3a68faU,
  0x3e3f70bebce3676eU, 0xbc9251c93da8b8f1U, 0x3e5fe419be559534U, 0x3e0be2fd3e321b51U,
  0x3d3433f23e676144U, 0x3dabaeee3cb5ca82U, 0x3c747dc23e0129d8U, 0xbe08e9bcbd87b3a0U,
  0xbcc7b6debdf9f56bU, 0x3e3d82bf3e031b18U, 0xbe1cde6ebe0c7747U, 0x3ccbc0313e150a1fU,
  0xbe81173abb86cd72U, 0x3df18161be4fef17U, 0x3d58076a3c353449U, 0xbd19824dbd119177U,
  0xbddaeb84bdf07503U, 0xbe2c5567bd9d0897U, 0xbd42fe0a3db35b35U, 0xbe087fe83e06c3e6U,
  0x3e62d4823ce3c77dU, 0xbd1029ad3d4c6a52U, 0x3c850e453d2df12bU, 0x3d7415d7bb693c00U,
  0x3d9d63d03d765888U, 0x3e3e2b333e6aef46U, 0xbd6badd83db27fb3U, 0x3db1a7c53e46ec3eU,
  0xbecab54dbe0f25aaU, 0x3e1347f9bce13cd0U, 0x3d8e0609bdee1e43U, 0x3e4a0dc93e5883d6U,
  0xbd2082bc3df02131U, 0x3dd278963e8c8af8U, 0xbe0ec2b0bd81c23eU, 0x3d42fa103e167d56U,
  0xbe2f8bb93e045b33U, 0xbd63ffd33c35c849U, 0x3e323ee43db58828U, 0x3e38f5ef3e061a15U,
  0x3b34264e3d86c55cU, 0xbe65f8d33db33640U, 0xbdbdb924bc40b2dcU, 0xbe4294ab3e1b5ab3U,
  0xbe285403bdbf06f1U, 0x3a564b40bd5d03d3U, 0xbd98b2b5be6fda37U, 0x3c1804cbbdeac163U,
  0x3e4e88643d979b9cU, 0xbe8b25543ddb9fb2U, 0xbcf90ff43e11aba0U, 0xbd5ec8843e22b982U,
  0x3d1932d7bcf7e38eU, 0xbc9600b7bdded0dcU, 0x3dcefe183cc35f39U, 0xbceb3de6bcf71328U,
  0x3e5d42e13e00eb7cU, 0xbe1c176d3d2d977fU, 0xbd97a57c3c8892edU, 0xbd3efd17bdb5d054U,
  0xbe4e6c283bc2693aU, 0xbe3a100fbd091577U, 0x3d149eb6bd02923cU, 0x3e6d43a83e74f7c1U,
  0xbc6d17483de44749U, 0x3d0f9ae13c8ac48eU, 0x3da8c4e4bd555e43U, 0x3dcaad52be30c901U,
  0xbcbb7a1f3e0c2875U, 0xbe820dbbbda1ecd0U, 0x3d19dc233da10bd1U, 0x3e22ec933e1551e5U,
  0xbd811f0c39c883f1U, 0x3de82e293d774a78U, 0x3e1546ac3e6db32dU, 0xbe2b7ce43d72349bU,
  0xbe690a8f3e332d2eU, 0xbe30e8aa3e306eedU, 0x3ca1d2dfbdbb6780U, 0xbd2e3d663dab29d0U,
  0x3dbc52863c9bb897U, 0x3d79710f3d4a8cd8U, 0x3ea1e63b3b13ae9fU, 0xbd2a20163ea352e6U,
  0xbd9c10893d207e3aU, 0xbcddab8d3cb09705U, 0x3dfcd6d2bc296545U, 0x3da35cbabe080360U,
  0x3dde94f83d95b5c0U, 0xbccffe533e1970cfU, 0x3e4f80613e35af83U, 0xbdb119233e131b6bU,
  0x3ca76d92bd67f10aU, 0xbe960a623dcd55f1U, 0x3d09919abdf5ef3cU, 0xbda018dc3e991b7eU,
  0xbe1c6f923e6b64f9U, 0xbd47e2103c0ad594U, 0x3e3ee627ba49beb8U, 0xbda85699bd1b0778U,
  0xbe7051fc3da464fbU, 0xbd423a563e56ddceU, 0x3c8863cebe0efb4eU, 0x3e21568d3e751cccU,
  0xbd960d7e3d706508U, 0xbd713a91bdc51090U, 0x3e0981d83ddb9122U, 0xbe2cf605bdd60638U,
  0xbe8c59f83d8fbfc5U, 0xbe5a8d3cbd812331U, 0xbe00002ebd20b135U, 0x3e4a0d4d3e89e945U,
  0x3d07e93dbdb71403U, 0x3e07a489bdf32b00U, 0xbd45c84d3e3af2dbU, 0xbdeb32cc3b9de7f5U,
  0x3df769963e36a1a2U, 0x3e2b13cc3cf99bd8U, 0x3e231e293e4eab37U, 0xbdebe2673d5151f1U,
  0x3e1cec75bdd8394dU, 0x3ceeb4603c963d9aU, 0xbe44d77f3e4352dfU, 0xbdbeed8c3e094109U,
  0x3dbe61cc3e222e01U, 0x3d5537913d5933ceU, 0xbe26d2223dba7d7dU, 0x3e609c9c3dc2122eU,
  0x3e3c7d623e098a0fU, 0xbe4076273db2eb62U, 0xbd7aa8d43e11cc6eU, 0x3d8bb19dbe3e09acU,
  0xbe3620f7be482628U, 0xbe1186d43e39951cU, 0x3e0e86af3e1b31b4U, 0x3e7020adbdf70be9U,
  0x3db683583e2ec3e8U, 0xbe4917513d059082U, 0x3c01f4c63cde10e8U, 0xbda0bdfc3dd5db3fU,
  0xbe21ae483e2b00d8U, 0xbe2c8b053d9c9e6bU, 0xba8ce0b2be203e62U, 0x3cc9696f3e510247U,
  0xbe1e46c83dc066f5U, 0x3d4969d63e57d503U, 0x3e5c79743d349432U, 0xbe07a389bced31a9U,
  0x3d7049f3bc5326a9U, 0xbdbe64493e43d3bdU, 0x3d9417f0bcf06b03U, 0xbcab0242bc1a332aU,
  0x3e89e7f4be0c0cc8U, 0xbd050549be184dbeU, 0x3ea0ba42bdeecaa9U, 0xbd85d0d63ca2cc0fU,
  0xbe6931013d024e29U, 0xbdb4d3433e501523U, 0xbddb930abea220f8U, 0x3dbeae18bdb8050fU,
  0xbe0dfaf1bdc959f9U, 0xbdc242cebde16717U, 0xbd944dbd3e092e5dU, 0xbe8e5de73c6d5f9dU,
  0x3dbd69333d59b16eU, 0x3d255b483e6a4e72U, 0x3e16fe83bd324b7cU, 0xbda040c93e04723cU,
  0xbea037e23d6e8a6bU, 0x3d9ee8663e7f077bU, 0x3e053579bea536ddU, 0xbe3f90863e65d768U,
  0x3e0d8cc63e6a19ffU, 0x3e3262ee3e147a37U, 0x3dacfd87bd85b666U, 0x3d3c9a473d87d890U,
  0xbd36aa83bdd748e6U, 0x3e499cd13e94d5f8U, 0x3d0f26553d72cf9cU, 0xbe2428b03e7bbcd9U,
  0xbe0e7ec13e581659U, 0x39d1fd863dcab914U, 0x3e9524a1be2bef95U, 0x3c5a08d13dc236fcU,
  0xbe6804b4be1c813aU, 0xbe2974dabc3f3955U, 0x3e1a90e93cb7b1c4U, 0x3de6896cbbc41894U,
  0xbcec4e5a3e8262c0U, 0xbe84a9203dcfc09aU, 0x3dad3e27be4ba813U, 0xbe2b33c03e8dd176U,
  0x3e2414633e41c32fU, 0xbe46b2943e41f6c2U, 0x3cf180d5be1aea42U, 0xbd9ccd703e8de2b2U,
  0xbe3f2049bdae6d27U, 0xbe03f5f33e7f519aU, 0x3da2d4eebce4132eU, 0x3d7c5031bde79ed6U,
  0x3d1a3b4d3e6662acU, 0xbdbabb9abd2f092fU, 0xbe6a01303e1c5a49U, 0xbe251dca3e3df085U,
  0x3e0078403d3d1799U, 0xbbd4ce8c3d1753b3U, 0x3ca4d57c3bc341a4U, 0x3e2cd63bbd59ffffU,
  0xbdbcf298bda772a4U, 0xbe0bd3063df7ec9aU, 0xbe10ef1c3e1974b6U, 0x3d11d2633e2ec4b5U,
  0x3d2c6a283bb8b898U, 0xbd6f423d3ca91f49U, 0x3e487abbbe50d886U, 0x3dc0de1b3e24b2dcU,
  0x3e73d01c3db3187fU, 0x3dafbd0b3b4b735dU, 0x3dbf5f9f3d870cd3U, 0xbd9a53343e315ff4U,
  0xbe41fc72bdf32190U, 0x3cd98c163dfa9532U, 0xbca08b1ebe6dfb34U, 0xbd100a583e91e3e1U,
  0x3e405b36ba6f47feU, 0xbdb515f03cfed106U, 0x3df96360bb70faffU, 0x3d60eac23d4a89afU,
  0xbdd0c4d43e026aaeU, 0xbd1988dbbe157103U, 0xbe35750ebe1a0ad3U, 0x3c2413d03d3a1266U,
  0x3ca05ed9bdfe6362U, 0x3cfc59b13e4f1016U, 0x3e06a9563dc5897bU, 0x3d1b45b03e7cc435U,
  0xbe875626bdc208bbU, 0xbe489801bbb22812U, 0x3e4b828ebec44563U, 0x3da457bebd8ad03eU,
  0xbbb3186d3d037a2aU, 0xbdf489dc3e207cf0U, 0xbc03dc823e1f8f0dU, 0xbd8498ea3e18b0a5U,
  0xbeace2283c7d2920U, 0xbdc67fc53e375ea9U, 0x3bab513ebe281fbdU, 0x3e42f8303ded96bfU,
  0x3d06d3aebd3f1577U, 0xbd96f6503d7b0f79U, 0x3cd1125d3cb3cfe3U, 0xbe6b161d3dfffa0aU,
  0xbe4283423dcdcdb9U, 0xbe348abebcb5c815U, 0x3d06825bbe92c56dU, 0x3bc632723d2f72d7U,
  0x3da7345f3d0dbd0eU, 0xbe0964b23d7c8ef0U, 0x3cd8525c3debb589U, 0xbcd94756bc6a9132U,
  0xbe4dd2243d225c9cU, 0xbcf06ea13c504214U, 0xbc293830be91158aU, 0x3e135fac3dbdd294U,
  0x3dfa20403e0a0c5bU, 0xbe456b223dac2561U, 0x3dc7b9113defd299U, 0x3e74f860bd35c165U,
  0xbeb360c1be08f76bU, 0xbde4c3e33e328929U, 0x3db6d447bddc3a94U, 0x3e1d44213ebb5c9fU,
  0xbdfa84873e10c8a0U, 0x3d8495bdbd2e80f7U, 0x3e2b7c353d89a688U, 0x3db8ad673dcde7a2U,
  0x3d1e8475bd93492eU, 0xbc1da12d3e529eccU, 0x3ddbcf3dbd093828U, 0x3d984ed0bc54bcf6U,
  0xbd3c749c3e1f4646U, 0xbcff5cf6bda77ab2U, 0x3de7960a3e326794U, 0xbdc0346ebda638c7U,
  0xbda0f046be1b8108U, 0x3c074be23d8d4affU, 0xbda10f3ebe2117b6U, 0xbdeadc4e3e0c4aa6U,
  0x3e184c31be0705feU, 0xbe16bf80bd9ee2a0U, 0x3befc273bd70c81bU, 0xbe6136f43e104cb1U,
  0x3ca01ff5bd716761U, 0xbda29b64bd8b2e5fU, 0x3e852f01be0cfc33U, 0xbd2e814a3deb86bbU,
  0xbd037aa0bd939219U, 0xbe76e0583db54010U, 0xbd929104be0e18f6U, 0xbdbf2250bd36dbdfU,
  0xbc16894a3e0378a6U, 0xbc8307173e74e476U, 0x3d765557be69bd9bU, 0x3e2ef284bd2abedcU,
  0xbe2b43d1bd47fd1bU, 0x3ced5ac3bd01f897U, 0x3d2130553e469f6aU, 0x3df021133cb234c5U,
  0xbd90645abe074ed9U, 0xbda232fdbcf2cc64U, 0xbb6f46b5bdf8191bU, 0x3d84c8093e172aebU,
  0x3d8034583dc602b6U, 0xbd7a1fa93e0ee058U, 0xbc7922913e0726abU, 0xbe5b9bb9bc7e35f3U,
  0xbb47f3de3e62702eU, 0x3ca91a24bd136696U, 0x3e5f4e97be14586cU, 0xbd4d5bc5bca98265U,
  0xbe1ee29b3e15bcf9U, 0x3d8d9e72bd70052bU, 0xbdea40023ddac5a1U, 0x3d6a8d54be276759U,
  0xbd6642fb3d0447eeU, 0xbe53ced63d7ab9d3U, 0x3e10dc34be1c89d9U, 0x3de6ade03902be84U,
  0xbd73046b3d8b0131U, 0xbdb349d53cdf1fbaU, 0x3d4dd8473e029a4dU, 0x3cad369e3db4f26eU,
  0xbe2739c7bdc221f3U, 0xbe2f2151ba7c886aU, 0x3e3dae713c027f10U, 0x3a809f1cbd8c380bU,
  0x3e5fc20a3ddb13bdU, 0x3c8cb1e3be3e98ebU, 0xbd9e840a3e0965adU, 0xbd3fd4363e16ce8aU,
  0x3d483a25be0b4d6aU, 0x3d268ab33e2c87bcU, 0xbd8031bdbe55d151U, 0xbcb615c73caf3535U,
  0xbdd8a9733e0a9a75U, 0x3e339e233d7a59f7U, 0xba17c1483d89415dU, 0x3e63365e3d944756U,
  0x3d616b0cbd7bf60cU, 0xbe6cf45d3e078a2aU, 0x3d91ded33df16b21U, 0xbdbdbf06bd882c2dU,
  0xbdd83c463df2c3eaU, 0xbe466297bde1a704U, 0x3e86f9f73e2e16a1U, 0xbde64b23bcdd21efU,
  0xbe4f2e123d073f6bU, 0x3bb4a2ffbd50d4d9U, 0x3cdd00dbbc430416U, 0x3e3f95353be490f4U,
  0xbc1c0a1d3d1f3175U, 0xbe862596bcfa9ea4U, 0xbce6524c3e796589U, 0xbd7dd0493e362395U,
  0xbe130d183d973874U, 0x3d1c2fb63b12552fU, 0xbd5db30cbe02846dU, 0xbcc69befbda4f470U,
  0xbe1f4257bcd1114dU, 0xbe18e74c3e2efc71U, 0x3e470569bc871078U, 0xbdc1ea2dbe2aeb80U,
  0xbd6372403e3aad32U, 0x3d347fd53d2dff63U, 0x3e06b302bcecafa6U, 0x3db111543ca19b00U,
  0xbe58a0443ccfe645U, 0x3cd0dc7e3e0a82d6U, 0xbddb8b993cb02278U, 0xbd350bff3dc68800U,
  0xbd051d57bd9c8089U, 0xbe5f4f2b3d811574U, 0x3d7f8a843e3a82daU, 0x3e881957be100980U,
  0x3d4f3e81bcc38df0U, 0x3d65bff53df8f8d9U, 0xbbc0e84d3dc7c516U, 0xbe7675a63e342a75U,
  0xbd2f8cf0bd68fa68U, 0xbd5345b13da60038U, 0x3df5ac9fbe1225bcU, 0xbc01efc4be015106U,
  0xbe088864bcf2cfd1U, 0xbc805488bd2084f6U, 0xbdb4328fbdee5b4dU, 0xbe444ce1bd865239U,
  0xbe991f1d3e2e753aU, 0xbe80fcad3e8ec6b6U, 0xbc53f89dbe3f769bU, 0x3d0611b63e49393bU,
  0xbda542983e6791c1U, 0xbea4d053bd12f14aU, 0xbe3f327b3de17b74U, 0xbd0dfe2b3e647cbcU,
  0xbd776a5cbc954374U, 0xbe6a96533d100946U, 0x3e3de07f3d3fd104U, 0x3e75d05d3e342b3fU,
  0xbd9a3e113caa4f7cU, 0x3c0290513da087f0U, 0x3d1414213c565ca1U, 0x3c7be53a3e437775U,
  0xbd6257623e235259U, 0xbcbf24003e0b0550U, 0x3d4323cfbdabea2bU, 0x3e6c40863e9a20a7U,
  0xbd9617aabddd8156U, 0xbe1f53ce3e99f612U, 0x3e69669f3e7cb594U, 0xbc092eae3d5240ffU,
  0x3c9ded25bc9e7edcU, 0x3d42004c3dc7fdeeU, 0xbd93699abdc137b8U, 0x3e0434923e9380e7U,
  0xbd0786c9bda60546U, 0xbebdd8193e982eb8U, 0x3e80ebf43d68488dU, 0xbe247d863e2876adU,
  0xbe2f5a4fbe3c5546U, 0x3de1c4a93d922d86U, 0xbdde071fbe0ebfb6U, 0x3e04885e3d4d9190U,
  0xbe924722be3d7832U, 0xbe90d831be43b1d4U, 0xbddfd70cbe37fa1eU, 0xbe97f72bbe1fe131U,
  0xbe3d130dbda8c679U, 0xbec77a9bbdc1f92eU, 0x3ca55481be444a1dU, 0xbec9d746bead6a47U,
  0xbe965f073eb93255U, 0xbdcc10b13e9f08a3U, 0xbdb447b7be438a15U, 0x3acb0f193dd78283U,
  0xbdcd51f13e7b3d5dU, 0xbe0953e2bd9687f1U, 0xbd5db4b9bdc410f6U, 0xbd96ae523ea87b59U,
  0xbe0eed1d3e2f9ba8U, 0xbe5794d43b48c87cU, 0xbe62df1ebe457d85U, 0xbcbc1cd53e591ab4U,
  0x3dedf1c43e2c0198U, 0x3e28e2683c59cf4cU, 0x3e1753c73dd3b1ccU, 0x3cfc86f5be1d4cb1U,
  0xbda382833c1c1649U, 0xbe6b053b3d640872U, 0xbe4172acbe0c228dU, 0xbe50e55a3e686da2U,
  0x3d4c6bfabcd89268U, 0x3e3f582d3e3a042dU, 0x3ccb4c963e374121U, 0xbd95bafb3c75cc61U,
  0x3e568ae0bd114a20U, 0xbd8d40ed3e009c86U, 0x3dc74f973d15f72cU, 0x3ded2b303e295462U,
  0xbe56b40f3ddd4646U, 0xbcfaf80a3e361905U, 0x3e866bc8be4c7871U, 0x3e9d31ffbcdc38d9U,
  0x3df8b6773d85f512U, 0x3e754b43be7b3917U, 0xbc03d83a3f010998U, 0x3e22e700bd206d36U,
  0xbed7951cbb419fbeU, 0xbea8dac9be928aedU, 0x3d0d7700beb5df74U, 0x3ed63d2e3e6ca8cfU,
  0xbe232240be301623U, 0xbe2fe9ac3e86c302U, 0x3c8de41dbd7a856fU, 0xbe3037f6bd9464d4U,
  0xbda24a2a3e7ba240U, 0xbd5907c03e4dc838U, 0xbdc43a27be82ace8U, 0x3de238ae3e6eb31aU,
  0xbdf2dcc7bd658f06U, 0xbe4b45ff3e4f4337U, 0x3d47f97f3e083d03U, 0x3de1e5ca3d158bbcU,
  0x3d7983513d1404b1U, 0xbd81b9e93e1113dfU, 0xbd45b403bba48d85U, 0xbdefd8063e2b9c55U,
  0xbca5c940bde29d97U, 0xbe7c7f463df73732U, 0x3d2943c53deb21b9U, 0x3cce76bf3e397bf7U,
  0xbe1d03ffbdd1fedbU, 0x3d978fa33e6fdd37U, 0x3dd351713d4c15e1U, 0x3e0104e73e7450d3U,
  0x3d72b9223e1f2003U, 0xbe3ebbba3e870d3dU, 0x3d13e24a3e368c5dU, 0xbc79263ebdbc7cd2U,
  0xbe299fc13e3d8aa8U, 0x3b8d29aabe202e48U, 0xbd1ea32c3e0a58b9U, 0x3e3244203c2dc6ebU,
  0x3e2616b8bc476b8dU, 0xbe9882d83e8ebae8U, 0x3d5444a33e39960cU, 0xbe43290abe29cc8bU,
  0x3d56a99cbe308c49U, 0xbe502c9a3e9c730dU, 0xbc42a25f3d8ea2e4U, 0x3e84c2b33dcc65e5U,
  0xbd42d2143eafb135U, 0xbe14b9cf3e5a7a0bU, 0xbdcd25e2bd687da5U, 0xbe5175623ec769d9U,
  0xbe671d963d534cceU, 0x3d2eb8f93e6fada6U, 0x3e64a952bde545dbU, 0xbda40df1bdc50c53U,
  0x3e8f738dbd0a277cU, 0x3c2e9b0ebe29a824U, 0x3d81c47ebe853e2eU, 0x3e3068a73e5181f3U,
  0xbe9f6da23d4fb7c3U, 0xbdc2c86d3ec88e1cU, 0x3ec3667abeb1a470U, 0xbd8144863e4fa828U,
  0xbe17ed483e3279bbU, 0xbde433ed3ead401fU, 0xbe5336fc3c819ed1U, 0x3d84ed39be237014U,
  0xbe42a9eb3ed0db9aU, 0xbe1dc03d3dbefae9U, 0xbe055e163e5cabbdU, 0xbdff28713ea97d5fU,
  0xbee08c4d3e89a967U, 0x3ebd0dfd3f0031c6U, 0xbe374922be089863U, 0x3d9030b03e6880a4U,
  0xbd5e2fbfbe0b3f6eU, 0x3eabe7343c3ec94cU, 0x3e4829223d45baccU, 0x3eb6d55f3d2b3834U,
  0x3e845d443ca101f6U, 0xbde3e6fcbe0d0c75U, 0x3e82f2693e0820aaU, 0x3ee4b8e3bc9e59ccU,
  0xbddd0812bdec0b30U, 0xbe3f3e833dd4e863U, 0xbde68b5bbe698143U, 0x3e7303873f034461U,
  0x3ca4e4cf3e132f8dU, 0xbe4030133dafe2a7U, 0x3e01ce103e263051U, 0xbe4e1058bd90dbdcU,
  0xbe2259a03dc7b1c3U, 0xbd443a3e3e3afaf8U, 0xbd46bb25bde1f85bU, 0x3dd7a1eabc8f109eU,
  0x3e32aebc3d4d4082U, 0xbe0f05f63e4bcadcU, 0x3e86948ebd5031f3U, 0x3c324af43df28842U,
  0xbd9d3f7d3e44d525U, 0x3d9b3f923ebdc43aU, 0xbd975fc6be092f26U, 0x3e53821d3e36c3aeU,
  0x3d8a97c7bd53252aU, 0x3e3691923c9f421bU, 0xbccc67113d3f0f72U, 0x3d4635c73dc720f6U,
  0xbea335a8bd995dacU, 0xbdfed1473d86f819U, 0x3e54ebfd3cc40462U, 0xbdc5f6b83ea11edeU,
  0x3df08416bdd7ba3bU, 0x3bd5ed2d3e435399U, 0xbcfbce593d80a1dfU, 0xbe45427c3d94e9ceU,
  0xbe86d1e43d6da4b8U, 0xbda47092bd06057dU, 0xbdd0defbbddff8c9U, 0x3e31c5223d423c2eU,
  0xbdf26df03e1eecfaU, 0xbe273d793d68883aU, 0xbd0757e43e1f2b42U, 0x3d8f031c39ec08adU,
  0xbd9b513ebe146c1dU, 0xbe6575393d809ec8U, 0x3e04a481be3e5775U, 0x3e84aabf3e1cdf1bU,
  0x3da407753e19e8d0U, 0xbdca345d3dfabfd7U, 0xbce795f9bd81ae57U, 0xbdf9e9773e3b9f6bU,
  0xbcbf0991bd748e0aU, 0x3ceb1c1f3c79d2a8U, 0xbe34548f3e20abcfU, 0x3a3964373e5c2d0aU,
  0x3d702d4fbe332591U, 0x3dc67893bd2edf3aU, 0xbc839d293d35b4c3U, 0xbd2a71b93e12cdbcU,
  0x3e3b828e3deb98faU, 0xbdd28b62bd9dad63U, 0xbc0af76cbe1ff2f7U, 0x3e8b16fbbe04c9a7U,
  0x3d6f1d1d3d4b8389U, 0xbd5b767d3b95c9cbU, 0xbd43bc383db10ef7U, 0xbdfa8a36be0f0de6U,
  0xbe0668c5bd9ac647U, 0x3d2fd624bb6be15aU, 0x3c3ec123bcbe3004U, 0x3e15cb29bdf20484U,
  0xbdadd7b23e49722aU, 0xbdcc39293ddbfcf5U, 0x3e54a021be06287eU, 0x3db980f6bdb16497U,
  0xbe5c13b93c74ea93U, 0xbdf9f9153dc4091fU, 0x3dba4c22bdf9895dU, 0x3e06d3f03e57881fU,
  0x3d8a73a9bdb8a937U, 0xbe08e8823e2afdd0U, 0x3c4c9718bd9d3118U, 0xbe12c9543e430658U,
  0xbe093477bd081606U, 0x3da101d43e96553fU, 0x3e2ae356bc1dc0b3U, 0x3c733d7d3cf9d39aU,
  0xbd2e1d75be71b273U, 0xbc91748b3d178bb0U, 0x3e6c8bdc3d952739U, 0xbe8390e03c0faa9bU,
  0xbe7078a63df66d3aU, 0xbe51c7f7be521909U, 0xbcda20cabe0bb645U, 0x3bffc1c93e3a68b7U,
  0x3e3f707bbce36987U, 0xbc9253e23da8b86aU, 0x3e5fe3d6be559577U, 0x3e0be2ba3e321b0eU,
  0x3d3432e63e676101U, 0x3dabae673cb5c869U, 0x3c7479903e012995U, 0xbe08e9ffbd87b427U,
  0xbcc7b8f7bdf9f5f2U, 0x3e3d827c3e031ad5U, 0xbe1cdeb1be0c778aU, 0x3ccbbe183e1509dcU,
  0xbe81175cbb86d5d5U, 0x3df180dabe4fef5aU, 0x3d58065e3c353017U, 0xbd198359bd119283U,
  0xbddaec0bbdf0758aU, 0xbe2c55aabd9d091eU, 0xbd42ff163db35aaeU, 0xbe08802b3e06c3a3U,
  0x3e62d43f3ce3c564U, 0xbd102ab93d4c6946U, 0x3c850c2c3d2df01fU, 0x3d7414cbbb694cc7U,
  0x3d9d63493d76577cU, 0x3e3e2af03e6aef03U, 0xbd6baee43db27f2cU, 0x3db1a73e3e46ebfbU,
  0xbecab56fbe0f25edU, 0x3e1347b6bce13ee9U, 0x3d8e0582bdee1ecaU, 0x3e4a0d863e588393U,
  0xbd2083c83df020aaU, 0x3dd2780f3e8c8ad6U, 0xbe0ec2f3bd81c2c5U, 0x3d42f9043e167d13U,
  0xbe2f8bfc3e045af0U, 0xbd6400df3c35c417U, 0x3e323ea13db587a1U, 0x3e38f5ac3e0619d2U,
  0x3b3415873d86c4d5U, 0xbe65f9163db335b9U, 0xbdbdb9abbc40b70eU, 0xbe4294ee3e1b5a70U,
  0xbe285446bdbf0778U, 0x3a560824bd5d04dfU, 0xbd98b33cbe6fda7aU, 0x3c180099bdeac1eaU,
  0x3e4e88213d979b15U, 0xbe8b25763ddb9f2bU, 0xbcf9120d3e11ab5dU, 0xbd5ec9903e22b93fU,
  0x3d1931cbbcf7e5a7U, 0xbc9602d0bdded163U, 0x3dcefd913cc35d20U, 0xbceb3fffbcf71541U,
  0x3e5d429e3e00eb39U, 0xbe1c17b03d2d9673U, 0xbd97a6033c8890d4U, 0xbd3efe23bdb5d0dbU,
  0xbe4e6c6b3bc260d7U, 0xbe3a1052bd091683U, 0x3d149daabd029348U, 0x3e6d43653e74f77eU,
  0xbc6d1b7a3de446c2U, 0x3d0f99d53c8ac275U, 0x3da8c45dbd555f4fU, 0x3dcaaccbbe30c944U,
  0xbcbb7c383e0c2832U, 0xbe820dddbda1ed57U, 0x3d19db173da10b4aU, 0x3e22ec503e1551a2U,
  0xbd811f9339c7fdb9U, 0x3de82da23d77496cU, 0x3e1546693e6db2eaU, 0xbe2b7d273d72338fU,
  0xbe690ad23e332cebU, 0xbe30e8ed3e306eaaU, 0x3ca1d0c6bdbb6807U, 0xbd2e3e723dab2949U,
  0x3dbc51ff3c9bb67eU, 0x3d7970033d4a8bccU, 0x3ea1e6193b139dd8U, 0xbd2a21223ea352c4U,
  0xbd9c11103d207d2eU, 0xbcddada63cb094ecU, 0x3dfcd64bbc296977U, 0x3da35c33be0803a3U,
  0x3dde94713d95b539U, 0xbcd0006c3e19708cU, 0x3e4f801e3e35af40U, 0xbdb119aa3e131b28U,
  0x3ca76b79bd67f216U, 0xbe960a843dcd556aU, 0x3d09908ebdf5efc3U, 0xbda019633e991b5cU,
  0xbe1c6fd53e6b64b6U, 0xbd47e31c3c0ad162U, 0x3e3ee5e4ba4a01d4U, 0xbda85720bd1b0884U,
  0xbe70523f3da46474U, 0xbd423b623e56dd8bU, 0x3c8861b5be0efb91U, 0x3e21564a3e751c89U,
  0xbd960e053d7063fcU, 0xbd713b9dbdc51117U, 0x3e0981953ddb909bU, 0xbe2cf648bdd606bfU,
  0xbe8c5a1a3d8fbf3eU, 0xbe5a8d7fbd8123b8U, 0xbe000071bd20b241U, 0x3e4a0d0a3e89e923U,
  0x3d07e831bdb7148aU, 0x3e07a446bdf32b87U, 0xbd45c9593e3af298U, 0xbdeb33533b9ddf92U,
  0x3df7690f3e36a15fU, 0x3e2b13893cf999bfU, 0x3e231de63e4eaaf4U, 0xbdebe2ee3d5150e5U,
  0x3e1cec32bdd839d4U, 0x3ceeb2473c963b81U, 0xbe44d7c23e43529cU, 0xbdbeee133e0940c6U,
  0x3dbe61453e222dbeU, 0x3d5536853d5932c2U, 0xbe26d2653dba7cf6U, 0x3e609c593dc211a7U,
  0x3e3c7d1f3e0989ccU, 0xbe40766a3db2eadbU, 0xbd7aa9e03e11cc2bU, 0x3d8bb116be3e09efU,
  0xbe36213abe48266bU, 0xbe1187173e3994d9U, 0x3e0e866c3e1b3171U, 0x3e70206abdf70c70U,
  0x3db682d13e2ec3a5U, 0xbe4917943d058f76U, 0x3c01f0943cde0ecfU, 0xbda0be833dd5dab8U,
  0xbe21ae8b3e2b0095U, 0xbe2c8b483d9c9de4U, 0xba8d0240be203ea5U, 0x3cc967563e510204U,
  0xbe1e470b3dc0666eU, 0x3d4968ca3e57d4c0U, 0x3e5c79313d349326U, 0xbe07a3ccbced33c2U,
  0x3d7048e7bc532adbU, 0xbdbe64d03e43d37aU, 0x3d941769bcf06d1cU, 0xbcab045bbc1a375cU,
  0x3e89e7d2be0c0d0bU, 0xbd050655be184e01U, 0x3ea0ba20bdeecb30U, 0xbd85d15d3ca2c9f6U,
  0xbe6931443d024d1dU, 0xbdb4d3ca3e5014e0U, 0xbddb9391bea2211aU, 0x3dbead91bdb80596U,
  0xbe0dfb34bdc95a80U, 0xbdc24355bde1679eU, 0xbd944e443e092e1aU, 0xbe8e5e093c6d5b6bU,
  0x3dbd68ac3d59b062U, 0x3d255a3c3e6a4e2fU, 0x3e16fe40bd324c88U, 0xbda041503e0471f9U,
  0xbea038043d6e895fU, 0x3d9ee7df3e7f0738U, 0x3e053536bea536ffU, 0xbe3f90c93e65d725U,
  0x3e0d8c833e6a19bcU, 0x3e3262ab3e1479f4U, 0x3dacfd00bd85b6edU, 0x3d3c993b3d87d809U,
  0xbd36ab8fbdd7496dU, 0x3e499c8e3e94d5d6U, 0x3d0f25493d72ce90U, 0xbe2428f33e7bbc96U,
  0xbe0e7f043e581616U, 0x39d1774e3dcab88dU, 0x3e95247fbe2befd8U, 0x3c5a049f3dc23675U,
  0xbe6804f7be1c817dU, 0xbe29751dbc3f3d87U, 0x3e1a90a63cb7afabU, 0x3de688e5bbc420f7U,
  0xbcec50733e82629eU, 0xbe84a9423dcfc013U, 0x3dad3da0be4ba856U, 0xbe2b34033e8dd154U,
  0x3e2414203e41c2ecU, 0xbe46b2d73e41f67fU, 0x3cf17ebcbe1aea85U, 0xbd9ccdf73e8de290U,
  0xbe3f208cbdae6daeU, 0xbe03f6363e7f5157U, 0x3da2d467bce41547U, 0x3d7c4f25bde79f5dU,
  0x3d1a3a413e666269U, 0xbdbabc21bd2f0a3bU, 0xbe6a01733e1c5a06U, 0xbe251e0d3e3df042U,
  0x3e0077fd3d3d168dU, 0xbbd4d6ef3d1752a7U, 0x3ca4d3633bc33941U, 0x3e2cd5f8bd5a010bU,
  0xbdbcf31fbda7732bU, 0xbe0bd3493df7ec13U, 0xbe10ef5f3e197473U, 0x3d11d1573e2ec472U,
  0x3d2c691c3bb8b035U, 0xbd6f43493ca91d30U, 0x3e487a78be50d8c9U, 0x3dc0dd943e24b299U,
  0x3e73cfd93db317f8U, 0x3dafbc843b4b6296U, 0x3dbf5f183d870c4cU, 0xbd9a53bb3e315fb1U,
  0xbe41fcb5bdf32217U, 0x3cd989fd3dfa94abU, 0xbca08d37be6dfb77U, 0xbd100b643e91e3bfU,
  0x3e405af3ba6f8b1aU, 0xbdb516773cfeceedU, 0x3df962d9bb710bc6U, 0x3d60e9b63d4a88a3U,
  0xbdd0c55b3e026a6bU, 0xbd1989e7be157146U, 0xbe357551be1a0b16U, 0x3c240f9e3d3a115aU,
  0x3ca05cc0bdfe63e9U, 0x3cfc57983e4f0fd3U, 0x3e06a9133dc588f4U, 0x3d1b44a43e7cc3f2U,
  0xbe875648bdc20942U, 0xbe489844bbb23075U, 0x3e4b824bbec44585U, 0x3da45737bd8ad0c5U,
  0xbbb320d03d03791eU, 0xbdf48a633e207cadU, 0xbc03e0b43e1f8ecaU, 0xbd8499713e18b062U,
  0xbeace24a3c7d24eeU, 0xbdc6804c3e375e66U, 0x3bab48dbbe282000U, 0x3e42f7ed3ded9638U,
  0x3d06d2a2bd3f1683U, 0xbd96f6d73d7b0e6dU, 0x3cd110443cb3cdcaU, 0xbe6b16603dfff983U,
  0xbe4283853dcdcd32U, 0xbe348b01bcb5ca2eU, 0x3d06814fbe92c58fU, 0x3bc62a0f3d2f71cbU,
  0x3da733d83d0dbc02U, 0xbe0964f53d7c8de4U, 0x3cd850433debb502U, 0xbcd9496fbc6a9564U,
  0xbe4dd2673d225b90U, 0xbcf070ba3c503de2U, 0xbc293c62be9115acU, 0x3e135f693dbdd20dU,
  0x3dfa1fb93e0a0c18U, 0xbe456b653dac24daU, 0x3dc7b88a3defd212U, 0x3e74f81dbd35c271U,
  0xbeb360e3be08f7aeU, 0xbde4c46a3e3288e6U, 0x3db6d3c0bddc3b1bU, 0x3e1d43de3ebb5c7dU,
  0xbdfa850e3e10c85dU, 0x3d849536bd2e8203U, 0x3e2b7bf23d89a601U, 0x3db8ace03dcde71bU,
  0x3d1e8369bd9349b5U, 0xbc1da55f3e529e89U, 0x3ddbceb6bd093934U, 0x3d984e49bc54c128U,
  0xbd3c75a83e1f4603U, 0xbcff5f0fbda77b39U, 0x3de795833e326751U, 0xbdc034f5bda6394eU,
  0xbda0f0cdbe1b814bU, 0x3c0747b03d8d4a78U, 0xbda10fc5be2117f9U, 0xbdeadcd53e0c4a63U,
  0x3e184beebe070641U, 0xbe16bfc3bd9ee327U, 0x3befba10bd70c927U, 0xbe6137373e104c6eU,
  0x3ca01ddcbd71686dU, 0xbda29bebbd8b2ee6U, 0x3e852edfbe0cfc76U, 0xbd2e82563deb8634U,
  0xbd037bacbd9392a0U, 0xbe76e09b3db53f89U, 0xbd92918bbe0e1939U, 0xbdbf22d7bd36dcebU,
  0xbc168d7c3e037863U, 0xbc8309303e74e433U, 0x3d76544bbe69bddeU, 0x3e2ef241bd2abfe8U,
  0xbe2b4414bd47fe27U, 0x3ced58aabd01f9a3U, 0x3d212f493e469f27U, 0x3df0208c3cb232acU,
  0xbd9064e1be074f1cU, 0xbda23384bcf2ce7dU, 0xbb6f577cbdf819a2U, 0x3d84c7823e172aa8U,
  0x3d8033d13dc6022fU, 0xbd7a20b53e0ee015U, 0xbc7926c33e072668U, 0xbe5b9bfcbc7e3a25U,
  0xbb4804a53e626febU, 0x3ca9180bbd1367a2U, 0x3e5f4e54be1458afU, 0xbd4d5cd1bca9847eU,
  0xbe1ee2de3e15bcb6U, 0x3d8d9debbd700637U, 0xbdea40893ddac51aU, 0x3d6a8c48be27679cU,
  0xbd6644073d0446e2U, 0xbe53cf193d7ab8c7U, 0x3e10dbf1be1c8a1cU, 0x3de6ad593901b215U,
  0xbd7305773d8b00aaU, 0xbdb34a5c3cdf1da1U, 0x3d4dd73b3e029a0aU, 0x3cad34853db4f1e7U,
  0xbe273a0abdc2227aU, 0xbe2f2194ba7ccb86U, 0x3e3dae2e3c027adeU, 0x3a807d8ebd8c3892U,
  0x3e5fc1c73ddb1336U, 0x3c8cafcabe3e992eU, 0xbd9e84913e09656aU, 0xbd3fd5423e16ce47U,
  0x3d483919be0b4dadU, 0x3d2689a73e2c8779U, 0xbd803244be55d194U, 0xbcb617e03caf331cU,
  0xbdd8a9fa3e0a9a32U, 0x3e339de03d7a58ebU, 0xba1804643d8940d6U, 0x3e63361b3d9446cfU,
  0x3d616a00bd7bf718U, 0xbe6cf4a03e0789e7U, 0x3d91de4c3df16a9aU, 0xbdbdbf8dbd882cb4U,
  0xbdd83ccd3df2c363U, 0xbe4662dabde1a78bU, 0x3e86f9d53e2e165eU, 0xbde64baabcdd2408U,
  0xbe4f2e553d073e5fU, 0x3bb49a9cbd50d5e5U, 0x3cdcfec2bc430848U, 0x3e3f94f23be48891U,
  0xbc1c0e4f3d1f3069U, 0xbe8625b8bcfaa0bdU, 0xbce654653e796546U, 0xbd7dd1553e362352U,
  0xbe130d5b3d9737edU, 0x3d1c2eaa3b124468U, 0xbd5db418be0284b0U, 0xbcc69e08bda4f4f7U,
  0xbe1f429abcd11366U, 0xbe18e78f3e2efc2eU, 0x3e470526bc871291U, 0xbdc1eab4be2aebc3U,
  0xbd63734c3e3aacefU, 0x3d347ec93d2dfe57U, 0x3e06b2bfbcecb1bfU, 0x3db110cd3ca198e7U,
  0xbe58a0873ccfe42cU, 0x3cd0da653e0a8293U, 0xbddb8c203cb0205fU, 0xbd350d0b3dc68779U,
  0xbd051e63bd9c8110U, 0xbe5f4f6e3d8114edU, 0x3d7f89783e3a8297U, 0x3e881935be1009c3U,
  0x3d4f3d75bcc39009U, 0x3d65bee93df8f852U, 0xbbc0f0b03dc7c48fU, 0xbe7675e93e342a32U,
  0xbd2f8dfcbd68fb74U, 0xbd5346bd3da5ffb1U, 0x3df5ac18be1225ffU, 0xbc01f3f6be015149U,
  0xbe0888a7bcf2d1eaU, 0xbc8056a1bd208602U, 0xbdb43316bdee5bd4U, 0xbe444d24bd8652c0U,
  0xbe991f3f3e2e74f7U, 0xbe80fccf3e8ec694U, 0xbc53fccfbe3f76deU, 0x3d0610aa3e4938f8U,
  0xbda5431f3e67917eU, 0xbea4d075bd12f256U, 0xbe3f32be3de17aedU, 0xbd0dff373e647c79U,
  0xbd776b68bc95458dU, 0xbe6a96963d10083aU, 0x3e3de03c3d3fcff8U, 0x3e75d01a3e342afcU,
  0xbd9a3e983caa4d63U, 0x3c028c1f3da08769U, 0x3d1413153c56586fU, 0x3c7be1083e437732U,
  0xbd62586e3e235216U, 0xbcbf26193e0b050dU, 0x3d4322c3bdabeab2U, 0x3e6c40433e9a2085U,
  0xbd961831bddd81ddU, 0xbe1f54113e99f5f0U, 0x3e69665c3e7cb551U, 0xbc0932e03d523ff3U,
  0x3c9deb0cbc9e80f5U, 0x3d41ff403dc7fd67U, 0xbd936a21bdc1383fU, 0x3e04344f3e9380c5U,
  0xbd0787d5bda605cdU, 0xbebdd83b3e982e96U, 0x3e80ebd23d684781U, 0xbe247dc93e28766aU,
  0xbe2f5a92be3c5589U, 0x3de1c4223d922cffU, 0xbdde07a6be0ebff9U, 0x3e04881b3d4d9084U,
  0xbe924744be3d7875U, 0xbe90d853be43b217U, 0xbddfd793be37fa61U, 0xbe97f74dbe1fe174U,
  0xbe3d1350bda8c700U, 0xbec77abdbdc1f9b5U, 0x3ca55268be444a60U, 0xbec9d768bead6a69U,
  0xbe965f283eb93234U, 0xbdcc11373e9f0882U, 0xbdb4483dbe438a58U, 0x3acaed8b3dd781fdU,
  0xbdcd52773e7b3d1aU, 0xbe095425bd968877U, 0xbd5db5c6bdc4117cU, 0xbd96aed83ea87b38U,
  0xbe0eed603e2f9b65U, 0xbe5795173b48b7b5U, 0xbe62df61be457dc8U, 0xbcbc1eee3e591a71U,
  0x3dedf13e3e2c0155U, 0x3e28e2253c59cb1bU, 0x3e1753843dd3b146U, 0x3cfc84dcbe1d4cf4U,
  0xbda383093c1c1218U, 0xbe6b057e3d640765U, 0xbe4172efbe0c22d0U, 0xbe50e59d3e686d5fU,
  0x3d4c6aedbcd89481U, 0x3e3f57ea3e3a03eaU, 0x3ccb4a7d3e3740deU, 0xbd95bb813c75c830U,
  0x3e568a9dbd114b2dU, 0xbd8d41733e009c43U, 0x3dc74f113d15f61fU, 0x3ded2aaa3e29541fU,
  0xbe56b4523ddd45c0U, 0xbcfafa233e3618c2U, 0x3e866ba7be4c78b4U, 0x3e9d31debcdc3af2U,
  0x3df8b5f13d85f48cU, 0x3e754b00be7b395aU, 0xbc03dc6b3f010987U, 0x3e22e6bdbd206e43U,
  0xbed7953dbb41b085U, 0xbea8daeabe928b0eU, 0x3d0d75f3beb5df95U, 0x3ed63d0d3e6ca88cU,
  0xbe232283be301666U, 0xbe2fe9ef3e86c2e1U, 0x3c8de204bd7a867cU, 0xbe303839bd94655aU,
  0xbda24ab03e7ba1fdU, 0xbd5908cd3e4dc7f5U, 0xbdc43aadbe82ad09U, 0x3de238283e6eb2d7U,
  0xbdf2dd4dbd659013U, 0xbe4b46423e4f42f4U, 0x3d47f8723e083cc0U, 0x3de1e5443d158aafU,
  0x3d7982443d1403a4U, 0xbd81ba6f3e11139cU, 0xbd45b510bba495e9U, 0xbdefd88c3e2b9c12U,
  0xbca5cb59bde29e1dU, 0xbe7c7f893df736acU, 0x3d2942b83deb2133U, 0x3cce74a63e397bb4U,
  0xbe1d0442bdd1ff61U, 0x3d978f1d3e6fdcf4U, 0x3dd350eb3d4c14d4U, 0x3e0104a43e745090U,
  0x3d72b8153e1f1fc0U, 0xbe3ebbfd3e870d1cU, 0x3d13e13d3e368c1aU, 0xbc792a6fbdbc7d58U,
  0xbe29a0043e3d8a65U, 0x3b8d2146be202e8bU, 0xbd1ea4393e0a5876U, 0x3e3243dd3c2dc2baU,
  0x3e261675bc476fbeU, 0xbe9882f93e8ebac7U, 0x3d5443963e3995c9U, 0xbe43294dbe29ccceU,
  0x3d56a88fbe308c8cU, 0xbe502cdd3e9c72ecU, 0xbc42a6903d8ea25eU, 0x3e84c2923dcc655fU,
  0xbd42d3213eafb114U, 0xbe14ba123e5a79c8U, 0xbdcd2668bd687eb2U, 0xbe5175a53ec769b8U,
  0xbe671dd93d534bc1U, 0x3d2eb7ec3e6fad63U, 0x3e64a90fbde54661U, 0xbda40e77bdc50cd9U,
  0x3e8f736cbd0a2889U, 0x3c2e96ddbe29a867U, 0x3d81c3f8be853e4fU, 0x3e3068643e5181b0U,
  0xbe9f6dc33d4fb6b6U, 0xbdc2c8f33ec88dfbU, 0x3ec36659beb1a491U, 0xbd81450c3e4fa7e5U,
  0xbe17ed8b3e327978U, 0xbde434733ead3ffeU, 0xbe53373f3c819cb8U, 0x3d84ecb3be237057U,
  0xbe42aa2e3ed0db79U, 0xbe1dc0803dbefa63U, 0xbe055e593e5cab7aU, 0xbdff28f73ea97d3eU,
  0xbee08c6e3e89a946U, 0x3ebd0ddc3f0031b5U, 0xbe374965be0898a6U, 0x3d90302a3e688061U,
  0xbd5e30ccbe0b3fb1U, 0x3eabe7133c3ec51bU, 0x3e4828df3d45b9bfU, 0x3eb6d53e3d2b3727U,
  0x3e845d233ca0ffddU, 0xbde3e782be0d0cb8U, 0x3e82f2483e082067U, 0x3ee4b8c2bc9e5be5U,
  0xbddd0898bdec0bb6U, 0xbe3f3ec63dd4e7ddU, 0xbde68be1be698186U, 0x3e7303443f034450U,
  0x3ca4e2b63e132f4aU, 0xbe4030563dafe221U, 0x3e01cdcd3e26300eU, 0xbe4e109bbd90dc62U,
  0xbe2259e33dc7b13dU, 0xbd443b4b3e3afab5U, 0xbd46bc32bde1f8e1U, 0x3dd7a164bc8f12b7U,
  0x3e32ae793d4d3f75U, 0xbe0f06393e4bca99U, 0x3e86946dbd503300U, 0x3c3246c33df287bcU,
  0xbd9d40033e44d4e2U, 0x3d9b3f0c3ebdc419U, 0xbd97604cbe092f69U, 0x3e5381da3e36c36bU,
  0x3d8a9741bd532637U, 0x3e36914f3c9f4002U, 0xbccc692a3d3f0e65U, 0x3d4634ba3dc72070U,
  0xbea335c9bd995e32U, 0xbdfed1cd3d86f793U, 0x3e54ebba3cc40249U, 0xbdc5f73e3ea11ebdU,
  0x3df08390bdd7bac1U, 0x3bd5e4c93e435356U, 0xbcfbd0723d80a159U, 0xbe4542bf3d94e948U,
  0xbe86d2053d6da3abU, 0xbda47118bd06068aU, 0xbdd0df81bddff94fU, 0x3e31c4df3d423b21U,
  0xbdf26e763e1eecb7U, 0xbe273dbc3d68872dU, 0xbd0758f13e1f2affU, 0x3d8f029639eb8276U,
  0xbd9b51c4be146c60U, 0xbe65757c3d809e42U, 0x3e04a43ebe3e57b8U, 0x3e84aa9e3e1cded8U,
  0x3da406ef3e19e88dU, 0xbdca34e33dfabf51U, 0xbce79812bd81aeddU, 0xbdf9e9fd3e3b9f28U,
  0xbcbf0baabd748f17U, 0x3ceb1a063c79ce77U, 0xbe3454d23e20ab8cU, 0x3a39211b3e5c2cc7U,
  0x3d702c42be3325d4U, 0x3dc6780dbd2ee047U, 0xbc839f423d35b3b6U, 0xbd2a72c63e12cd79U,
  0x3e3b824b3deb9874U, 0xbdd28be8bd9dade9U, 0xbc0afb9dbe1ff33aU, 0x3e8b16dabe04c9eaU,
  0x3d6f1c103d4b827cU, 0xbd5b778a3b95c167U, 0xbd43bd453db10e71U, 0xbdfa8abcbe0f0e29U,
  0xbe066908bd9ac6cdU, 0x3d2fd517bb6bf221U, 0x3c3ebcf2bcbe321dU, 0x3e15cae6bdf2050aU,
  0xbdadd8383e4971e7U, 0xbdcc39af3ddbfc6fU, 0x3e549fdebe0628c1U, 0x3db98070bdb1651dU,
  0xbe5c13fc3c74e662U, 0xbdf9f99b3dc40899U, 0x3dba4b9cbdf989e3U, 0x3e06d3ad3e5787dcU,
  0x3d8a7323bdb8a9bdU, 0xbe08e8c53e2afd8dU, 0x3c4c92e7bd9d319eU, 0xbe12c9973e430615U,
  0xbe0934babd081713U, 0x3da1014e3e96551eU, 0x3e2ae313bc1dc4e4U, 0x3c73394c3cf9d181U,
  0xbd2e1e82be71b2b6U, 0xbc9176a43d178aa3U, 0x3e6c8b993d9526b3U, 0xbe8391013c0fa66aU,
  0xbe7078e93df66cb4U, 0xbe51c83abe52194cU, 0xbcda22e3be0bb688U, 0x3bffb9653e3a6874U,
  0x3e3f7038bce36ba0U, 0xbc9255fb3da8b7e4U, 0x3e5fe393be5595baU, 0x3e0be2773e321acbU,
  0x3d3431d93e6760beU, 0x3dabade13cb5c650U, 0x3c74755f3e012952U, 0xbe08ea42bd87b4adU,
  0xbcc7bb10bdf9f678U, 0x3e3d82393e031a92U, 0xbe1cdef4be0c77cdU, 0x3ccbbbff3e150999U,
  0xbe81177dbb86de39U, 0x3df18054be4fef9dU, 0x3d5805513c352be6U, 0xbd198466bd119390U,
  0xbddaec91bdf07610U, 0xbe2c55edbd9d09a4U, 0xbd4300233db35a28U, 0xbe08806e3e06c360U,
  0x3e62d3fc3ce3c34bU, 0xbd102bc63d4c6839U, 0x3c850a133d2def12U, 0x3d7413bebb695d8eU,
  0x3d9d62c33d76566fU, 0x3e3e2aad3e6aeec0U, 0xbd6baff13db27ea6U, 0x3db1a6b83e46ebb8U,
  0xbecab590be0f2630U, 0x3e134773bce14102U, 0x3d8e04fcbdee1f50U, 0x3e4a0d433e588350U,
  0xbd2084d53df02024U, 0x3dd277893e8c8ab5U, 0xbe0ec336bd81c34bU, 0x3d42f7f73e167cd0U,
  0xbe2f8c3f3e045aadU, 0xbd6401ec3c35bfe6U, 0x3e323e5e3db5871bU, 0x3e38f5693e06198fU,
  0x3b3404c03d86c44fU, 0xbe65f9593db33533U, 0xbdbdba31bc40bb3fU, 0xbe4295313e1b5a2dU,
  0xbe285489bdbf07feU, 0x3a55c508bd5d05ecU, 0xbd98b3c2be6fdabdU, 0x3c17fc68bdeac270U,
  0x3e4e87de3d979a8fU, 0xbe8b25973ddb9ea5U, 0xbcf914263e11ab1aU, 0xbd5eca9d3e22b8fcU,
  0x3d1930bebcf7e7c0U, 0xbc9604e9bdded1e9U, 0x3dcefd0b3cc35b07U, 0xbceb4218bcf7175aU,
  0x3e5d425b3e00eaf6U, 0xbe1c17f33d2d9566U, 0xbd97a6893c888ebbU, 0xbd3eff30bdb5d161U,
  0xbe4e6cae3bc25873U, 0xbe3a1095bd091790U, 0x3d149c9dbd029455U, 0x3e6d43223e74f73bU,
  0xbc6d1fab3de4463cU, 0x3d0f98c83c8ac05cU, 0x3da8c3d7bd55605cU, 0x3dcaac45be30c987U,
  0xbcbb7e513e0c27efU, 0xbe820dfebda1edddU, 0x3d19da0a3da10ac4U, 0x3e22ec0d3e15515fU,
  0xbd81201939c77782U, 0x3de82d1c3d77485fU, 0x3e1546263e6db2a7U, 0xbe2b7d6a3d723282U,
  0xbe690b153e332ca8U, 0xbe30e9303e306e67U, 0x3ca1ceadbdbb688dU, 0xbd2e3f7f3dab28c3U,
  0x3dbc51793c9bb465U, 0x3d796ef63d4a8abfU, 0x3ea1e5f83b138d11U, 0xbd2a222f3ea352a3U,
  0xbd9c11963d207c21U, 0xbcddafbf3cb092d3U, 0x3dfcd5c5bc296da8U, 0x3da35badbe0803e6U,
  0x3dde93eb3d95b4b3U, 0xbcd002853e197049U, 0x3e4f7fdb3e35aefdU, 0xbdb11a303e131ae5U,
  0x3ca76960bd67f323U, 0xbe960aa53dcd54e4U, 0x3d098f81bdf5f049U, 0xbda019e93e991b3bU,
  0xbe1c70183e6b6473U, 0xbd47e4293c0acd31U, 0x3e3ee5a1ba4a44f0U, 0xbda857a6bd1b0991U,
  0xbe7052823da463eeU, 0xbd423c6f3e56dd48U, 0x3c885f9cbe0efbd4U, 0x3e2156073e751c46U,
  0xbd960e8b3d7062efU, 0xbd713caabdc5119dU, 0x3e0981523ddb9015U, 0xbe2cf68bbdd60745U,
  0xbe8c5a3b3d8fbeb8U, 0xbe5a8dc2bd81243eU, 0xbe0000b4bd20b34eU, 0x3e4a0cc73e89e902U,
  0x3d07e724bdb71510U, 0x3e07a403bdf32c0dU, 0xbd45ca663e3af255U, 0xbdeb33d93b9dd72eU,
  0x3df768893e36a11cU, 0x3e2b13463cf997a6U, 0x3e231da33e4eaab1U, 0xbdebe3743d514fd8U,
  0x3e1cebefbdd83a5aU, 0x3ceeb02e3c963968U, 0xbe44d8053e435259U, 0xbdbeee993e094083U,
  0x3dbe60bf3e222d7bU, 0x3d5535783d5931b5U, 0xbe26d2a83dba7c70U, 0x3e609c163dc21121U,
  0x3e3c7cdc3e098989U, 0xbe4076ad3db2ea55U, 0xbd7aaaed3e11cbe8U, 0x3d8bb090be3e0a32U,
  0xbe36217dbe4826aeU, 0xbe11875a3e399496U, 0x3e0e86293e1b312eU, 0x3e702027bdf70cf6U,
  0x3db6824b3e2ec362U, 0xbe4917d73d058e69U, 0x3c01ec633cde0cb6U, 0xbda0bf093dd5da32U,
  0xbe21aece3e2b0052U, 0xbe2c8b8b3d9c9d5eU, 0xba8d23cebe203ee8U, 0x3cc9653d3e5101c1U,
  0xbe1e474e3dc065e8U, 0x3d4967bd3e57d47dU, 0x3e5c78ee3d349219U, 0xbe07a40fbced35dbU,
  0x3d7047dabc532f0cU, 0xbdbe65563e43d337U, 0x3d9416e3bcf06f35U, 0xbcab0674bc1a3b8dU,
  0x3e89e7b1be0c0d4eU, 0xbd050762be184e44U, 0x3ea0b9ffbdeecbb6U, 0xbd85d1e33ca2c7ddU,
  0xbe6931873d024c10U, 0xbdb4d4503e50149dU, 0xbddb9417bea2213bU, 0x3dbead0bbdb8061cU,
  0xbe0dfb77bdc95b06U, 0xbdc243dbbde16824U, 0xbd944eca3e092dd7U, 0xbe8e5e2a3c6d573aU,
  0x3dbd68263d59af55U, 0x3d25592f3e6a4decU, 0x3e16fdfdbd324d95U, 0xbda041d63e0471b6U,
  0xbea038253d6e8852U, 0x3d9ee7593e7f06f5U, 0x3e0534f3bea53720U, 0xbe3f910c3e65d6e2U,
  0x3e0d8c403e6a1979U, 0x3e3262683e1479b1U, 0x3dacfc7abd85b773U, 0x3d3c982e3d87d783U,
  0xbd36ac9cbdd749f3U, 0x3e499c4b3e94d5b5U, 0x3d0f243c3d72cd83U, 0xbe2429363e7bbc53U,
  0xbe0e7f473e5815d3U, 0x39d0f1173dcab807U, 0x3e95245ebe2bf01bU, 0x3c5a006e3dc235efU,
  0xbe68053abe1c81c0U, 0xbe297560bc3f41b8U, 0x3e1a90633cb7ad92U, 0x3de6885fbbc4295bU,
  0xbcec528c3e82627dU, 0xbe84a9633dcfbf8dU, 0x3dad3d1abe4ba899U, 0xbe2b34463e8dd133U,
  0x3e2413dd3e41c2a9U, 0xbe46b31a3e41f63cU, 0x3cf17ca3be1aeac8U, 0xbd9cce7d3e8de26fU,
  0xbe3f20cfbdae6e34U, 0xbe03f6793e7f5114U, 0x3da2d3e1bce41760U, 0x3d7c4e18bde79fe3U,
  0x3d1a39343e666226U, 0xbdbabca7bd2f0b48U, 0xbe6a01b63e1c59c3U, 0xbe251e503e3defffU,
  0x3e0077ba3d3d1580U, 0xbbd4df533d17519aU, 0x3ca4d14a3bc330ddU, 0x3e2cd5b5bd5a0218U,
  0xbdbcf3a5bda773b1U, 0xbe0bd38c3df7eb8dU, 0xbe10efa23e197430U, 0x3d11d04a3e2ec42fU,
  0x3d2c680f3bb8a7d1U, 0xbd6f44563ca91b17U, 0x3e487a35be50d90cU, 0x3dc0dd0e3e24b256U,
  0x3e73cf963db31772U, 0x3dafbbfe3b4b51cfU, 0x3dbf5e923d870bc6U, 0xbd9a54413e315f6eU,
  0xbe41fcf8bdf3229dU, 0x3cd987e43dfa9425U, 0xbca08f50be6dfbbaU, 0xbd100c713e91e39eU,
  0x3e405ab0ba6fce36U, 0xbdb516fd3cfeccd4U, 0x3df96253bb711c8dU, 0x3d60e8a93d4a8796U,
  0xbdd0c5e13e026a28U, 0xbd198af4be157189U, 0xbe357594be1a0b59U, 0x3c240b6d3d3a104dU,
  0x3ca05aa7bdfe646fU, 0x3cfc557f3e4f0f90U, 0x3e06a8d03dc5886eU, 0x3d1b43973e7cc3afU,
  0xbe875669bdc209c8U, 0xbe489887bbb238d9U, 0x3e4b8208bec445a6U, 0x3da456b1bd8ad14bU,
  0xbbb329343d037811U, 0xbdf48ae93e207c6aU, 0xbc03e4e53e1f8e87U, 0xbd8499f73e18b01fU,
  0xbeace26b3c7d20bdU, 0xbdc680d23e375e23U, 0x3bab4077be282043U, 0x3e42f7aa3ded95b2U,
  0x3d06d195bd3f1790U, 0xbd96f75d3d7b0d60U, 0x3cd10e2b3cb3cbb1U, 0xbe6b16a33dfff8fdU,
  0xbe4283c83dcdccacU, 0xbe348b44bcb5cc47U, 0x3d068042be92c5b0U, 0x3bc621ab3d2f70beU,
  0x3da733523d0dbaf5U, 0xbe0965383d7c8cd7U, 0x3cd84e2a3debb47cU, 0xbcd94b88bc6a9995U,
  0xbe4dd2aa3d225a83U, 0xbcf072d33c5039b1U, 0xbc294093be9115cdU, 0x3e135f263dbdd187U,
  0x3dfa1f333e0a0bd5U, 0xbe456ba83dac2454U, 0x3dc7b8043defd18cU, 0x3e74f7dabd35c37eU,
  0xbeb36104be08f7f1U, 0xbde4c4f03e3288a3U, 0x3db6d33abddc3ba1U, 0x3e1d439b3ebb5c5cU,
  0xbdfa85943e10c81aU, 0x3d8494b0bd2e8310U, 0x3e2b7baf3d89a57bU, 0x3db8ac5a3dcde695U,
  0x3d1e825cbd934a3bU, 0xbc1da9903e529e46U, 0x3ddbce30bd093a41U, 0x3d984dc3bc54c559U,
  0xbd3c76b53e1f45c0U, 0xbcff6128bda77bbfU, 0x3de794fd3e32670eU, 0xbdc0357bbda639d4U,
  0xbda0f153be1b818eU, 0x3c07437f3d8d49f2U, 0xbda1104bbe21183cU, 0xbdeadd5b3e0c4a20U,
  0x3e184babbe070684U, 0xbe16c006bd9ee3adU, 0x3befb1acbd70ca34U, 0xbe61377a3e104c2bU,
  0x3ca01bc3bd71697aU, 0xbda29c71bd8b2f6cU, 0x3e852ebebe0cfcb9U, 0xbd2e83633deb85aeU,
  0xbd037cb9bd939326U, 0xbe76e0de3db53f03U, 0xbd929211be0e197cU, 0xbdbf235dbd36ddf8U,
  0xbc1691ad3e037820U, 0xbc830b493e74e3f0U, 0x3d76533ebe69be21U, 0x3e2ef1febd2ac0f5U,
  0xbe2b4457bd47ff34U, 0x3ced5691bd01fab0U, 0x3d212e3c3e469ee4U, 0x3df020063cb23093U,
  0xbd906567be074f5fU, 0xbda2340abcf2d096U, 0xbb6f6843bdf81a28U, 0x3d84c6fc3e172a65U,
  0x3d80334b3dc601a9U, 0xbd7a21c23e0edfd2U, 0xbc792af43e072625U, 0xbe5b9c3fbc7e3e56U,
  0xbb48156c3e626fa8U, 0x3ca915f2bd1368afU, 0x3e5f4e11be1458f2U, 0xbd4d5ddebca98697U,
  0xbe1ee3213e15bc73U, 0x3d8d9d65bd700744U, 0xbdea410f3ddac494U, 0x3d6a8b3bbe2767dfU,
  0xbd6645143d0445d5U, 0xbe53cf5c3d7ab7baU, 0x3e10dbaebe1c8a5fU, 0x3de6acd33900a5a5U,
  0xbd7306843d8b0024U, 0xbdb34ae23cdf1b88U, 0x3d4dd62e3e0299c7U, 0x3cad326c3db4f161U,
  0xbe273a4dbdc22300U, 0xbe2f21d7ba7d0ea2U, 0x3e3dadeb3c0276adU, 0x3a805c00bd8c3918U,
  0x3e5fc1843ddb12b0U, 0x3c8cadb1be3e9971U, 0xbd9e85173e096527U, 0xbd3fd64f3e16ce04U,
  0x3d48380cbe0b4df0U, 0x3d26889a3e2c8736U, 0xbd8032cabe55d1d7U, 0xbcb619f93caf3103U,
  0xbdd8aa803e0a99efU, 0x3e339d9d3d7a57deU, 0xba1847803d894050U, 0x3e6335d83d944649U,
  0x3d6168f3bd7bf825U, 0xbe6cf4e33e0789a4U, 0x3d91ddc63df16a14U, 0xbdbdc013bd882d3aU,
  0xbdd83d533df2c2ddU, 0xbe46631dbde1a811U, 0x3e86f9b43e2e161bU, 0xbde64c30bcdd2621U,
  0xbe4f2e983d073d52U, 0x3bb49238bd50d6f2U, 0x3cdcfca9bc430c79U, 0x3e3f94af3be4802dU,
  0xbc1c12803d1f2f5cU, 0xbe8625d9bcfaa2d6U, 0xbce6567e3e796503U, 0xbd7dd2623e36230fU,
  0xbe130d9e3d973767U, 0x3d1c2d9d3b1233a1U, 0xbd5db525be0284f3U, 0xbcc6a021bda4f57dU,
  0xbe1f42ddbcd1157fU, 0xbe18e7d23e2efbebU, 0x3e4704e3bc8714aaU, 0xbdc1eb3abe2aec06U,
  0xbd6374593e3aacacU, 0x3d347dbc3d2dfd4aU, 0x3e06b27cbcecb3d8U, 0x3db110473ca196ceU,
  0xbe58a0ca3ccfe213U, 0x3cd0d84c3e0a8250U, 0xbddb8ca63cb01e46U, 0xbd350e183dc686f3U,
  0xbd051f70bd9c8196U, 0xbe5f4fb13d811467U, 0x3d7f886b3e3a8254U, 0x3e881914be100a06U,
  0x3d4f3c68bcc39222U, 0x3d65bddc3df8f7ccU, 0xbbc0f9143dc7c409U, 0xbe76762c3e3429efU,
  0xbd2f8f09bd68fc81U, 0xbd5347ca3da5ff2bU, 0x3df5ab92be122642U, 0xbc01f827be01518cU,
  0xbe0888eabcf2d403U, 0xbc8058babd20870fU, 0xbdb4339cbdee5c5aU, 0xbe444d67bd865346U,
  0xbe991f603e2e74b4U, 0xbe80fcf03e8ec673U, 0xbc540100be3f7721U, 0x3d060f9d3e4938b5U,
  0xbda543a53e67913bU, 0xbea4d096bd12f363U, 0xbe3f33013de17a67U, 0xbd0e00443e647c36U,
  0xbd776c75bc9547a6U, 0xbe6a96d93d10072dU, 0x3e3ddff93d3fceebU, 0x3e75cfd73e342ab9U,
  0xbd9a3f1e3caa4b4aU, 0x3c0287ee3da086e3U, 0x3d1412083c56543eU, 0x3c7bdcd73e4376efU,
  0xbd62597b3e2351d3U, 0xbcbf28323e0b04caU, 0x3d4321b6bdabeb38U, 0x3e6c40003e9a2064U,
  0xbd9618b7bddd8263U, 0xbe1f54543e99f5cfU, 0x3e6966193e7cb50eU, 0xbc0937113d523ee6U,
  0x3c9de8f3bc9e830eU, 0x3d41fe333dc7fce1U, 0xbd936aa7bdc138c5U, 0x3e04340c3e9380a4U,
  0xbd0788e2bda60653U, 0xbebdd85c3e982e75U, 0x3e80ebb13d684674U, 0xbe247e0c3e287627U,
  0xbe2f5ad5be3c55ccU, 0x3de1c39c3d922c79U, 0xbdde082cbe0ec03cU, 0x3e0487d83d4d8f77U,
  0xbe924765be3d78b8U, 0xbe90d874be43b25aU, 0xbddfd819be37faa4U, 0xbe97f76ebe1fe1b7U,
  0xbe3d1393bda8c786U, 0xbec77adebdc1fa3bU, 0x3ca5504fbe444aa3U, 0xbec9d789bead6a8aU,
  0x3f1337d63e28ee24U, 0x3f004d053e400f55U, 0x3ec1f2a03eaaf39fU, 0x3e9f5a823c2b7a4aU,
  0x3e4c44da3dea4004U, 0x3f09a50e3df33480U, 0x3d0faa7a3eb36d0aU, 0x3e70e925bc2611a2U,
  0xbe3b55d2bf46e1a0U, 0xbe7120aebf021b32U, 0xbf8c8323bed9a12fU, 0xbec44a94bf1307f4U,
  0xbf2bcd41bf3bb6b8U, 0xba936933bede2311U, 0xbcb666fdbee6e96fU, 0xbea01e5cbef0d75eU,
  0xbdcf07bd3e0d4352U, 0xbe23a8583e3ef9adU, 0x3ea1e1b5be626f8dU, 0xbe9ad437bec48e2dU,
  0x3e54a9c7bef9eee1U, 0x3d576a89be734e49U, 0x3db898b3be93d611U, 0xbe6cd2b8bd0ad68cU,
  0xbe39cb863e249611U, 0xbe392afc3e334077U, 0x3eb4e4583e29347bU, 0xbeac49933d925e3cU,
  0x3e26363cbc52193fU, 0x3bbf499a3e23dd2bU, 0xbe8931453e589b16U, 0xbe9e280bbee8ba4bU,
  0xbfea2223bee84296U, 0x3f28216b3efec8eaU,
};


ai_handle g_network_weights_table[1 + 2] = {
  AI_HANDLE_PTR(AI_MAGIC_MARKER),
  AI_HANDLE_PTR(s_network_weights_array_u64),
  AI_HANDLE_PTR(AI_MAGIC_MARKER),
};

