/**
  ******************************************************************************
  * @file    human_activity_recognition_data.c
  * @author  AST Embedded Analytics Research Platform
  * @date    2026-03-03T11:51:47+0100
  * @brief   AI Tool Automatic Code Generator for Embedded NN computing
  ******************************************************************************
  * Copyright (c) 2026 STMicroelectronics.
  * All rights reserved.
  *
  * This software is licensed under terms that can be found in the LICENSE file
  * in the root directory of this software component.
  * If no LICENSE file comes with this software, it is provided AS-IS.
  ******************************************************************************
  */

#include "human_activity_recognition_data.h"
STAI_ALIGNED(8)
const uint64_t g_human_activity_recognition_weights_array[731] = {
  0xbd06a1513e30c4cbU, 0x3e31c7fb3e39a520U, 0xbe7da0263e16e8f7U, 0xbc562c85be243a9fU,
  0x3e2249803e1d4be4U, 0x3ea94a81bd73c68eU, 0xbe4e65bb3d6188f1U, 0xbe09d2f1be228172U,
  0x3dd7d1c2be58a207U, 0xbe87547c3c11735cU, 0x3e77c9153e1680d8U, 0xbb333710be6af7b3U,
  0xbc7a2aa3bd9f7a55U, 0xbd94b9d73e6487cfU, 0xbdf0c434be6355c1U, 0xbe6cf7fc3e3be55bU,
  0xbd9d1ee53e4b7f90U, 0xbd0711c6bc502ce4U, 0xb9ae4a3c3e114dcbU, 0xbcdf7f523dfc6f9dU,
  0xbe90c9203e6bee55U, 0x3e1c167b3e13cc7dU, 0x3c9cbb483da6d63bU, 0xbd8406aabe73ebc8U,
  0xbc166feb3e945e83U, 0x3e0cddab3e30538aU, 0xbe9222143dea2e4cU, 0x3d43d54dbdcbcb93U,
  0xbe4778443dd1cf74U, 0x3e305a073dcc5e09U, 0x3daf48a93ea7f6d1U, 0xbe5e04033ca94b78U,
  0xbe46d73abe0cbe27U, 0xbe4ae0e0bdb37ce3U, 0x3e8665cdbc889be2U, 0xbd975d003daefa06U,
  0xbe6701d13d4511eeU, 0xbe3877e83e7d9c0fU, 0x3d7422333dfeb950U, 0x3daf5ffe3e6aa717U,
  0xbdcb6118bd9baaccU, 0xbcf6535a3d8bafb8U, 0x3d127803bc90633aU, 0xbc03957ebc4b3bdfU,
  0xbcba7c933d7f6a2cU, 0xbc88c6c1bc562f87U, 0xbb03e1efbc33deabU, 0xbc9ec257ba72abb8U,
  0x3c702478bc7af82cU, 0x3d46cff73e7f4c58U, 0x3e55ebedbd019a49U, 0xbe23c0ccbddee14dU,
  0xbe7b70bc3eb14713U, 0xbdabcac93de6d7bcU, 0xbdef3612bdae751eU, 0xbb4a3240bd6da703U,
  0xbd1e1a67bdb979e2U, 0x3d9284183d58af42U, 0x3d56f1b8bd95aa4dU, 0x3e30e3e73c98f1f8U,
  0xbe00822f3d8970fdU, 0xbcc160f1bd40ba85U, 0x3d20d78cbe17c78aU, 0xbd8c68a3be68e409U,
  0xbda474fa3e8d9c09U, 0x3df2fa9e3d562e75U, 0xbb420035bd13db23U, 0x3d99da1c3bd6e757U,
  0xbe3c08f73e816dd9U, 0xbe40b4babd59e180U, 0xbdc6f75bbe46ac2aU, 0xbd9665053d38f497U,
  0xbd4a5d283e6c9f6dU, 0x3d76e9ab3e824753U, 0x3e0cec963db4544aU, 0xbc4e8d18bd2fa220U,
  0xbe782c1b3e84885fU, 0xbe2bfe9cbe534fd5U, 0x3c6ede31bdc829a3U, 0xb8bb1ecf3a54156eU,
  0xbe0dc5313d7154fbU, 0xbd2a1b16bd260104U, 0x3e5905a3bb38aefeU, 0x3dca54623e4a6edaU,
  0xbe50dc5d3d271985U, 0xbe008449be4aa9b6U, 0x3c859fd03ce5a9d7U, 0xbde0c403bddc48acU,
  0x3da36097bd970fa0U, 0x3e29c769bd5226c6U, 0x3e49102c3d851851U, 0xbd0d3b84bd986c29U,
  0xbd14421b3e165332U, 0xbcd9913b3bc4433aU, 0x3d75737c3d62cdcaU, 0xbdac7687bdfc9c69U,
  0x3d8898f83e31e800U, 0xbd2925e33d8bb92bU, 0xbdae7fb63dd1467dU, 0x3e484d90bdac1903U,
  0xbe1a16473eaa4a15U, 0xbe0ae9a0bdd5f610U, 0xbd813b78bdb2759dU, 0xbdc65bcebd1e4360U,
  0xbd9ec4b1be10a5d4U, 0x3cc8ab4a3e111a93U, 0x3e1643553ddb929fU, 0x3aff66e9b836e198U,
  0xbda8db6fbdb22e3bU, 0xbe25c6773dc569d2U, 0x3c94e6e53d01493bU, 0x3e0489553d2f0631U,
  0xbe12e6323e706db0U, 0x3d3439d43debee00U, 0xbc20886e3c6feaffU, 0xbd7fa518bc7851efU,
  0xbd7857a8bd25d35eU, 0xbe2772a33d2d48e4U, 0xbe51385a3bc7d12fU, 0xbde54b7fbd398eb8U,
  0x3dddbf89bc33d419U, 0x3d9f9dd0bb98494dU, 0x3e035cea3c47bf52U, 0x3e1a31293cb3c69aU,
  0xbe02ab6dbe2f0ce5U, 0xbe287275bd469b9bU, 0xbcb520a0bcbe5a5bU, 0xbd9ffb8dbe232d2dU,
  0x3d0ffc5fbe807d3dU, 0xbe177f6bbd4e7647U, 0xbdbf13a73c9bdc4dU, 0x3eacc25a3e54680aU,
  0xbd4a3cfcbd400b73U, 0x3c2915f0bd5f841bU, 0xbdeffb293d43ca0aU, 0xbdb1bf483cb24afaU,
  0xbd96bd423ceea3bbU, 0xbdc7c6b5bd634736U, 0xbcb3117a3d3c9978U, 0x3a2b3ec3be0b61e7U,
  0xbd3bf9e53e636e1fU, 0xbdd9182ebdc1e2a0U, 0x3d715bafbd0e0551U, 0xbe2956c2bde1eceeU,
  0x3ddafc8abc7e8305U, 0xbe0ae6663e09a61dU, 0x3dd9db0f3dffaec0U, 0x3d87c68e3e162fc6U,
  0xbe3bb9db3ea23c74U, 0xbdb13d473db70546U, 0xbc8df8a2be3a2425U, 0x3e0b6d8c3d7b33c3U,
  0x3dd090c6bd745f54U, 0x3d66b374bcbf4130U, 0x3e27d977be19ef44U, 0xbe013296bdca1f3eU,
  0xbc004796bcdd8bebU, 0xbd65f076be388e37U, 0xbdb2f757bc0e6605U, 0xbcc145e8be2149fbU,
  0x3cf5ee633e3baa5dU, 0x3e291f973c6b7468U, 0x3db79ba63c8dd9c2U, 0x3e865c1a3d3b26d9U,
  0xbd762b393e991055U, 0x3d5916113c934e17U, 0x3d4008143d48fabdU, 0xbdf331f9be2c390dU,
  0x3d546acb3df2bd04U, 0x3e5b4c783ca5bdb9U, 0x3dbbea6cb95fffecU, 0xbd185101be6e3030U,
  0xbe9eee793d1e94ebU, 0x3d914ee63ddd7464U, 0xbdc4c513be2ff5a2U, 0x3d9d019dbe05108fU,
  0xbd5da6e53e5efb14U, 0x3df04479bdcd385cU, 0xbd8dc35c3dc0a6e0U, 0x3da73e893dd56e51U,
  0x3d738d7ebcd5e2d7U, 0xbe000fa73db8f769U, 0x3db9145b3e1bcbfeU, 0x3d8c65f03dc11f24U,
  0xbe058c28bcfcbb0dU, 0x3d94e2123ddf307eU, 0x3d8ec223bc4a5181U, 0x3d8fa7223be8682bU,
  0xbe4d39ef3e2ea6f2U, 0x3d3e48fcbe6df95aU, 0x3bf5836a3d88e055U, 0x3da43a403def52c7U,
  0x3af0360d3eb8a23bU, 0xbe28cae4bdf439c6U, 0xbb1bb3dabd3835a9U, 0x3e8bcc493e0ead75U,
  0xbd41fb4dbdc95569U, 0xbe15534bbc24ca00U, 0x3db3e8f9bcd1d25fU, 0x3b86c5823cbc64bcU,
  0xbe353de6be84ac5aU, 0xbd4520ce3dc19008U, 0xbd41bb013cf4ac55U, 0xbd3e2deebe7361d8U,
  0xbda2e792bd3838beU, 0xbe499826be0672d8U, 0x3c86d8cfbdaf4143U, 0xbd91ca363dd1be1dU,
  0xbd8f9c8d3ec51a8fU, 0xbceece303dec475bU, 0xbd3673eb3c6fdde5U, 0x3dcdf30ebc0c1795U,
  0x3e2f8799bd5a4950U, 0x3b4d8d5cbe3ce466U, 0x3d905a8ebdf77a47U, 0x3d41f4d2bdfce80aU,
  0xbe27d5d13e0efa2bU, 0xbd37b05a3d82c46dU, 0x3e053ac2bd785049U, 0x3dd0ccc7bcc191edU,
  0x3cd95f3f3ecee243U, 0xbdf8a227be6e716aU, 0x3d84ebbabdbbc0dcU, 0x3d1d1da33d3731d8U,
  0xbe2fe7f3bcd62249U, 0xbc1f4f103dc31be0U, 0x3e61fb29be1fdd70U, 0x3e144ec73ddefc61U,
  0xbddb3f373b1aede3U, 0xbe16b0d8be59dc60U, 0xbd91c20bbe200c01U, 0x3d933bedbd8b29d8U,
  0xbe455e4cbccb88a9U, 0x3ddc87b0bd018981U, 0xbe98b8fe3d7ac00fU, 0xbd0678e23e18c397U,
  0x3cc0c05a3df840e5U, 0xbb221284be45a81aU, 0xbde413023d8929f4U, 0xbc283b193d2ea9d0U,
  0x3d93ef063e435134U, 0x3e049c563e0edba5U, 0x3e01c5b8bd055d5aU, 0x3c6e1c5fbdd9dd82U,
  0x3da955d6be38c7baU, 0x3d49d6e1bc8b4a56U, 0xbdac1d98be55759fU, 0xbe0452b5bd84c313U,
  0x3ce3dc243d2ed265U, 0x3dc250403db11175U, 0x3e0b58b1bcf02a25U, 0x3e32e4bcbd17f3e4U,
  0x3ddfe2253e7306a0U, 0xbdf49b533d9f0cdeU, 0xbdaee47f3dc71477U, 0xbe211b87bc54bdcbU,
  0x3ca10109bbc27aaaU, 0xbd40c3203e11c861U, 0x3dec5e26bcf9cc63U, 0x3d82c58f3e3b76a2U,
  0x3d2c1edb3ecd9be4U, 0xbe7d16b4bd52ebf3U, 0x3d332756bc2712c1U, 0x3b1926df3d68b7d2U,
  0xbe4290513d244f73U, 0x3e2e8ce13dded4bdU, 0x3e6296edbe06c6eaU, 0x3caae7cebda90779U,
  0xbe5695233e28e729U, 0x3d748e08bd248eb0U, 0xbd2b85bdbd838ce3U, 0xbda126f6be0d7dd8U,
  0xbe1a9df7bda05ea0U, 0x3e10346dbbcb0a27U, 0xbb63f1b53d17ea7bU, 0x3d7a703e3e380e7dU,
  0xbea195403e24678dU, 0x3d9a13adbdc94bbeU, 0xbd564f09bd737aa5U, 0x3e19b8c0be5659eeU,
  0xbe03801e3e85f3b2U, 0xbde222723e12801dU, 0x3de363053d8e9f20U, 0x3e2de66f3d37c1ebU,
  0xbc8bd7313d78cedbU, 0xbe0675dfbd1d91e6U, 0xbdc77f7ebde641a2U, 0xbde84975bd9f5983U,
  0xbc3abf23bdf71962U, 0x3e41d7233d860e51U, 0x3dbbb304bb681139U, 0x3de899ac3c9fe917U,
  0x3cdc488cbeaa2371U, 0xbe4e67993d8619daU, 0x3d9398e9bdb5f4edU, 0x3e99a8ccbe0b50d7U,
  0x3d950b23bde780beU, 0x3e2d72043ddc47a3U, 0x3df4f37dbcc03d4bU, 0xbd5a22673d075346U,
  0xbe71d28b3dcb44b0U, 0xbd8f7e353be50d4dU, 0x3ac1f4eebe2998d2U, 0xbd82efb1bc8af152U,
  0xbdd9d6473e8375d4U, 0xbda42fe93e260e97U, 0xbd1a1aa13d82c5b3U, 0x3e3fa9173cf40311U,
  0xbe13a4bfbe9ae52cU, 0xbe19ac97bd616431U, 0xbd91d84dbdb430b1U, 0x3da5c08ebe37a4a0U,
  0xbdbfb3a73dc0e786U, 0x3e409f353e11683cU, 0x3e6a42d3bd5ccad3U, 0x3e6f2c18be47cf11U,
  0xbe3b012f3dca154aU, 0xbd7bf38bbd96eb03U, 0xbc43e4f4bd473216U, 0xbdd912b2be309534U,
  0x3db53b09bd917a2aU, 0x3e83d48dbd6d8c68U, 0x3eb0d9d4bdbcc3d7U, 0x3e98d6833beada70U,
  0xbe343188bc88f176U, 0x3d86bd47bdd9b2fbU, 0xbdfc0cebbd98aec3U, 0xbd34804abc2cdbc7U,
  0xbe84e68d3e613848U, 0x3da2e5f0bd42b926U, 0x3d142c4dbd8369d8U, 0x3e0d1a5fbada65e6U,
  0x3d80c7f9be1ac741U, 0x3d89f617bdca3506U, 0xbcb81b243be1e005U, 0xbd6a0c4139bdb06eU,
  0xbdb620133c7c705aU, 0x3e19db81bcccaa09U, 0x3d0227c63dfad49fU, 0xbe206c423de04168U,
  0xbc8f7ccf3bfd246eU, 0xbe5871b1bd774172U, 0xbe28e720bde79298U, 0xbb17bb4bbdfe6e55U,
  0x3e10effa3d17eb58U, 0x3e236f5d3dc3d3a4U, 0xbe19b6b03deaea5aU, 0x3e5483663d87b0eaU,
  0xbe399d083ea72104U, 0xbdceed0b3d97230cU, 0x3cef728e3d8b81f6U, 0xbdea20c13dc914acU,
  0x3def17aa3e3213afU, 0x3e2c0443bd1f7f31U, 0xbda10bd13dd93178U, 0x3e1b5779bc6bc256U,
  0x3e0a7359bd67c1fdU, 0x3cb8c038bdee7a0cU, 0xbdd917cbbd2a6f81U, 0x3e257dbabe1dc049U,
  0xbd8ae0ff3e1c56b3U, 0x3df02d00bd18b7e7U, 0xbd0c34c8bd71fc74U, 0x3de5b9683d0d2be9U,
  0xbe560c44be43d156U, 0xbdae7d84be02cf8bU, 0x3d29bc623d59d45aU, 0xbe095715bd955586U,
  0xbb9f9c60be19970bU, 0xbd805a533e10d621U, 0x3e62e559bdb27b59U, 0x3cdc7c28bd9ace15U,
  0xbe13df833f042adaU, 0xbd5dc54fbe32fb0eU, 0xbb69fb7e3df54dbbU, 0x3d05d1babe24a223U,
  0xbe484e663e5f8e07U, 0x3dfcf8ed3d5a36fbU, 0x3dfb13213df52924U, 0x3cb1b8b33e2a7ea7U,
  0xbe91ce06bd51cf9cU, 0xbe00bbdabd226411U, 0xbd8e7a31bc0a5b13U, 0xbdeda55f3dfbbd1bU,
  0xbe28e8783ddf7f42U, 0x3df22d87bcaceffeU, 0xbda5cf0dbce324d7U, 0x3e80c1e73d10daacU,
  0xbde5bd863e36725dU, 0xbde09d1cbe318259U, 0x3c219395be43c409U, 0xbdaa55bcbdb15d3bU,
  0x3d680170bc1dd15bU, 0x3e76536d3e11b714U, 0x3dc45519be0b3d29U, 0x3e8d23723e382fe8U,
  0xbdb778a2bc4208efU, 0xbe4f6052be66a4d8U, 0xbdf5291ebe51b787U, 0xbcd73a15bdbbe0d8U,
  0xbe5647b53c4c6c12U, 0xbe05ad6b3dbc9b37U, 0xbe2d4c34bc818656U, 0x3ed573493c8bdd24U,
  0xbc8bbf89be44a5d3U, 0xbe63af87bde27776U, 0xbd012a2abe6e1277U, 0x3df4a196be091ccfU,
  0xbd44e1e6bdde112dU, 0x3e4ed43f3b56d81dU, 0x3e808bec3da8bfdeU, 0xbb224a4ebe3de639U,
  0x3da283fc3e862564U, 0x3d0d22543dc71131U, 0x3d5baaea3dbf01d2U, 0xbe6b8fd73b8b80a1U,
  0x3e6adf52beab227bU, 0xbd6d4cf53df1c2aeU, 0xbdad9aac3db26f88U, 0x3e8fd0293d4fbafaU,
  0x3c51940bbdba366bU, 0x3ba5067f3d96b362U, 0xbe3c5f423e2e398fU, 0x3c8ae159bd5d3cf4U,
  0xbe0372963d5b4d89U, 0xbdfd76063e0829cdU, 0xbd579a423e4a07f4U, 0x3e501e5c3dd4ea20U,
  0x3e5532773db7fe56U, 0xbe51b1563ddcd699U, 0xbe0b40c3be28791dU, 0x3e5f5e04bc0e8fc2U,
  0x3d9e844d3e9c7330U, 0xbd66c2113e595820U, 0xbd98520bbc26d2c4U, 0xbe39cb453deb7b8eU,
  0x3d5a15e73d694b39U, 0xbe1a278fbd357d88U, 0xba38c1b5be2e9009U, 0x3ccb9921bc8aefebU,
  0xbda4af46be47d452U, 0xbe0c28303d561165U, 0x3ec64455bd0d3ec0U, 0x3e8c1bf13dea3498U,
  0x3ddafe5e3ecba8ccU, 0xbc817f3fbe468752U, 0xbe0f6b82bca096cfU, 0xbdae01dc3df1e175U,
  0xbd7fb010be22b855U, 0x3de8b6a1bdcc397dU, 0x3dc6e4433dc32739U, 0x3bfbb634bbfe39caU,
  0x3dd28a83be51e74cU, 0xbd936f5abe5c92e7U, 0x3dc1e06f3d9d06beU, 0x3d4fbbde3c428f36U,
  0xbdd0c1813e3a9064U, 0x3e1c8f813baeaf15U, 0x3dc04fcdbd93db4aU, 0x3dc5b752bdf818bcU,
  0x3d5da52bbdb5c4dbU, 0xbe390b703c09e7dcU, 0xbca8e6883dcdec05U, 0x3d2d9de1bd92ecd4U,
  0x3de1c9dc3df0f3a3U, 0x3d98dc23bd887611U, 0xbc4eabf13993b2bcU, 0x3debd8c43e2c8648U,
  0x3df5b7413d913223U, 0xbd9b4463be1be9ccU, 0xbde7ba52be504dc0U, 0xbe0921f1bdc89679U,
  0xbcc09d7a3e0a67a1U, 0x3cb0e025bd1ea166U, 0x3c9f3970bd4e2588U, 0xbc982aed3e1d1e5dU,
  0xbe55224c3d186451U, 0xbdfaac6bbe664fc6U, 0x3d435d873d03d886U, 0xbd32daa33d8a28b7U,
  0xbd78c576bc7ea8caU, 0xbcbabd08bcce7985U, 0x3e4696fd3cdbed64U, 0x3d867d69be12b42cU,
  0xbd90edae3d51186eU, 0x3bcc6206bdc0d6b9U, 0x3d36e9c5be34ac2eU, 0x3d815fcebe5aba2eU,
  0xbe204fbf3e34e4cfU, 0x3e587f213e5ff86fU, 0xbd9513dabe340a57U, 0x3e764287be0f83a3U,
  0xbda0e1933eee2775U, 0xbe8a7b273cf2db42U, 0x3c552b3abe46495fU, 0x3c103269be6aa90aU,
  0x3dfc75323e928540U, 0x3d48f0b63e643f41U, 0xbd4a04363ca691c1U, 0xbdde38873cd67774U,
  0xbc9195fe3ecf7b46U, 0xbd2fe2eebe14e7e0U, 0x3bf5b8a2bd99e6c9U, 0x3dd703b4be430b51U,
  0xbcaaad34bbdb7a54U, 0x3e21a4503e6dc214U, 0x3eabcde73d29ccceU, 0x3e123f42bd20eb89U,
  0x3df1902bbd9aa429U, 0x3bc51749be14a858U, 0x3d0970ea3d832905U, 0x3cf16a5bbe2e9453U,
  0xbdda60043dcd199cU, 0x3c18f8d3bd89b98fU, 0x3e14548abc928d91U, 0x3eaa840e3e3f88f5U,
  0xbe8f41803e155a76U, 0xbd351c57be5135f4U, 0xbc5a8b44bcf1da9cU, 0x3e53c5fcbe00eeb1U,
  0xbdb2f754bd0e9324U, 0x3e082b9b3d6a088dU, 0x3ebabd0abd1db679U, 0x3de759563c0bc830U,
  0xbdf8dd2e3f0e1dabU, 0xbdeef454bda2d202U, 0xbc2c77233c9ac17eU, 0xbd81488cbe52b5a3U,
  0xbd53c9fd3e6c1940U, 0xbd1e2e0e3e0d573dU, 0xbe9018b43d9bc936U, 0x3ec105d1bdde666dU,
  0xbe149cc93e4e2e37U, 0xbd36596dbe07b0dcU, 0x3c546b9fbd9b0723U, 0xbd561f27bcb5c06eU,
  0xbe01ba383d939153U, 0xbe45d694bcecde73U, 0xbdfb56983dbc3b7eU, 0x3d8a2fecbdfcfacdU,
  0xbdedd3d03c90c697U, 0x3b094183bdd24d6fU, 0xbe2577e6bdc9d8a6U, 0xbc4cc9013e3766a4U,
  0x3e1c91ba3db6bb07U, 0xbd4892eb3da139f4U, 0x3e679d75bcca68faU, 0x3de548903da97fd1U,
  0xbc3648d23cc7eac6U, 0xbc9cbca13d7cdf50U, 0xbe1218233e283f59U, 0xbea488a6bd158618U,
  0x3d83ab45be4d347aU, 0xbde701d8bd7df077U, 0x3e9244803d8af3a3U, 0x3ec937e3bd6614cdU,
  0xbe11cbb33e3e570bU, 0xbe7cafea3d44d298U, 0xbd99899bbbbb8c5dU, 0x3986005abd613f62U,
  0xbe607fdabd96691eU, 0x3e30cc00bd7a82dcU, 0x3dd201b7be06bb97U, 0xbd9c4cbb3d3009a0U,
  0xbe3e552a3e103920U, 0xbe4824c4bdcf7e3cU, 0x3dbc519c3d929828U, 0x3d9008283dcba199U,
  0xbe1ce6753e605916U, 0x3deb30e4bdecd86dU, 0x3e03f167bd037f1aU, 0x3d9388603dc1a299U,
  0xbd5fcd4e3e32af1aU, 0xbe81112bbe427564U, 0xbd3ecf213e6ab7efU, 0x3d4c8ea43d81a3a5U,
  0xbde301bc3f23fb2eU, 0x3d3ca2e2bddc7b9eU, 0xbbd8de06bde4d013U, 0x3ea311f83dcda74eU,
  0x3d56870ebe6c26fcU, 0x3d77fa0abd30891eU, 0x3d22628e3e077344U, 0x3e35c4d63e0b1167U,
  0xbdcdeb37be942473U, 0xbc0ed2cfbd57ff8cU, 0xbd9e23da3e109a93U, 0x3e411392bbde288eU,
  0xbde6abe0be2925aeU, 0xbc26c8593e217a81U, 0x3cf7925bbd0510a8U, 0xbdea4a413e1356f0U,
  0xbe01c0833efff703U, 0x3e979ad83dac8a1cU, 0x3df61661bbca6969U, 0xbde3770d3e96aa2fU,
  0xbea9e15ebe0e04e2U, 0x3d82d997be450b4bU, 0xbd65b1e9bc1638cdU, 0x3d6dd793be1c6432U,
  0x3c56c4ad3ea4648eU, 0x3e6878063d15be9dU, 0x3ec182c0bc846207U, 0x3e10a7b3be1b8265U,
  0x3e94f5c23d924064U, 0xbb96ffde3c04772dU, 0x3d2c066fbc8a732aU, 0xbdbe2d343d2993c2U,
  0xbe7b02ffbda42f0eU, 0x3e4f42a43da8829bU, 0xb71b1b14bd994ec4U, 0x3d8477533d19aa34U,
  0xbe66ff0dbdde176eU, 0xbdb71162bdee1d01U, 0x3e083c21be57a8e0U, 0x3e36e3e63b00318eU,
  0x3dfee3e5be002e0cU, 0x3e62920f3d924d28U, 0x3d235ffc3dc01909U, 0x3dec8a40be122a0bU,
  0xbe010c423edf10f2U, 0xbe3ebe1a3d878d07U, 0x3d6cbaea3e2925a4U, 0xbdb712f5bb09ad1cU,
  0x3dbb317dbd64fcc4U, 0x3e3c185d3d9ac598U, 0x3cd24253bd817cc2U, 0x3e1789bd3e137370U,
  0xbe827b6c3dadd1a4U, 0xbe148836bd01490eU, 0xbdf370ee3d812f75U, 0xbe0cf153bdc2d857U,
  0x3d3f5871bc91d68aU, 0x3d5a109e3e0592ffU, 0x3e0c33e1bdd9c355U, 0x3d2ec2cbbe0624f3U,
  0xbe091e323dffee10U, 0x3d817500be06542aU, 0xbe09266fbe1da112U, 0xbc2b8fe73d154293U,
  0x3d8af4c1bcef2728U, 0x3d508352bd86c12dU, 0xbd9d0c323da92b4cU, 0xbdf6d4773e5aba20U,
  0xbe990b6d3d9a48d3U, 0xbe2cb6b2be0eb864U, 0xbe0f083dbdc55d62U, 0xbdcfdbd03dc78cbbU,
  0x3cbcf7e5bc8b8ac5U, 0x3e2a6cddbd059dd5U, 0x3e286c543c29d90fU, 0xbe4d881dbe6d5f03U,
  0x3e8397003e8b3388U, 0x3e856e5a3de229a1U, 0xbd81d7dd3b1f04bcU, 0x3dab572dbd4baa39U,
  0x3dc54eafbe83c963U, 0xbd22771e3a4af200U, 0xbd0c4109be255a64U, 0x3daa8142be9facf3U,
  0xb98b9a403ec05dfbU, 0xbe3ff1273e316204U, 0xb9b90e2ebe2e0456U, 0xbe01ecae3d3509f0U,
  0x3e359a833e64c7a8U, 0x3e8d1e0d3e2f501bU, 0xbd835968bc2c0853U, 0xbe8e9da43e1d7253U,
  0x3dae0a093e17c557U, 0x3da0d73cbd387a8dU, 0xbdaed906bdacc46bU, 0x39957f05bce9e11bU,
  0x3e17bcf1be512fe1U, 0x3b2b40593d7fa4acU, 0x3e88d432bd73d9c3U, 0x3e69aaf3bdedf9ccU,
  0x3ea9461fbe0c3f80U, 0xbd0dd265bdaf02d6U, 0xbcc9adc5bd81f39bU, 0xbc3353b5bd202a56U,
  0x3c6657f1beabca33U, 0x3eb261783e199c17U, 0x3e4bc816bde601ebU, 0xbe802d773d2db781U,
  0xbf004b613e76c913U, 0x3e0b47e6be2b0733U, 0xbde7fde1bcf67f5aU, 0x3e168204bdd42eb4U,
  0xbe79d0f83ec72825U, 0xc00b5b9bc06f015aU, 0xbf830e3ebfe89ff3U, 0xc048e37fbffd65a8U,
  0xbfaec089c049ab97U, 0xbfc58403c06d89b7U, 0xc08e92e3bfc35408U, 0xbf966d56bfe27437U,
  0xbfbee758c020edc5U, 0x3e87d5073f026b85U, 0x3e79e81f3e36c5a7U, 0x3f425a863db4c3a4U,
  0x3ec1f3f93f08a589U, 0xbd2d71e53d0a968bU, 0x3e85de9e3e1a9594U, 0x3e66ddcdbdd064e5U,
  0xbdcfcb463de2fcd8U, 0xbe66db2ebe29f0ebU, 0xbf4f6e33beeeda44U, 0xbcba1c13be85a5bfU,
  0xbe35d95ebe601dcdU, 0xbf891492beff4b46U, 0xbe8089e7befa1935U, 0xbf37ef7ebf7c11b5U,
  0xbf800896bed86a3aU, 0x3dc5ac02bddd6645U, 0x3e332d72be9339b0U, 0x3d8160ccbea6629eU,
  0x3e6529bbbe2fba90U, 0xbcfb5659bed01caaU, 0xbe4f54fbbea1c65bU, 0x3e399edabdd637d4U,
  0xbe0893c6beb8197dU, 0xbe5f27afbd9fe698U, 0x3e67fa9d3e81cd6cU, 0x3cf888eb3cf06165U,
  0xbe09ded9be2b678aU, 0xbdae34c3bef79e00U, 0xbe5bb9643e635ab6U, 0x3e5327efbe0c6024U,
  0xbdd7400a3cd108aaU, 0xbfd24c6abeb42480U, 0x3f2466a43ebe23f0U,
};


