/**
  ******************************************************************************
  * @file    har_adaptive_clipper_finetuned_data.c
  * @author  AST Embedded Analytics Research Platform
  * @date    2026-03-05T11:44:42+0100
  * @brief   AI Tool Automatic Code Generator for Embedded NN computing
  ******************************************************************************
  * Copyright (c) 2026 STMicroelectronics.
  * All rights reserved.
  *
  * This software is licensed under terms that can be found in the LICENSE file
  * in the root directory of this software component.
  * If no LICENSE file comes with this software, it is provided AS-IS.
  ******************************************************************************
  */

#include "har_adaptive_clipper_finetuned_data.h"
STAI_ALIGNED(8)
const uint64_t g_har_adaptive_clipper_finetuned_weights_array[730] = {
  0x3d8c661e3d4fd98aU, 0xbd8fbf7f3d74d0b1U, 0xbca029ccbd87930dU, 0x3daccdc03d90956aU,
  0x3dfb9aebbc5a615eU, 0xbda1ea9b3c29a03fU, 0xbd0cfcc0bd87136fU, 0x3d20d9fdbd6c0000U,
  0xbe0b529e3cadbd9fU, 0x3debe5e43dc34786U, 0x3c21ba07bdb00555U, 0x3c410075bc95dc07U,
  0xbd660fc63e011596U, 0xbd2edbaebdef68bcU, 0xbddb6ab93d9c1c01U, 0xbd8102bd3e028ed6U,
  0x3a6e33483b387283U, 0xbca8f2923e100db0U, 0x3c08f5823d6883e5U, 0xbe0862f23e0c31baU,
  0x3d89126f3d987e1cU, 0xbc02e7a13cf7c97bU, 0xbd2b2d5cbdb086b9U, 0xbc57fc883ddbd963U,
  0x3d95e1843dae734aU, 0xbe0bcbb23d73ef76U, 0x3bb62310bd0848fdU, 0xbd4cc8d63d39ae01U,
  0x3d836aa23d12e405U, 0x3d16a6173db735c5U, 0xbd8f98343c99c493U, 0xbd9db0f5bd862309U,
  0xbd86b7edbcae03f2U, 0x3e01056e3c05c5c8U, 0xbcdb1f873d497195U, 0xbe01eaab3d6825e8U,
  0xbdb8304a3e244577U, 0x3d07a0a43de303f7U, 0x3d517a303dc0c03cU, 0xbd808894bc87b611U,
  0xbf062dbcbef17c51U, 0xbefa41b93cf92a4eU, 0xbf0923d5bda1de5cU, 0x3ed41fe3bef05d17U,
  0x3f0a43563ed3cfc7U, 0x3eb4f32b3ecb71a4U, 0x3e46e7203f204faaU, 0x3e5a2f68bed73dd8U,
  0x3cc3a9113eab18f2U, 0x3e45fb88bce1e8ccU, 0xbe1af276bddb6dbfU, 0xbe6958553e484bf2U,
  0xbdbb98863e00fe42U, 0xbe34e0c0bd7cb6c2U, 0x3b3112c5bd30d8b4U, 0xbd568025bd9c5057U,
  0x3da8b60f3d3befbeU, 0x3d40cc96bdf0093aU, 0x3e1a126a3d2e5599U, 0xbe02c68c3cb1bc52U,
  0x3bb5c03bbd8a6ba4U, 0x3db7cd4ebe094faeU, 0xbd67c19dbe8cdc34U, 0xbdc767343e5c140cU,
  0x3dea33463d3c00aeU, 0xbc8a19c3bd76870fU, 0x3d9a23af3bfdc26dU, 0xbe0a03123e00ee9eU,
  0xbe3d3853bd433254U, 0xbe01cbc3be4d80a8U, 0xbd64a3933d8590c1U, 0xbd3f90323e1249d2U,
  0x3d52acce3ebcb8c9U, 0x3dc846be3df51c17U, 0xbd1798c9bd7cf42aU, 0xbe56b3893e0dc21eU,
  0xbe2fb56cbe5ad03cU, 0x3d42e6fbbdd93a74U, 0x3cd516bf3c7786c9U, 0xbdf649b33d5f5813U,
  0xbd9fb287bd594204U, 0x3e3aea023ba137ecU, 0x3d89f89c3e43de2cU, 0xbe20976ebc275322U,
  0xbdf36450be4dfbafU, 0x3cf29b923c99669fU, 0xbdec146fbdea4c7eU, 0x3dde49a4bdbfd60bU,
  0x3e2c418fbdd0beb9U, 0x3e3a9cc73ddc5195U, 0xbcf1fa1abd6f0d36U, 0xbd3ade293d966ba7U,
  0xbcd866cbbc1726e5U, 0x3de269813db3ed21U, 0xbda3ac9fbe08443bU, 0x3d4efa693e0d73dbU,
  0xbd2ac9ee3d8d443dU, 0xbd95fd093e0aea61U, 0x3e34d821bd87f2acU, 0xbe150cb83e43d901U,
  0xbe035dfabe0cd99bU, 0xbd9a6cd9bd93f1d7U, 0xbdb157c6bd22aedeU, 0xbdcab067bddfd83dU,
  0x3d0cf0783e339f2eU, 0x3e14c7e63e0c0635U, 0xbc91a2a33c8544f4U, 0xbd815f02bd775f1cU,
  0xbe1fc4d03ddd579eU, 0x3d7283de3d668e9cU, 0x3e2734a63d514690U, 0xbe2046673e301e11U,
  0x3d8b54c03e13793bU, 0xbcb0510ebbb2f659U, 0xbdadda44bbcf3110U, 0xbd10d757bd02ce33U,
  0xbe1f01773d802d49U, 0xbe974ec03bb5f2a3U, 0xbdc1185dbd901fc9U, 0x3e00cb9ebbab85f3U,
  0x3dadac49ba911111U, 0x3dd2c665bb5509f8U, 0x3df408413b2316ceU, 0xbdb3c3efbe023a57U,
  0xbe20c19dbcdd049aU, 0xbbb57ff9bd160f4fU, 0xbd81d376be5d86a1U, 0x3d8279dbbe5a0d44U,
  0xbe100bb1bd19469dU, 0xbda7e011bb0eae83U, 0x3e960da43e4f6536U, 0xbd452ffabbc50729U,
  0x3d1e8947bd200a78U, 0xbe2efc503c9ec2e2U, 0xbda8ef313a8a34b8U, 0xbd20113d3d20e9c9U,
  0xbdaec407bd552b34U, 0x3bb6a2ae3d2fc593U, 0xbd1097b7be1bcdd0U, 0xbd8651ab3e2e5930U,
  0xbdcaf043bdcc7058U, 0x3dc59abcbd657f2aU, 0xbe5400d8be290d64U, 0x3e0a6cd23a6bc74fU,
  0xbe1070193e58e7adU, 0x3e0439903e2b40cbU, 0x3da162c73e04e8eeU, 0xbe18b1253e666b8cU,
  0xbdc5ba1c3dfb78bdU, 0xbca351d6be5254f1U, 0x3e1333963d75df70U, 0x3dee193dbd2cd7fdU,
  0x3cdbc763bbc1ac93U, 0x3dff60a1be40bdb5U, 0xbdb55e4fbe0bfb25U, 0x3cc73fa4bd5db0eaU,
  0xbdcb5facbe38c8e6U, 0xbe2687cebd0dcb0eU, 0x3b411a29be5f5c1eU, 0x3d73dc003de1b0a2U,
  0x3e1a8bd73d4ec725U, 0x3d4e53133d69897cU, 0x3e81e7893c821b79U, 0xbd5416f43e12f245U,
  0x3ce0615f3d56896cU, 0x3d3553e13cc9a891U, 0xbe1bd8e4be3a61e6U, 0x3dab9f473dad72f7U,
  0x3e84ce993b244f85U, 0x3de6f731bcb83347U, 0x3b4b687dbe641186U, 0xbe80b7003b85f305U,
  0x3dc1b4223dc38012U, 0xbdfcdab2be503a4eU, 0x3def86c1be4f5e2cU, 0xbdaeb9013e226c79U,
  0x3e2db831bdebecb9U, 0xbda7d63a3dd4df6cU, 0x3d386cea3e161118U, 0x3c9322483c6d4fbcU,
  0xbdfe8de93d96ccf7U, 0x3e3150743e089c6bU, 0x3ddb32143db84ec4U, 0xbe0046fb3c8cea06U,
  0x3d77f4f23e43fe57U, 0x3d8aa9bfbd26086bU, 0x3dd1c154bcdf0e62U, 0xbe1918753d8c09d8U,
  0x3da009dcbe721d7eU, 0x3cdd4b1f3d184611U, 0x3dcf41b63df40e9fU, 0x3d145c803e6da40dU,
  0xbe189a62be0f8987U, 0xbcbae9b3bda38cd6U, 0x3e6b5f8f3dff77b6U, 0xbdb4e774bcb12704U,
  0xbe5577d039a57358U, 0x3dd9b410bcfeee4fU, 0xbccde9f43c9158e0U, 0xbe2825cbbe1c74a7U,
  0xbcf69e633e0673f3U, 0xbba49c793cc4395eU, 0xbd06acd3be600d91U, 0xbd66f495bc2a44e7U,
  0xbe3cfd41be361169U, 0x3c6ad7ddbe004e1eU, 0xbddfa3423dc9113dU, 0xbda520923e80c7f4U,
  0xbca51a503e29b2a7U, 0xbd58cb783b05b6e8U, 0x3d93eb38bc89337cU, 0x3e3bca8bbd094157U,
  0x3cf90e6fbe47bb18U, 0x3e09d0edbe109019U, 0x3d90b106be30e29fU, 0xbe19eda93de7ece8U,
  0xbdaa6f423ddff408U, 0x3dcfd13bbdb8c473U, 0x3dd9fb5cbd4994e6U, 0x3d4edaec3e66389aU,
  0xbe071c77be7ade58U, 0x3ded6338bdee1e9aU, 0x3d7bc4b33d52000aU, 0xbe1dfb77bd4f97daU,
  0xbc79cf533e1e2af9U, 0x3e4085e5be584e4bU, 0x3de859be3dc4879bU, 0xbdea31643bfe7b3aU,
  0xbe3c8affbe6625aaU, 0xbe072e34be39e10dU, 0x3d7cdad8bd6df3f6U, 0xbe3813babb3f5a9cU,
  0x3dbe34ebbd2f8077U, 0xbe8ad7123de0afd3U, 0xbd0215fb3e13200cU, 0x3cd007d63da8ab7eU,
  0xbbf17808be53b38eU, 0xbe470e593dbfcb78U, 0xbcfc58ec3dae345eU, 0x3dac317d3decd63aU,
  0x3df5e0ad3e31d53aU, 0x3e04550bbcdadf18U, 0x3cee5e05bde554c6U, 0x3d795a7dbdc5a70fU,
  0x3d262defbd0dc120U, 0xbe183bcfbe4d703eU, 0xbe1e8a50bd68578dU, 0x3c1547cf3d5609c2U,
  0x3dbf038c3dbc452bU, 0x3ddb67fcbd6b7759U, 0x3e2fb5c8bcd926f4U, 0x3e0c5ff33deed13fU,
  0xbdd08e113dc31e16U, 0xbdd6c6c53dfb539cU, 0xbe13349cbc41f816U, 0x3c7f817ebc9e8992U,
  0xbd7488513e50e8a0U, 0x3da20141bd86bd66U, 0x3cec8ffe3e3b6371U, 0x3d8346613e631e8eU,
  0xbe811773bd016309U, 0x3dcf3b37bca153a5U, 0x3d055be13da0ae4dU, 0xbe2f43ee3cb01746U,
  0x3e2456e93e2d7f32U, 0x3e3acfe6be3a6bdeU, 0xbb9f185abdea0f16U, 0xbe248a5f3d8aa6eaU,
  0x3db50ac9bc59db41U, 0xbd87b77abdafcd4eU, 0xbd9d0a2fbe1c046dU, 0xbe0153e8bdc24e80U,
  0x3e0a32a43a73e916U, 0xbcee62723d93c8b5U, 0x3cc040c43e2d0787U, 0xbe9dbae63de4894cU,
  0x3da70721bdad4658U, 0xbdcce3a6bd25a2f6U, 0x3e14fa5bbe72b4d6U, 0xbddf61a93e524f2aU,
  0xbe2356183e3326ebU, 0x3df8c0a23df9ffe0U, 0x3e224ee23d536effU, 0xbc2f496c3cf0e6f7U,
  0xbe111787bd2303c0U, 0xbe26a89abdbf68a7U, 0xbe11783cbd8ce523U, 0xbca2fb45be004964U,
  0x3e41ac3d3d99698aU, 0x3da8c7903c053a47U, 0x3db43f083cb34bb9U, 0x3cc38b7bbe5b913aU,
  0xbe655f7a3da9e9c8U, 0x3de3df6fbd9baa8dU, 0x3ea1d849be163a19U, 0x3d9f81acbdcbd1b8U,
  0x3e34dc1b3e0502d0U, 0x3e005a9ebcf51f88U, 0xbd842e1f3d4be571U, 0xbe6e7fcd3d91626cU,
  0xbd620a573a8721c3U, 0x3caea368be1a2913U, 0xbda2b5ef3c429c6eU, 0xbdfa62053e43da96U,
  0xbdf7b4053e520db1U, 0xbd62072a3dc46f70U, 0x3e48565b3d065286U, 0xbdd08519be61f96cU,
  0xbe139feabd70636eU, 0xbdb48332bd88afdaU, 0x3ddfcdfabe5bcb4cU, 0xbdd433f33d5c3ab2U,
  0x3e44c6d83e4e3c9bU, 0x3e3e119bbdaa0885U, 0x3e56fff7be63c8bbU, 0xbe190fda3d0a79aeU,
  0xbd56b961bd68d36bU, 0x3b1a975fbd6a1599U, 0xbdb94f8bbe577b61U, 0x3dee1aeebd5cb867U,
  0x3e83219ebd9da927U, 0x3e9ec421bdf07882U, 0x3e88c29abc299fe5U, 0xbe0acf32bd3f07a1U,
  0x3dc33886bdc5cd0dU, 0xbe4d2c61bdbdda23U, 0xbd3fd9fa3c8c7416U, 0xbe7ad73f3e03141eU,
  0x3dae37acbdbcd83dU, 0x3d4b4714bdcb2fd9U, 0x3e03a9fd3c52b5e3U, 0x3d6b8c65bdb20fd5U,
  0x3dd6eab6bdfdc65bU, 0xbc77e4453d05ab63U, 0xbd86814d3c4e2bd9U, 0xbdd8cf8abace2ec6U,
  0x3e320d02bd78a2b4U, 0x3ca0577e3e2741c9U, 0xbe1ff4e43e054076U, 0xbbb0787dbbbe4a49U,
  0xbe6000a0bd9f33f6U, 0xbe75feefbdccdbe4U, 0x3c9ecad9be27107fU, 0x3e0abac93d289d13U,
  0x3e372e773e0971eaU, 0xbe2dcd4f3e1987f0U, 0x3e3cc3c43d827459U, 0xbe1230bb3e35fc7bU,
  0xbdb6c5bb3de3a6ceU, 0x3d93adb03d79b5dfU, 0xbdcf79d73df50dabU, 0x3e131d343de1a8b0U,
  0x3e37f582bd339aeaU, 0xbdc6ba443e17f9ceU, 0x3deefea4bd07fb44U, 0x3e142b6cbd42d9e8U,
  0x3d44796ebde574f1U, 0xbe2b3260bd621d26U, 0x3e3e44debe469eadU, 0xbd4865c93dd69e0eU,
  0x3dd86f3cbd3131deU, 0xbd529f48bd913240U, 0x3dbb24e03c8616dfU, 0xbe2b0a8bbe06b634U,
  0xbdc4dfddbdfcce69U, 0x3d64b17e3d5d6a75U, 0xbe21f87dbd8f3447U, 0x3c8b1714be11a116U,
  0xbda297933e427d28U, 0x3e3c72adbe0dc290U, 0xbb995fe4bdbc96e5U, 0xbddae3c13e97b87eU,
  0xbd129172be31dcdbU, 0x3c72c9913e088c6eU, 0x3d5fd237be4fcc25U, 0xbe3555603e1b3eb0U,
  0x3df111383da570daU, 0x3db8bd9a3e307eefU, 0xbbbf2e263e1c2a8cU, 0xbe735afcbd75c66dU,
  0xbdefc077bc7e7acfU, 0xbdc0c9d3bc663693U, 0xbde47ecb3e31871eU, 0xbe162eed3d533473U,
  0x3dc37d05bcacbbffU, 0xbde69db9bc48424fU, 0x3e6ada6e3c19dde4U, 0xbd9736aa3da5eb7dU,
  0xbe0341eabe2f8c91U, 0x3b0a2006be52c71eU, 0xbdc27c26bda128f4U, 0x3da97119bd1ce351U,
  0x3e6f5dbb3e561b58U, 0x3d6f4e9dbe2d1553U, 0x3e7b9e713e2c2af2U, 0xbda677aabcd15c2aU,
  0xbe79cbd8be6d87c4U, 0xbe575c94be4e8298U, 0xbd33288ebda4e0f9U, 0xbe493471bc29f83dU,
  0xbe37da2e3dcd59ecU, 0xbe2180543be3f942U, 0x3ec8434a3d025069U, 0xbce0167abdfa41f3U,
  0xbe80c46abe0a92d2U, 0xbd85f975be6337fbU, 0x3dddc218be09b262U, 0xbd882073bdd4d98fU,
  0x3e579314bcc2201aU, 0x3e53fe9c3e16f543U, 0x3d1acd2dbe2c6faeU, 0x3d8826053dfe557dU,
  0x3bc877673d9edb46U, 0x3dcb5f5f3ddb2896U, 0xbe56920bbb95963bU, 0x3e5192a4be63a9acU,
  0xbccaeb6a3e1b50ffU, 0xbd534fcd3db5d75dU, 0x3e6e3d073dbc07c1U, 0xbcd0bb26bcdf7debU,
  0x3d213c783d4dd5caU, 0xbe88bf163e18a4d2U, 0x3d1a0eeabddb70d2U, 0xbe26ddc13da243dfU,
  0xbdce909f3e1f70d9U, 0xbc0ee5d93e8096f5U, 0x3e2de50a3e1a46f0U, 0x3e23f7383dcee616U,
  0xbe4586883db662c9U, 0xbe3afa19be1adfabU, 0x3e4f2f37bd480890U, 0x3d36a6983e67c28bU,
  0xbcf7a2e63e91eec0U, 0xbd3e88a1bd4c21f3U, 0xbe0c51f53ddbb5d0U, 0x3dbf5cf63d990c72U,
  0xbe1a5c5abd8e5b7fU, 0x3d169aecbe42c8c2U, 0x3d87ac36bd790d5aU, 0xbddd788cbdddb64aU,
  0xbdea8f2f3def7720U, 0x3eaaa80bbdb9365aU, 0x3e7085003dbab09dU, 0x3e0e40303e555ef5U,
  0x3c237fc7be41aa55U, 0xbe3eace6bd7cb2c4U, 0xbd4ebb803deab76bU, 0xbcc8e02ebdc6cdd4U,
  0x3e1cc4a2bddef968U, 0x3dd99e9c3de9cb5bU, 0xbce86ff0bcb174dbU, 0x3d9d5b18bdcf3f79U,
  0xbd88d9c1be6f7e17U, 0x3e166b5f3d602705U, 0x3d164421bbdb1911U, 0xbd96177b3e230a42U,
  0x3e4780b73ca2ca67U, 0x3df8c940bdffdc68U, 0x3d832ebdbe03ead8U, 0x3cf6c803bcbf92c6U,
  0xbe3f1f803be3753bU, 0xbd05b97a3dda9c78U, 0x3c681bc7bde459faU, 0x3defff883daf10b3U,
  0x3d8a3547bda755bcU, 0xbca61d1fb856c64bU, 0x3e123dbd3e1c63eeU, 0x3e0c4e3c3d5689deU,
  0xbde25812be2291ccU, 0xbe335ad6be68df3aU, 0xbe075451be13c53bU, 0xbc8b9caf3dd92820U,
  0xbc54430fbcebaa79U, 0xbc8127e8bd2b9f56U, 0x3ca2ddc63e05fbb4U, 0xbe2457b8bc8afc28U,
  0xbe32f5ebbe6e83b9U, 0x3d559ecb3c02ac06U, 0xbc6b598b3da94961U, 0xbd10bbdabd2f1ca9U,
  0xbd6da9dbbbd3f24dU, 0x3e16a9ed3d8de9beU, 0x3d324faabe3b03c3U, 0xbdbee9873b263712U,
  0xbccf0058bda1c46eU, 0x3d28fa50be642936U, 0x3d2db906be77a3cdU, 0xbe07dd1f3df84c0cU,
  0x3e675b2a3e917ee7U, 0xbd7ca43bbe83ee6bU, 0x3e737355be00861aU, 0xbda0467b3e8fb8f9U,
  0xbe93cd013c94bb51U, 0x3d53808fbe3981b3U, 0x3cd9a6a5be8b8065U, 0x3dded8f43e60dc2dU,
  0x3d7358ba3e954b7bU, 0xbd83f8843b920c3aU, 0xbde082da3d4d0207U, 0x3ba9f45c3e666f6eU,
  0xbc863d14be356f3fU, 0x3d3e9f46bd7eed67U, 0x3e13315fbe7f0939U, 0xbcfc0475bbbc7382U,
  0x3e30709e3ea7493fU, 0x3e9956913d098f44U, 0x3df02276bd537362U, 0x3e1249d5bd917c5bU,
  0x3d331112be0f4d69U, 0x3db3bc1e3d71f9e7U, 0x3d73a442be6a259fU, 0xbdaab1c83d5a5889U,
  0xbc99cd20bda4eaf1U, 0x3ddde324bcb975f0U, 0x3e97a9013e2de66dU, 0xbe69b1e03d6fb6b8U,
  0xbd0d245fbe5135adU, 0xbc882dfebd42be03U, 0x3e7bb2a4be147854U, 0xbd74ade6bd5dff5bU,
  0x3dfe41123dcbb363U, 0x3ea5147dbd247483U, 0x3d9e8695bc83e9dbU, 0xbdbf000c3ea78d59U,
  0xbe0d78b9bd73ee01U, 0xbd02cca03c97348dU, 0xbdab5c57be711715U, 0xbcbd99f63e1bc776U,
  0xbb4d05593e238830U, 0xbe6d76803d94e171U, 0x3eaaf51dbd969d5fU, 0xbe31badd3e2cb407U,
  0xbc0ac246be45df00U, 0x3d69bf47bd5442e2U, 0xbdad6bc3bd870d39U, 0xbe2ed4053dc14177U,
  0xbe35f671bda4c4ceU, 0xbd9ec32a3dc2493fU, 0x3dbdb2aebdb7388bU, 0xbded86c23d677eedU,
  0x3d40cccebe21ef4cU, 0xbe5eec8ebd9c7e1eU, 0x3cc9fa6e3e44a7f3U, 0x3df9f9f33dcf7ec9U,
  0xbc5ce3e43e15f3caU, 0x3e3ad69abd9ec65cU, 0x3e0a8b343d934a6dU, 0x3d0a6bf6bc283cfaU,
  0x3c8000da3dc82d3cU, 0xbe3fe19a3e0e96c4U, 0xbe9daf13bdb6c825U, 0x3dd81dc3bde9b21fU,
  0xbdafcc17bd43e05dU, 0x3e74611b3d652da5U, 0x3eaeb5a0bdc55ab3U, 0xbdc1d7363da90d7dU,
  0xbe7f8be73dc70c72U, 0xbdacab2fbd3fe2f0U, 0x3d2afba5bde4c6aaU, 0xbe3e96d1bd8d5ab0U,
  0x3e261f3fbd4391cfU, 0x3d9ff321be302cecU, 0xbdeaaa103b884564U, 0xbe0c02883de7388cU,
  0xbe86c956bd9a5feaU, 0x3ddde7243d1f6ff0U, 0x3d2303843dd05627U, 0xbdf13dfb3e01035aU,
  0x3e22d8a0be031c12U, 0x3dca4ca7bdb06473U, 0x3da476bd3d85e00cU, 0xbc3c10813d9268afU,
  0xbe8303dfbe3bd596U, 0xbd257f863e5797d6U, 0x3dba90143d31b3a4U, 0xbd99a6573ee3c4dfU,
  0x3db50666bdf136caU, 0xbd1e57b2be3fccfdU, 0x3e8ae1a13d8f60bdU, 0x3c6e3bcabdd7c519U,
  0x3d00a0d3bc4f1b10U, 0x3ceb3fe63de746d5U, 0x3e290f7c3e167cb3U, 0xbd8b7218be364a7cU,
  0xbac4a7f5bd37c4c6U, 0xbd153f493e623d98U, 0x3e24f32dbcfe8347U, 0xbdef1856bd91ab0dU,
  0xbc6be4b33e542994U, 0x3c7ae4a9bd88e5a1U, 0xbe2418cc3e2ced45U, 0xbdd9119b3eaeff82U,
  0x3e96864d3e20b587U, 0x3dc52f213ceda69cU, 0xbd8cb4d83e896d3eU, 0xbe906348bd852164U,
  0x3d0c16edbe460ce3U, 0xbe01a5d83cb78361U, 0x3d0c8ee4be2c84deU, 0xbbb2c7213e878971U,
  0x3e871c593db68f09U, 0x3ea55c6e3c2b3427U, 0x3e2a44acbe0e4ad1U, 0x3e70d91d3be61d89U,
  0xbd368d77bca0ef79U, 0x3cebc3f1bd57ea3dU, 0xbdcc0f9d3da5d5c8U, 0xbe8b66bebce6ff19U,
  0x3e49a1953db18784U, 0x3c938e05bda69375U, 0x3db613883d60115eU, 0xbe6dce5dbd49cc8eU,
  0xbe016ab5be223e6fU, 0x3e43c1dabe4b5e80U, 0x3e2f3b9e3d05d8dfU, 0x3dd21aaebd986142U,
  0x3e83c8753d9a4ac0U, 0x3d3b55463e1a84e6U, 0x3e0a6a6ebe00fedcU, 0xbe0c20093e78f481U,
  0xbe65111c3d5800edU, 0x3decb7813e4efad9U, 0xbd935cd13c9c96d4U, 0x3d91412ebcc54b6aU,
  0x3e6737f53daad228U, 0x3d27dce3bde744ceU, 0x3e2295f73e35e369U, 0xbe79129b3cf82ee7U,
  0xbe0aecf8bd6f8208U, 0xbe2867bc3d9e7073U, 0xbe02949cbe0f11d4U, 0x3ce8647dbc9ada92U,
  0x3da4fe813e2a13e8U, 0x3e0a10eabe36887dU, 0x3ced2857bdefa1f3U, 0xbe0454f03da37fa0U,
  0x3dcfe02ebe2c4cf1U, 0xbe40a03fbe32a7aeU, 0x3c349d953ceb60bdU, 0x3d75f446bb53f834U,
  0x3d5394a1bd9ab4e4U, 0xbdd3d70f3dd092baU, 0xbdddadb13e4c096dU, 0xbe7d1a523c8633f8U,
  0xbe30651abe080d12U, 0xbe4a5218be024486U, 0xbda73d0d3ddd44b6U, 0x3d51d1f4bd28688aU,
  0x3e184aa9bdaa4f97U, 0x3e2a35e03d640451U, 0xbe1dd2f1be5d5f7bU, 0x3e4df1b43e3341e5U,
  0x3e8578da3db6e916U, 0xbe0f8fc53d2d3ee0U, 0x3d5d8e5cbcd12c0bU, 0x3d73dbcebe22622aU,
  0xbd58a328bd17eb0bU, 0x3adb30e2be48b7d3U, 0x3df692d2be962011U, 0xbd131a5a3e5894f5U,
  0xbe7b07f63e26e026U, 0xbcebb3c0be1e16a1U, 0xbe32c4803dbabfe5U, 0x3e1550903e33e5f4U,
  0x3e8c33943e5a4f73U, 0xbd4642ec3cc7c178U, 0xbe6d3bec3e43bc71U, 0x3dc0581e3d75ffeaU,
  0x3d57a1c7bdb6c435U, 0xbdf0096bbd7186f8U, 0x3cea1cb5bd42529fU, 0x3df12abbbe0ed4c1U,
  0x3d1d55293dc33ceeU, 0x3e64a45fbde540a2U, 0x3e808a35bdb2f9bcU, 0x3e8d38d6bdf1ec0aU,
  0xbd8bf300be0c8f10U, 0xbc70880abdd200cdU, 0x3caf29e2bda7fb75U, 0xbc3aa24bbe5f1930U,
  0x3eb69fde3e810856U, 0x3e2edc1dbe16e7f9U, 0xbe4f4b013c15be6cU, 0xbedbef5f3ddd97d5U,
  0x3e14e31cbe2619e4U, 0xbe4fe733bd8f77f9U, 0x3e2705d9be27b56cU, 0xbe61cb2c3e812ec9U,
  0xbe678541be6c8428U, 0xbe22cfc4be204bdeU, 0xbe740a2bbc5d25f7U, 0xbd49801fbe721625U,
  0xbe18dd40be6e6a33U, 0xbea2e2f3bdfdddc1U, 0xbe6b10fdbd90878fU, 0xbe81f36fbe6cfd35U,
  0x3e6935bd3eef9dbbU, 0x3e767f1f3e0b8545U, 0x3f3841193d3c90e9U, 0x3eaed31e3efc8d8fU,
  0xbd77e7c0bbe5d2edU, 0x3e6249a93dde346dU, 0x3e66ce35bdf322faU, 0xbdceac893d907bd5U,
  0xbe42ebeabe0481a9U, 0xbf4666c6bee0e1d5U, 0x3c5f477ebe6d870dU, 0xbe1cd610be36133dU,
  0xbf847e2dbeebe2d4U, 0xbe589ff8beebfb15U, 0xbf2e0633bf72bc36U, 0xbf763c98bec89ff2U,
  0x3ddbaf3ebd9531ceU, 0x3e089768be7daaebU, 0x3dc466debe9305adU, 0x3e8425e2be173656U,
  0xbd91c26ebec0112cU, 0xbe2f6706be8c1c6dU, 0x3e0d24c7be173963U, 0xbe36f42abea52918U,
  0xbe65512cbd827a53U, 0x3e4570a03e702f80U, 0x3d3f52843c6f427dU, 0xbdea58e0be26bc5dU,
  0xbdf76c07beee8a92U, 0xbe51df853e4f9312U, 0x3e2d57dbbe321187U, 0xbe1178f03bdfe2ffU,
  0xbfcd1d40be9b9274U, 0x3f1a06133ea3a4aaU,
};
