/**
  ******************************************************************************
  * @file    har_tmr_mean_1_data.c
  * @author  AST Embedded Analytics Research Platform
  * @date    2026-03-05T11:45:17+0100
  * @brief   AI Tool Automatic Code Generator for Embedded NN computing
  ******************************************************************************
  * Copyright (c) 2026 STMicroelectronics.
  * All rights reserved.
  *
  * This software is licensed under terms that can be found in the LICENSE file
  * in the root directory of this software component.
  * If no LICENSE file comes with this software, it is provided AS-IS.
  ******************************************************************************
  */

#include "har_tmr_mean_1_data.h"
STAI_ALIGNED(8)
const uint64_t g_har_tmr_mean_1_weights_array[730] = {
  0x3cf5844d3d00303cU, 0xbd2f21123cd06858U, 0xbb13e33fbce2cd19U, 0x3ce01e923cd93a2fU,
  0x3d69cab8bc2853e7U, 0xbd0e849a3c1bbb85U, 0xbcbe55f1bce06bd5U, 0x3c95061dbd1595edU,
  0xbd3ae43a3ac8de3eU, 0x3d2b18b93ccfd88dU, 0xb9f77f3fbd223eebU, 0xbb2cbd9fbc5c3d65U,
  0xbc4d64303d1dcd0cU, 0xbca63ff9bd1cf9b7U, 0xbd23a0a73d01be1fU, 0xbc58fc0b3d0c8422U,
  0xbbba881abb0fbee4U, 0xb870b2093cc8aa5dU, 0xbb9a53573cae4ecaU, 0xbd47f3263d22e938U,
  0x3cd78ee33ccc1c67U, 0x3b58727a3c666712U, 0xbc365425bd286d9bU, 0xbacfc12d3d4ce610U,
  0x3cc2895e3cf381f5U, 0xbd49cf873ca1b3d9U, 0x3c073930bc8cb89fU, 0xbd09bc053c90dfe9U,
  0x3cf38aeb3c8d1dc0U, 0x3c7211663d67f59cU, 0xbd194d6d3b69cc0dU, 0xbd094cd2bcc25dd8U,
  0xbd0c168fbc77dfacU, 0x3d399a9bbb3ca85eU, 0xbc5108963c71a4cdU, 0xbd1f82d43c0813d2U,
  0xbcfec07b3d2f1e3fU, 0x3c28932f3cafe337U, 0x3c72319e3d220742U, 0xbc8c6f18bc56fa2dU,
  0xbd47ec263d85580eU, 0x3ce49cce3b77f294U, 0x3be8640ebc1437fdU, 0xbcc622a33d6208f2U,
  0xbd0b3079bc95f278U, 0xbc94a733bbe625ccU, 0xbcaeb4d43c9e1f54U, 0x3c04f012bc815de6U,
  0x3d46cff53e7f4c58U, 0x3e55ebedbd019a48U, 0xbe23c0cbbddee14fU, 0xbe7b70bc3eb14713U,
  0xbdabcac93de6d7baU, 0xbdef3612bdae751dU, 0xbb4a3240bd6da702U, 0xbd1e1a67bdb979e2U,
  0x3d9284163d58af42U, 0x3d56f1b8bd95aa4bU, 0x3e30e3e63c98f1f9U, 0xbe00822f3d8970fdU,
  0xbcc160f1bd40ba83U, 0x3d20d78cbe17c78aU, 0xbd8c68a3be68e408U, 0xbda474fa3e8d9c09U,
  0x3df2fa9b3d562e75U, 0xbb420035bd13db22U, 0x3d99da1b3bd6e759U, 0xbe3c08f73e816dd9U,
  0xbe40b4babd59e17eU, 0xbdc6f75bbe46ac29U, 0xbd9665053d38f496U, 0xbd4a5d283e6c9f6dU,
  0x3d76e9a93e824753U, 0x3e0cec963db45447U, 0xbc4e8d17bd2fa221U, 0xbe782c1b3e84885fU,
  0xbe2bfe9cbe534fd3U, 0x3c6ede31bdc829a3U, 0xb8bb1ecf3a54156dU, 0xbe0dc5313d7154fbU,
  0xbd2a1b15bd260104U, 0x3e5905a3bb38aefcU, 0x3dca54603e4a6edcU, 0xbe50dc5d3d271985U,
  0xbe008449be4aa9b4U, 0x3c859fd03ce5a9d6U, 0xbde0c403bddc48abU, 0x3da36097bd970fa0U,
  0x3e29c767bd5226c6U, 0x3e49102c3d85184fU, 0xbd0d3b83bd986c2bU, 0xbd14421b3e165332U,
  0xbcd9913b3bc44338U, 0x3d75737c3d62cdc9U, 0xbdac7687bdfc9c68U, 0x3d8898f83e31e800U,
  0xbd2925e23d8bb92bU, 0xbdae7fb63dd1467bU, 0x3e484d8fbdac1905U, 0xbe1a16473eaa4a15U,
  0xbe0ae9a0bdd5f60eU, 0xbd813b78bdb2759dU, 0xbdc65bcebd1e435fU, 0xbd9ec4b1be10a5d4U,
  0x3cc8ab483e111a93U, 0x3e1643553ddb929dU, 0x3aff66e8b836e199U, 0xbda8db6fbdb22e3bU,
  0xbe25c6773dc569d0U, 0x3c94e6e53d01493aU, 0x3e0489553d2f0630U, 0xbe12e6323e706db0U,
  0x3d3439d33debee00U, 0xbc20886e3c6feafcU, 0xbd7fa517bc7851f1U, 0xbd7857a8bd25d35eU,
  0xbe2772a33d2d48e3U, 0xbe51385a3bc7d12eU, 0xbde54b7fbd398eb7U, 0x3dddbf89bc33d419U,
  0x3d9f9dcebb98494dU, 0x3e035cea3c47bf50U, 0x3e1a31283cb3c69bU, 0xbe02ab6dbe2f0ce5U,
  0xbe287275bd469b99U, 0xbcb520a0bcbe5a5aU, 0xbd9ffb8dbe232d2cU, 0x3d0ffc5fbe807d3dU,
  0xbe177f6abd4e7647U, 0xbdbf13a73c9bdc4bU, 0x3eacc2593e54680cU, 0xbd4a3cfcbd400b73U,
  0x3c2915f0bd5f8419U, 0xbdeffb293d43ca09U, 0xbdb1bf483cb24af9U, 0xbd96bd423ceea3bbU,
  0xbdc7c6b3bd634736U, 0xbcb3117a3d3c9976U, 0x3a2b3ec2be0b61e8U, 0xbd3bf9e53e636e1fU,
  0xbdd9182ebdc1e29fU, 0x3d715bafbd0e0550U, 0xbe2956c2bde1ecedU, 0x3ddafc8abc7e8305U,
  0xbe0ae6653e09a61dU, 0x3dd9db0f3dffaebdU, 0x3d87c68d3e162fc7U, 0xbe3bb9db3ea23c74U,
  0xbdb13d473db70544U, 0xbc8df8a2be3a2425U, 0x3e0b6d8c3d7b33c2U, 0x3dd090c6bd745f54U,
  0x3d66b372bcbf4130U, 0x3e27d977be19ef42U, 0xbe013295bdca1f40U, 0xbc004796bcdd8bebU,
  0xbd65f076be388e36U, 0xbdb2f757bc0e6604U, 0xbcc145e8be2149faU, 0x3cf5ee633e3baa5dU,
  0x3e291f953c6b7468U, 0x3db79ba63c8dd9c1U, 0x3e865c193d3b26dbU, 0xbd762b393e991055U,
  0x3d5916113c934e16U, 0x3d4008143d48fabcU, 0xbdf331f9be2c390cU, 0x3d546acb3df2bd04U,
  0x3e5b4c763ca5bdb9U, 0x3dbbea6cb95fffe9U, 0xbd185100be6e3032U, 0xbe9eee793d1e94ebU,
  0x3d914ee63ddd7462U, 0xbdc4c513be2ff5a1U, 0x3d9d019dbe05108eU, 0xbd5da6e53e5efb14U,
  0x3df04476bdcd385cU, 0xbd8dc35c3dc0a6deU, 0x3da73e873dd56e53U, 0x3d738d7ebcd5e2d7U,
  0xbe000fa73db8f768U, 0x3db9145b3e1bcbfeU, 0x3d8c65f03dc11f23U, 0xbe058c28bcfcbb0dU,
  0x3d94e2103ddf307eU, 0x3d8ec223bc4a517fU, 0x3d8fa7213be8682cU, 0xbe4d39ef3e2ea6f2U,
  0x3d3e48fcbe6df957U, 0x3bf5836a3d88e054U, 0x3da43a403def52c6U, 0x3af0360d3eb8a23bU,
  0xbe28cae2bdf439c6U, 0xbb1bb3dabd3835a7U, 0x3e8bcc483e0ead76U, 0xbd41fb4dbdc95569U,
  0xbe15534bbc24c9ffU, 0x3db3e8f9bcd1d25eU, 0x3b86c5823cbc64bbU, 0xbe353de6be84ac5aU,
  0xbd4520cc3dc19008U, 0xbd41bb013cf4ac52U, 0xbd3e2dedbe7361daU, 0xbda2e792bd3838beU,
  0xbe499826be0672d7U, 0x3c86d8cfbdaf4142U, 0xbd91ca363dd1be1cU, 0xbd8f9c8d3ec51a8fU,
  0xbceece2e3dec475bU, 0xbd3673eb3c6fdde2U, 0x3dcdf30cbc0c1796U, 0x3e2f8799bd5a4950U,
  0x3b4d8d5cbe3ce464U, 0x3d905a8ebdf77a46U, 0x3d41f4d2bdfce809U, 0xbe27d5d13e0efa2bU,
  0xbd37b0583d82c46dU, 0x3e053ac2bd785046U, 0x3dd0ccc5bcc191efU, 0x3cd95f3f3ecee243U,
  0xbdf8a227be6e7168U, 0x3d84ebbabdbbc0dcU, 0x3d1d1da33d3731d7U, 0xbe2fe7f3bcd62249U,
  0xbc1f4f0e3dc31be0U, 0x3e61fb29be1fdd6eU, 0x3e144ec63ddefc62U, 0xbddb3f373b1aede3U,
  0xbe16b0d8be59dc5eU, 0xbd91c20bbe200c00U, 0x3d933bedbd8b29d7U, 0xbe455e4cbccb88a9U,
  0x3ddc87aebd018981U, 0xbe98b8fe3d7ac00cU, 0xbd0678e13e18c399U, 0x3cc0c05a3df840e5U,
  0xbb221284be45a818U, 0xbde413023d8929f3U, 0xbc283b193d2ea9cfU, 0x3d93ef063e435134U,
  0x3e049c553e0edba5U, 0x3e01c5b8bd055d58U, 0x3c6e1c5ebdd9dd84U, 0x3da955d6be38c7baU,
  0x3d49d6e1bc8b4a55U, 0xbdac1d98be55759eU, 0xbe0452b5bd84c312U, 0x3ce3dc243d2ed265U,
  0x3dc2503e3db11175U, 0x3e0b58b1bcf02a22U, 0x3e32e4bbbd17f3e5U, 0x3ddfe2253e7306a0U,
  0xbdf49b533d9f0cddU, 0xbdaee47f3dc71476U, 0xbe211b87bc54bdcaU, 0x3ca10109bbc27aaaU,
  0xbd40c31e3e11c861U, 0x3dec5e26bcf9cc60U, 0x3d82c58e3e3b76a3U, 0x3d2c1edb3ecd9be4U,
  0xbe7d16b4bd52ebf1U, 0x3d332756bc2712c0U, 0x3b1926df3d68b7d1U, 0xbe4290513d244f73U,
  0x3e2e8ce03dded4bdU, 0x3e6296edbe06c6e8U, 0x3caae7cdbda9077aU, 0xbe5695233e28e729U,
  0x3d748e08bd248eaeU, 0xbd2b85bdbd838ce2U, 0xbda126f6be0d7dd7U, 0xbe1a9df7bda05ea0U,
  0x3e10346cbbcb0a27U, 0xbb63f1b53d17ea7aU, 0x3d7a703d3e380e7eU, 0xbea195403e24678dU,
  0x3d9a13adbdc94bbdU, 0xbd564f09bd737aa4U, 0x3e19b8c0be5659edU, 0xbe03801e3e85f3b2U,
  0xbde222703e12801dU, 0x3de363053d8e9f1eU, 0x3e2de66e3d37c1ecU, 0xbc8bd7313d78cedbU,
  0xbe0675dfbd1d91e5U, 0xbdc77f7ebde641a1U, 0xbde84975bd9f5982U, 0xbc3abf23bdf71962U,
  0x3e41d7223d860e51U, 0x3dbbb304bb681136U, 0x3de899aa3c9fe918U, 0x3cdc488cbeaa2371U,
  0xbe4e67993d8619d9U, 0x3d9398e9bdb5f4ecU, 0x3e99a8ccbe0b50d6U, 0x3d950b23bde780beU,
  0x3e2d72033ddc47a3U, 0x3df4f37dbcc03d48U, 0xbd5a22653d075347U, 0xbe71d28b3dcb44b0U,
  0xbd8f7e353be50d4bU, 0x3ac1f4eebe2998d1U, 0xbd82efb1bc8af151U, 0xbdd9d6473e8375d4U,
  0xbda42fe83e260e97U, 0xbd1a1aa13d82c5b1U, 0x3e3fa9163cf40313U, 0xbe13a4bfbe9ae52cU,
  0xbe19ac97bd61642fU, 0xbd91d84dbdb430b0U, 0x3da5c08ebe37a49fU, 0xbdbfb3a73dc0e786U,
  0x3e409f343e11683cU, 0x3e6a42d3bd5ccad1U, 0x3e6f2c16be47cf13U, 0xbe3b012f3dca154aU,
  0xbd7bf38bbd96eb02U, 0xbc43e4f4bd473215U, 0xbdd912b2be309533U, 0x3db53b09bd917a2aU,
  0x3e83d48bbd6d8c68U, 0x3eb0d9d4bdbcc3d5U, 0x3e98d6823beada72U, 0xbe343188bc88f176U,
  0x3d86bd47bdd9b2f9U, 0xbdfc0cebbd98aec2U, 0xbd34804abc2cdbc6U, 0xbe84e68d3e613848U,
  0x3da2e5efbd42b926U, 0x3d142c4dbd8369d7U, 0x3e0d1a5ebada65e7U, 0x3d80c7f9be1ac741U,
  0x3d89f617bdca3504U, 0xbcb81b243be1e004U, 0xbd6a0c4139bdb06dU, 0xbdb620133c7c705aU,
  0x3e19db80bcccaa09U, 0x3d0227c63dfad49cU, 0xbe206c413de0416aU, 0xbc8f7ccf3bfd246eU,
  0xbe5871b1bd774170U, 0xbe28e720bde79297U, 0xbb17bb4bbdfe6e54U, 0x3e10effa3d17eb58U,
  0x3e236f5b3dc3d3a4U, 0xbe19b6b03deaea58U, 0x3e5483653d87b0ebU, 0xbe399d083ea72104U,
  0xbdceed0b3d97230bU, 0x3cef728e3d8b81f6U, 0xbdea20c13dc914abU, 0x3def17aa3e3213afU,
  0x3e2c0441bd1f7f31U, 0xbda10bd13dd93176U, 0x3e1b5778bc6bc257U, 0x3e0a7359bd67c1fdU,
  0x3cb8c038bdee7a0aU, 0xbdd917cbbd2a6f81U, 0x3e257dbabe1dc048U, 0xbd8ae0ff3e1c56b3U,
  0x3df02cfebd18b7e7U, 0xbd0c34c8bd71fc71U, 0x3de5b9663d0d2beaU, 0xbe560c44be43d156U,
  0xbdae7d84be02cf8aU, 0x3d29bc623d59d459U, 0xbe095715bd955586U, 0xbb9f9c60be19970bU,
  0xbd805a523e10d621U, 0x3e62e559bdb27b57U, 0x3cdc7c26bd9ace16U, 0xbe13df833f042adaU,
  0xbd5dc54fbe32fb0cU, 0xbb69fb7e3df54dbaU, 0x3d05d1babe24a222U, 0xbe484e663e5f8e07U,
  0x3dfcf8eb3d5a36fbU, 0x3dfb13213df52921U, 0x3cb1b8b23e2a7ea8U, 0xbe91ce06bd51cf9cU,
  0xbe00bbdabd226410U, 0xbd8e7a31bc0a5b12U, 0xbdeda55f3dfbbd1aU, 0xbe28e8783ddf7f42U,
  0x3df22d85bcaceffeU, 0xbda5cf0dbce324d5U, 0x3e80c1e63d10daadU, 0xbde5bd863e36725dU,
  0xbde09d1cbe318258U, 0x3c219395be43c408U, 0xbdaa55bcbdb15d3aU, 0x3d680170bc1dd15bU,
  0x3e76536a3e11b714U, 0x3dc45519be0b3d27U, 0x3e8d23713e382feaU, 0xbdb778a2bc4208efU,
  0xbe4f6052be66a4d6U, 0xbdf5291ebe51b786U, 0xbcd73a15bdbbe0d7U, 0xbe5647b53c4c6c12U,
  0xbe05ad6a3dbc9b37U, 0xbe2d4c34bc818654U, 0x3ed573473c8bdd25U, 0xbc8bbf89be44a5d3U,
  0xbe63af87bde27774U, 0xbd012a2abe6e1276U, 0x3df4a196be091ccfU, 0xbd44e1e6bdde112dU,
  0x3e4ed43d3b56d81dU, 0x3e808bec3da8bfdcU, 0xbb224a4dbe3de63aU, 0x3da283fc3e862564U,
  0x3d0d22543dc7112fU, 0x3d5baaea3dbf01d1U, 0xbe6b8fd73b8b80a0U, 0x3e6adf52beab227bU,
  0xbd6d4cf33df1c2aeU, 0xbdad9aac3db26f86U, 0x3e8fd0283d4fbafcU, 0x3c51940bbdba366bU,
  0x3ba5067f3d96b361U, 0xbe3c5f423e2e398eU, 0x3c8ae159bd5d3cf3U, 0xbe0372963d5b4d89U,
  0xbdfd76043e0829cdU, 0xbd579a423e4a07f2U, 0x3e501e5a3dd4ea22U, 0x3e5532773db7fe56U,
  0xbe51b1563ddcd697U, 0xbe0b40c3be28791cU, 0x3e5f5e04bc0e8fc1U, 0x3d9e844d3e9c7330U,
  0xbd66c20f3e595820U, 0xbd98520bbc26d2c2U, 0xbe39cb443deb7b8fU, 0x3d5a15e73d694b39U,
  0xbe1a278fbd357d86U, 0xba38c1b5be2e9008U, 0x3ccb9921bc8aefeaU, 0xbda4af46be47d452U,
  0xbe0c282e3d561165U, 0x3ec64455bd0d3ebfU, 0x3e8c1bf03dea349aU, 0x3ddafe5e3ecba8ccU,
  0xbc817f3fbe468750U, 0xbe0f6b82bca096ceU, 0xbdae01dc3df1e174U, 0xbd7fb010be22b855U,
  0x3de8b69fbdcc397dU, 0x3dc6e4433dc32737U, 0x3bfbb632bbfe39ccU, 0x3dd28a83be51e74cU,
  0xbd936f5abe5c92e5U, 0x3dc1e06f3d9d06bdU, 0x3d4fbbde3c428f35U, 0xbdd0c1813e3a9064U,
  0x3e1c8f7f3baeaf15U, 0x3dc04fcdbd93db49U, 0x3dc5b750bdf818beU, 0x3d5da52bbdb5c4dbU,
  0xbe390b703c09e7dbU, 0xbca8e6883dcdec04U, 0x3d2d9de1bd92ecd3U, 0x3de1c9dc3df0f3a3U,
  0x3d98dc21bd887611U, 0xbc4eabf13993b2bbU, 0x3debd8c33e2c8649U, 0x3df5b7413d913223U,
  0xbd9b4463be1be9caU, 0xbde7ba52be504dbfU, 0xbe0921f1bdc89678U, 0xbcc09d7a3e0a67a1U,
  0x3cb0e023bd1ea166U, 0x3c9f3970bd4e2586U, 0xbc982aec3e1d1e5eU, 0xbe55224c3d186451U,
  0xbdfaac6bbe664fc4U, 0x3d435d873d03d885U, 0xbd32daa33d8a28b7U, 0xbd78c576bc7ea8caU,
  0xbcbabd07bcce7985U, 0x3e4696fd3cdbed61U, 0x3d867d68be12b42eU, 0xbd90edae3d51186eU,
  0x3bcc6206bdc0d6b8U, 0x3d36e9c5be34ac2eU, 0x3d815fcebe5aba2dU, 0xbe204fbf3e34e4cfU,
  0x3e587f203e5ff86fU, 0xbd9513dabe340a55U, 0x3e764285be0f83a4U, 0xbda0e1933eee2775U,
  0xbe8a7b273cf2db3fU, 0x3c552b3abe46495eU, 0x3c103269be6aa909U, 0x3dfc75323e928540U,
  0x3d48f0b53e643f41U, 0xbd4a04363ca691bfU, 0xbdde38853cd67776U, 0xbc9195fe3ecf7b46U,
  0xbd2fe2eebe14e7deU, 0x3bf5b8a2bd99e6c8U, 0x3dd703b4be430b50U, 0xbcaaad34bbdb7a54U,
  0x3e21a44e3e6dc214U, 0x3eabcde73d29ccccU, 0x3e123f41bd20eb8bU, 0x3df1902bbd9aa429U,
  0x3bc51749be14a856U, 0x3d0970ea3d832904U, 0x3cf16a5bbe2e9453U, 0xbdda60043dcd199cU,
  0x3c18f8d2bd89b98fU, 0x3e14548abc928d8fU, 0x3eaa840d3e3f88f7U, 0xbe8f41803e155a76U,
  0xbd351c57be5135f2U, 0xbc5a8b44bcf1da9bU, 0x3e53c5fcbe00eeb1U, 0xbdb2f754bd0e9324U,
  0x3e082b9a3d6a088dU, 0x3ebabd0abd1db677U, 0x3de759543c0bc831U, 0xbdf8dd2e3f0e1dabU,
  0xbdeef454bda2d201U, 0xbc2c77233c9ac17dU, 0xbd81488cbe52b5a2U, 0xbd53c9fd3e6c1940U,
  0xbd1e2e0c3e0d573dU, 0xbe9018b43d9bc934U, 0x3ec105cfbdde666fU, 0xbe149cc93e4e2e37U,
  0xbd36596dbe07b0daU, 0x3c546b9fbd9b0722U, 0xbd561f27bcb5c06dU, 0xbe01ba383d939153U,
  0xbe45d692bcecde73U, 0xbdfb56983dbc3b7cU, 0x3d8a2febbdfcfacfU, 0xbdedd3d03c90c697U,
  0x3b094183bdd24d6dU, 0xbe2577e6bdc9d8a5U, 0xbc4cc9013e3766a3U, 0x3e1c91ba3db6bb07U,
  0xbd4892ea3da139f4U, 0x3e679d75bcca68f8U, 0x3de5488e3da97fd2U, 0xbc3648d23cc7eac6U,
  0xbc9cbca13d7cdf4eU, 0xbe1218233e283f58U, 0xbea488a6bd158617U, 0x3d83ab45be4d347aU,
  0xbde701d6bd7df077U, 0x3e9244803d8af3a2U, 0x3ec937e1bd6614cfU, 0xbe11cbb33e3e570bU,
  0xbe7cafea3d44d296U, 0xbd99899bbbbb8c5cU, 0x3986005abd613f61U, 0xbe607fdabd96691eU,
  0x3e30cbfebd7a82dcU, 0x3dd201b7be06bb96U, 0xbd9c4cba3d3009a1U, 0xbe3e552a3e103920U,
  0xbe4824c4bdcf7e3aU, 0x3dbc519c3d929827U, 0x3d9008283dcba198U, 0xbe1ce6753e605916U,
  0x3deb30e2bdecd86dU, 0x3e03f167bd037f19U, 0x3d93885f3dc1a29bU, 0xbd5fcd4e3e32af1aU,
  0xbe81112bbe427562U, 0xbd3ecf213e6ab7eeU, 0x3d4c8ea43d81a3a4U, 0xbde301bc3f23fb2eU,
  0x3d3ca2e0bddc7b9eU, 0xbbd8de06bde4d010U, 0x3ea311f73dcda750U, 0x3d56870ebe6c26fcU,
  0x3d77fa0abd30891dU, 0x3d22628e3e077344U, 0x3e35c4d63e0b1166U, 0xbdcdeb37be942473U,
  0xbc0ed2cebd57ff8cU, 0xbd9e23da3e109a91U, 0x3e411390bbde2890U, 0xbde6abe0be2925aeU,
  0xbc26c8593e217a7fU, 0x3cf7925bbd0510a7U, 0xbdea4a413e1356efU, 0xbe01c0833efff703U,
  0x3e979ad73dac8a1cU, 0x3df61661bbca6967U, 0xbde3770b3e96aa30U, 0xbea9e15ebe0e04e2U,
  0x3d82d997be450b49U, 0xbd65b1e9bc1638cdU, 0x3d6dd793be1c6431U, 0x3c56c4ad3ea4648eU,
  0x3e6878043d15be9dU, 0x3ec182c0bc846206U, 0x3e10a7b2be1b8267U, 0x3e94f5c23d924064U,
  0xbb96ffde3c04772bU, 0x3d2c066fbc8a732aU, 0xbdbe2d343d2993c1U, 0xbe7b02ffbda42f0eU,
  0x3e4f42a23da8829bU, 0xb71b1b14bd994ec2U, 0x3d8477523d19aa35U, 0xbe66ff0dbdde176eU,
  0xbdb71162bdee1cffU, 0x3e083c21be57a8dfU, 0x3e36e3e63b00318dU, 0x3dfee3e5be002e0cU,
  0x3e62920d3d924d28U, 0x3d235ffc3dc01907U, 0x3dec8a3ebe122a0cU, 0xbe010c423edf10f2U,
  0xbe3ebe1a3d878d06U, 0x3d6cbaea3e2925a4U, 0xbdb712f5bb09ad1bU, 0x3dbb317dbd64fcc4U,
  0x3e3c185b3d9ac598U, 0x3cd24253bd817cc0U, 0x3e1789bc3e137372U, 0xbe827b6c3dadd1a4U,
  0xbe148836bd01490dU, 0xbdf370ee3d812f75U, 0xbe0cf153bdc2d856U, 0x3d3f5871bc91d68aU,
  0x3d5a109c3e0592ffU, 0x3e0c33e1bdd9c353U, 0x3d2ec2cabe0624f4U, 0xbe091e323dffee10U,
  0x3d817500be065429U, 0xbe09266fbe1da111U, 0xbc2b8fe73d154293U, 0x3d8af4c1bcef2728U,
  0x3d508350bd86c12dU, 0xbd9d0c323da92b4aU, 0xbdf6d4753e5aba22U, 0xbe990b6d3d9a48d3U,
  0xbe2cb6b2be0eb863U, 0xbe0f083dbdc55d61U, 0xbdcfdbd03dc78cbaU, 0x3cbcf7e5bc8b8ac5U,
  0x3e2a6cdcbd059dd5U, 0x3e286c543c29d90dU, 0xbe4d881bbe6d5f05U, 0x3e8397003e8b3388U,
  0x3e856e5a3de2299fU, 0xbd81d7dd3b1f04bbU, 0x3dab572dbd4baa38U, 0x3dc54eafbe83c963U,
  0xbd22771d3a4af200U, 0xbd0c4109be255a62U, 0x3daa8141be9facf5U, 0xb98b9a403ec05dfbU,
  0xbe3ff1273e316202U, 0xb9b90e2ebe2e0455U, 0xbe01ecae3d3509efU, 0x3e359a833e64c7a8U,
  0x3e8d1e0c3e2f501bU, 0xbd835968bc2c0851U, 0xbe8e9da33e1d7254U, 0x3dae0a093e17c557U,
  0x3da0d73cbd387a8bU, 0xbdaed906bdacc46bU, 0x39957f05bce9e119U, 0x3e17bcf1be512fe1U,
  0x3b2b40573d7fa4acU, 0x3e88d432bd73d9c0U, 0x3e69aaf2bdedf9ceU, 0x3ea9461fbe0c3f80U,
  0xbd0dd265bdaf02d4U, 0xbcc9adc5bd81f39bU, 0xbc3353b5bd202a55U, 0x3c6657f1beabca33U,
  0x3eb261763e199c17U, 0x3e4bc816bde601e9U, 0xbe802d763d2db782U, 0xbf004b613e76c913U,
  0x3e0b47e6be2b0732U, 0xbde7fde1bcf67f59U, 0x3e168204bdd42eb3U, 0xbe79d0f83ec72825U,
  0xc00b5b9bc06f015aU, 0xbf830e40bfe89ff1U, 0xc048e37ebffd65a9U, 0xbfaec087c049ab98U,
  0xbfc58404c06d89b7U, 0xc08e92e3bfc3540aU, 0xbf966d56bfe27437U, 0xbfbee757c020edc5U,
  0x3e87d5073f026b85U, 0x3e79e81f3e36c5a7U, 0x3f425a863db4c3a4U, 0x3ec1f3f93f08a589U,
  0xbd2d71e53d0a968bU, 0x3e85de9e3e1a9594U, 0x3e66ddcdbdd064e5U, 0xbdcfcb463de2fcd8U,
  0xbe66db2ebe29f0ebU, 0xbf4f6e33beeeda44U, 0xbcba1c13be85a5bfU, 0xbe35d95ebe601dcdU,
  0xbf891492beff4b46U, 0xbe8089e7befa1935U, 0xbf37ef7ebf7c11b5U, 0xbf800896bed86a3aU,
  0x3dc5ac02bddd6645U, 0x3e332d72be9339b0U, 0x3d8160ccbea6629eU, 0x3e6529bbbe2fba90U,
  0xbcfb5659bed01caaU, 0xbe4f54fbbea1c65bU, 0x3e399edabdd637d4U, 0xbe0893c6beb8197dU,
  0xbe5f27afbd9fe698U, 0x3e67fa9d3e81cd6cU, 0x3cf888eb3cf06165U, 0xbe09ded9be2b678aU,
  0xbdae34c3bef79e00U, 0xbe5bb9643e635ab6U, 0x3e5327efbe0c6024U, 0xbdd7400a3cd108aaU,
  0xbfd24c6abeb42480U, 0x3f2466a43ebe23f0U,
};
