/**
  ******************************************************************************
  * @file    human_activity_recognition_data.c
  * @author  AST Embedded Analytics Research Platform
  * @date    2026-03-02T17:39:36+0100
  * @brief   AI Tool Automatic Code Generator for Embedded NN computing
  ******************************************************************************
  * Copyright (c) 2026 STMicroelectronics.
  * All rights reserved.
  *
  * This software is licensed under terms that can be found in the LICENSE file
  * in the root directory of this software component.
  * If no LICENSE file comes with this software, it is provided AS-IS.
  ******************************************************************************
  */

#include "human_activity_recognition_data.h"
STAI_ALIGNED(8)
const uint64_t g_human_activity_recognition_weights_array[688] = {
  0x3dbdf4553b35a4a8U, 0xbc244a46bdad304aU, 0x3da113873d779247U, 0x3c6530433dfba58bU,
  0xbd191c2abccc854dU, 0xbd934882bc582204U, 0xbdada366bd8e1de7U, 0xbaa3b54fbd418913U,
  0x3da49fd13c51636fU, 0xbd31e498bd3b6d8bU, 0x3c3356c5be042f53U, 0xbaf58ed7bcd4cab7U,
  0xbd014303bcaeaaecU, 0x3ccc61e63cb5bcceU, 0xbbd592eebc3020b7U, 0xbca97bcfbc4f33a8U,
  0xbe047a6f3db49789U, 0xbbcde67bbdf0ba50U, 0x3c6492c3bd830fdbU, 0xbc391869bde66ddbU,
  0xbd32d650bc855744U, 0xbda93e7ebdbfd974U, 0xbd03ff06bd32cac9U, 0xbcdfa24cbd7997b0U,
  0x3ce6048ebc3a1cfdU, 0x3cba6432bc053acdU, 0xbc3b4f79bc112fa2U, 0xbb99018e3d41b65bU,
  0x3c2730c5bcf22112U, 0xbb6435acbaff02e5U, 0x3cc7c394bc4bd61eU, 0x3c56c4a6bc05f437U,
  0xbe15b8003d53812aU, 0xbdb0fe72be05fab0U, 0x3d617106bdad137dU, 0xbdf31272be3e590dU,
  0x3cb92668bbd1a0d4U, 0x3c0b3bd13c6a8d69U, 0xbd4d30053d3962d8U, 0xbb088048bcfb7285U,
  0xbcc448013cc64535U, 0x3ac42a413c2504d8U, 0xbb8216213b9cef97U, 0xba83b194bce182c2U,
  0xbccf1b233cc3b37bU, 0xbc491d573cb4c6deU, 0xbc5f0f0b3ca34b4fU, 0x3d786386bc362060U,
  0xbd61d5603e14f8eaU, 0x3d6d035dbd81ad82U, 0x3d3bed15bddc4d55U, 0x3c45b151bdd0feb2U,
  0xbd8840e2bd838b65U, 0xbe12a8f4bd99a6e3U, 0xbc8a5467bde77119U, 0x3d8d727f3cc0d16dU,
  0xbb8c4610bcd287adU, 0x3c5070fa3aeb4752U, 0xbd29184c3b4f5978U, 0xbd6d901bbda7c427U,
  0xbe53ff9bbdaa84deU, 0xbd9ae53ebe65e9abU, 0xbb8e748bbdae98c2U, 0xbd792d993cc5240cU,
  0x3d0ef1a6bbfd754bU, 0xbe3d8c69be1dc89aU, 0xbd5c2cc6bd278fd1U, 0x3d8cac48bc36c030U,
  0x3afff142bd91d399U, 0x3d039680bd0e9301U, 0xbce9aca23d6de96dU, 0x3cc6e454bd29a93fU,
  0x3cd5eb523b821f17U, 0xbc10bb283d05b66bU, 0xbd0765483bcd93d9U, 0xbdfc79a5bdccc9d0U,
  0x3cdfeb44bcaf146eU, 0x3cc98d14bd07557dU, 0x3ddecda73d985061U, 0x3d7033c73dbdd30bU,
  0x3c812d6cbb32e2b7U, 0x3cdf1bfe3c877b24U, 0xbd10f3e4bc23855fU, 0x3d3a3046bce84ae3U,
  0x3dbaef723d30d332U, 0xbb78f6cb3d888a09U, 0x3b8219773d1fc542U, 0xbe4dc75abe1fb566U,
  0xbde67d4bbd7533bdU, 0xbe84e183bdae4bdfU, 0xbdc5e092be0f841bU, 0xbd1689d4bdd62a91U,
  0x3c088ed4bd3347ccU, 0x3cedaeb23c8d84b0U, 0xbc1886a33c6896edU, 0x3be5c546bbe6ab57U,
  0xbe0a025bbc871626U, 0xbe2f7d3cbd8e95ceU, 0xbc8cb692bd323065U, 0x3d8eabf3bd79d6f2U,
  0x3d0533123c5ddd55U, 0xbd105ea5bd481415U, 0x3c322afebc87f547U, 0x3cae141cb951d560U,
  0xbdaf235dbd4675f6U, 0xbd9e0091bdfdbc19U, 0xbd26fd7cbd6e0b5dU, 0xbb1eda2fbcb40e61U,
  0x3d10e41c3c994688U, 0xbde40f3bbd85e90cU, 0xbe062b6cbde2958bU, 0xbe28e0f7bc953c11U,
  0xbd900748bd5ed544U, 0xbd4b7903bcf9d256U, 0xbcc22a0139f8a561U, 0xbbf29d113cc6faa9U,
  0xbcd9fb8bbd2ad26dU, 0xbd45e520bca8418fU, 0x3ccd2bb53cf612e7U, 0x3dc772a33d9160b8U,
  0xbca84197bc49ffd2U, 0x3c9638c43dc1b02bU, 0x3c8be65d3d96f144U, 0xbdaa64ecbb2a384aU,
  0xbdc0aa68bd91db0dU, 0x3d5a6a763deb834aU, 0xbb8d6618bc339f5eU, 0x3db30f023d5daca8U,
  0xbdb1e4283c3ace63U, 0xbde3eb4abdde5810U, 0xbd5a8db5bdaaba39U, 0xbd853215bdb6f4bfU,
  0xbca1eba7bb2fe762U, 0xbd9d3b6abcd1c0f3U, 0xbdc8c871bd547cdaU, 0xbe1b1342bdf02508U,
  0x3cbd7380bbcb3fe7U, 0xbcdc0e853c932034U, 0x3b14d67fbd5ddc9eU, 0xbc92ebf63c1c3877U,
  0x3b861422bc92deaeU, 0xbd172759bb589823U, 0x3a5c0919bd09fda4U, 0x3b9ff21f3c95b81eU,
  0xbe69687e3d9db214U, 0xbd3ac4e9bd9bcf8cU, 0x3ba7ee9ebe08f1c9U, 0xbd62b543be018132U,
  0xbdace72ebdd49c79U, 0xbd9e0d6cbbb8f232U, 0xbd55f2c4bd1d997dU, 0xbcf5220abd2e8c8aU,
  0x3cb68c843d289a78U, 0x3d417b533d843be8U, 0x3beb39243b857e7aU, 0xbd40b528bdb08972U,
  0x3d65ddfdbda00082U, 0x3d22f1cb3d9cfaa2U, 0x3c9ea65e3d0975ebU, 0xbb80e31dbc1dce75U,
  0x3b1fb3a93da2bb51U, 0x3ccae47b3dcb7f83U, 0x3c7b402abdac56e8U, 0x3d396ef2bd652efcU,
  0x3c8f1e343cb7a206U, 0xbd37afa73d588760U, 0xbd3f374d3d61176bU, 0xbe05e1e3bd70d9e8U,
  0xbd419e05b98a75feU, 0x3c78f3b3bd3f02b8U, 0xbdaa1c843cab53b7U, 0xbd916c6dbd5c03c4U,
  0xbd95b572bdf64b99U, 0xbd72170cbc6c2592U, 0xbdd06417be03b961U, 0xba6baa7bbd12dc6eU,
  0xbc9794b23d3a1827U, 0xbbb18dc5bc1abf7eU, 0xbcc9f9e83d247fb6U, 0x3e7a0a753d847776U,
  0x3c59a5053e5c8010U, 0x3d1d84dfbcaa7dbfU, 0x3e12f7d9bd310f9dU, 0x3d7dba15bcf8da9bU,
  0xbd1ba2c4bcb3f63eU, 0xbd1915a0bd27032fU, 0xbc8b6e733d62e4b6U, 0x3e63d0e53d1b7e2aU,
  0xbca814e63dd9966dU, 0xbc4ab2d9bbf11d5fU, 0x3c2fdb3dbd55302fU, 0xbd8ba80abda172dfU,
  0xbf5f5b923dd02fd4U, 0xbf948ddc3d86dbefU, 0xbfc3c9e7bf7bb72fU, 0xbf8b8947bf9c2e0dU,
  0xbee0a7bcbfabb842U, 0x3d6a072fbfad2346U, 0xbd6a647b3ebfe00aU, 0xbf36830e3d86b3f3U,
  0x3f7adf17bdfcf277U, 0x3eea6aac3ecdf881U, 0x3d66444ebee3a98cU, 0xbeb07370bd24e3efU,
  0xbfcac694bfcbf62dU, 0xbfc86761bfc996faU, 0xbfc6082ebfc737c8U, 0xbfc3a8fbbfc4d895U,
  0xbfc149c9bfc27962U, 0xbfbe7decbfc01a2fU, 0xbfbd1c3fbfbdbafdU, 0xbfba2c31bfbb5bcaU,
  0xbfb7ccfebfb8fc97U, 0xbfb56dcbbfb69d64U, 0xbfb2caebbfb43e32U, 0xbfb0f413bfb1deffU,
  0xbfae5033bfaf7fccU, 0xbfabf100bfad209aU, 0xbfa991cdbfaac167U, 0xbfa7329bbfa86234U,
  0xbfa4d368bfa60301U, 0xbfa27435bfa3a3cfU, 0xbfa01503bfa1449cU, 0xbf9db5d0bf9ee569U,
  0xbf9b569dbf9c8636U, 0xbf98f76abf9a2704U, 0xbf97093dbf97c7d1U, 0xbf943905bf95a7aeU,
  0xbf91d9d2bf937103U, 0xbf8f7aa0bf90aa39U, 0xbf8d1b6dbf8e4b06U, 0xbf8abc3abf8bebd3U,
  0xbf885d07bf89944eU, 0xbf85fdd5bf872d6eU, 0xbf839ea2bf84ce3bU, 0xbf813f6fbf824bc5U,
  0xbf7dc079bf800fd6U, 0xbf78c455bf7b6146U, 0xbf7443aebf76a2e1U, 0xbf6f8548bf71e47bU,
  0xbf6ac6e3bf6d2616U, 0xbf66087ebf696c29U, 0xbf614a18bf63a94bU, 0xbf5bc2fcbf5f0974U,
  0xbf57cd4dbf5a2c80U, 0xbf521898bf556e1bU, 0xbf4e5c93bf50afb5U, 0xbf48b3e0bf4c4b30U,
  0xbf44b6e0bf481cecU, 0xbf401552bf427485U, 0xbf3b56edbf3d25b3U, 0xbf369887bf38f7baU,
  0xbf31da22bf343954U, 0xbf2d1bbcbf2f7aefU, 0xbf285d57bf2abc89U, 0xbf239ef1bf25fe24U,
  0xbf1ee08cbf213fbfU, 0xbf1ab01abf1bed0aU, 0xbf1563c1bf17c2f4U, 0xbf10e14ebf13048eU,
  0xbf0be6f6bf0e4629U, 0xbf06febabf08f566U, 0xbf014ee1bf05f818U, 0xbefb91b4befe36c8U,
  0xbef1dac0bef69926U, 0xbee81fa2beed811aU, 0xbee08908bee42955U, 0xbed5b82dbedb7912U,
  0xbecc6bc2becf57edU, 0xbec3c95dbec73030U, 0xbeba1e82bebe4b9cU, 0xbeaf64c4beb4294dU,
  0xbea56342beaa7d00U, 0xbe9b6ef8bea1ab26U, 0xbe925560be97d1bfU, 0xbe8906c9be8e7101U,
  0xbe806649be851badU, 0xbe6d4fb4be7648a7U, 0xbe5b8f11be642e27U, 0xbe45723dbe512d14U,
  0xbe3278c2be3bafc7U, 0xbe210fc5be298c33U, 0xbe0e4e95be178458U, 0xbdf58513be044604U,
  0xbdcff52fbde2250dU, 0xbda775afbdbe9c2cU, 0xbd8484f7bd9566e9U, 0xbd37c66fbd631803U,
  0xbcdea232bd15ba6bU, 0xbc168ee0bc9447c4U, 0x3c22db37b90315d7U, 0x3ce6a72f3c9bc014U,
  0x3d4237463d157743U, 0x3d8509473d687ac8U, 0x3da9a16e3d95a497U, 0x3dd134443dbdc915U,
  0x3df9e46e3de77a0fU, 0x3e0f9e2f3e0622ddU, 0x3e20b01d3e173240U, 0x3e3597bd3e2b46ebU,
  0x3e470b343e3eca9fU, 0x3e5a24cd3e50c5f6U, 0x3e6e513b3e63ef9eU, 0x3e80fa573e7a561aU,
  0x3e8b074e3e845590U, 0x3e9359af3e8fe738U, 0x3e9cf1863e96cf70U, 0x3ea5d57a3ea1484dU,
  0x3eb115fd3eac6493U, 0x3eb85c203eb55e49U, 0x3ec1ccbc3ebe0066U, 0x3ecb1a1c3ec64eb7U,
  0x3ed43e3e3ed2c17dU, 0x3edf08163ed75c1eU, 0x3ee685c23ee244cfU, 0x3eeff39c3eeea956U,
  0x3efc92133ef6c011U, 0x3f01e3453efe1002U, 0x3f06aa753f04e500U, 0x3f0bfa6c3f094b38U,
  0x3f108bfa3f0e599eU, 0x3f15bb213f126647U, 0x3f1a359c3f18bac1U, 0x3f1dc7013f1c94cfU,
  0x3f23b2673f212da0U, 0x3f2859e33f26119aU, 0x3f2d2f323f2b9c70U, 0x3f312d483f2e9e70U,
  0x3f36ce1d3f344ccaU, 0x3f3b6a623f39da36U, 0x3f4028c83f3dc995U, 0x3f44e72d3f4287faU,
  0xa0c3d4abb6a89eb9U, 0x9db1b6b0a5c3a6ccU, 0xa9b4bbabb7b2b0b1U, 0xc0acbfa5b7afa7adU,
  0xa9a3b79eb6b4a7bdU, 0xabb4aca6acb0a2b6U, 0xd092cb91d1c5b2abU, 0xaea5ad97bfeaa6dfU,
  0x91ccb1a2a5b39ab1U, 0xb8b7d8a4d4ad98b9U, 0xa9b0b4a0b3cda3d7U, 0xadb8a69bb7b9a398U,
  0xbe9ab9acb6aab3b2U, 0xa0a8b19cbcbba8bfU, 0xb5b6b39ebbb395a6U, 0xeb8fd088d3c5bea2U,
  0xaeb0a496bff99bfaU, 0x94cfada8bbbd9b9bU, 0xb6b6d6a5c5ac9fb3U, 0x9db6b1a8b3c695c5U,
  0xaabbb0a3acb4aca3U, 0xcaa1c5c2afa8b1aeU, 0xa3a1b398b4b7ae9eU, 0xadbeb3aaa6b6a9a0U,
  0xd0a5f699d0b9b199U, 0xaaaeb199beea9cffU, 0x96c6bda5afbda8a2U, 0xcacdacaa389a9898U,
  0xaec3b6ab8f96b1cbU, 0xc5b7a7bfb5a094c2U, 0xdc9a7dd17e8490a9U, 0xbeb9b7ba93a2b8ceU,
  0xa0b699b7b8aa9faeU, 0xd8a5a8b8baafa6a0U, 0xc6aca3c393c6afdcU, 0xa4c4acbfa7b8bc8bU,
  0xa9b257a3599d579fU, 0x92b8aab1a697c1beU, 0xc7b4a7c5a8c8a6aaU, 0xd6ad2dcb7a94bdafU,
  0xd0c0a3bfa0b7b199U, 0x94a388a09dc8a69bU, 0xbaaa72aeaac7af96U, 0xa0959a9ca6de9ed1U,
  0xa6bda894ae9dbeb1U, 0xc5bb9cb6b1a1569fU, 0x9b9f9baa9fa8a1c1U, 0x96c1919dadbbaac6U,
  0xade517b0a8b58db5U, 0xa58faea88ea8aab7U, 0xb19ab080a0bfaa95U, 0xc0c4c99cb2b1c58cU,
  0xb59693a4aeef9cc4U, 0x96b2a77fb3ac95a6U, 0xbea292b6a799af99U, 0xb3a194b49ea8b0beU,
  0xb89ca3afa9b6b2a9U, 0xb09d95b5b9b0a6aaU, 0xa29fa4c194b8a4c3U, 0xa599a799bca1c2a0U,
  0xabad95ab9da2a9a2U, 0x979894b4a5c6afb2U, 0xb0adc2a0baaad0a5U, 0xb79e8fa2a0a5b191U,
  0x9fa894b19aaeadb6U, 0xab9eaeb0a3b7bfb1U, 0x9da891b1b5a39fb3U, 0xa0aba2b2a8aaa2c3U,
  0xa99b9ea4b1a8b99fU, 0xa0a98cb0a1a8a4a2U, 0x95a28fafa1b8ababU, 0xa3a9c2a4a7abb4a6U,
  0xaaa4819e90a2ab9dU, 0xa8a38aba899daeb7U, 0xb7a4aaa8c6b5bdbaU, 0xafb290acc39bb6a9U,
  0xa99e98b992aeb3c9U, 0xafa0a4a2adb3bcb6U, 0x97bf83ab9aa498aeU, 0xa293a1afaba4b6c0U,
  0xa9aeb6a1aea7c99eU, 0xbcb190b9ae96ab9eU, 0xac989ebe8fa5adc7U, 0xb6a1a3acb1b7c2a3U,
  0xb6a792b7bfb09fa7U, 0xaa9ca3c192bda2c2U, 0xa09fa89bbb9fd49aU, 0xacaa95a7a8a8a8a0U,
  0x9b9892b0a8d4a8c0U, 0xabafbf9cc4b3c89fU, 0xb8a09aa5a8a3b39cU, 0x9dac96aba2b7aac1U,
  0xa4a5a8a5a7beb9b0U, 0xa7aa91b1bea19eacU, 0xa2a99eb6aab9a0cdU, 0xa39f9b99bab5b19dU,
  0xada68daba9afa8a1U, 0x97a389afa2c1a9b6U, 0xa4a8c1a3a9acbea2U, 0xacb08399a8a0a69eU,
  0xaea091bd89a9a8bcU, 0xb2aca7a5c0b8c1b8U, 0xb1b897adc199b4a7U, 0xa8979abd93bbaec0U,
  0xa7a7a69ab9b7bdaaU, 0x97c18ba49da1a0a9U, 0xa0939ab5abb4b1bbU, 0xa6aebc9ab2a7c19bU,
  0xbdd5a8a72e93a59cU, 0xb4c0b6af8980a9cdU, 0xcdaea4b7c0a8a3bbU, 0xc9a97fce7385a898U,
  0xb2cb9dbe8ea6c0c6U, 0x99b595bdb3aea1b5U, 0xc4bbb3c59f9a9fa2U, 0xd7a6a8c791c3b3c6U,
  0xb0bcadc19eb7b485U, 0xa0b63eb0559156a6U, 0x96a8acbdac9bcbadU, 0xbebaa1cfa4ca9fb0U,
  0xe2b515c57598b8bbU, 0xdabc9dcf99b1b0a2U, 0x9aa298a1a7b797a2U, 0xb8b25cb6aacca693U,
  0xa29ba1a0a0d8a1c7U, 0xa6c1ab8cbca9b8b0U, 0xccbfaacbb1a04f99U, 0x999c98a19aa7a8c9U,
  0x9bc398a5b3cc9ab6U, 0xa9d70baaa6b590b3U, 0x9e9cbaa195a3aab2U, 0xa995a885a3b6aa9dU,
  0xb7d4bf9ea2b0ca8bU, 0xb7948eb4a7eba6b6U, 0x9fab9e82a7a2a1a5U, 0xa6bfd4acb7a99eb7U,
  0x9eafb7b1a7c3a6c8U, 0xacb1b9abb5b2b4aeU, 0xbea9b7a7b7aeaaaeU, 0xaaa6b89fb4afa9beU,
  0xabb5aea9a9ae9bb3U, 0xcf95ca96d3c0b1aaU, 0xafa8af97bce4a6dcU, 0x96c6aea6a3b497b1U,
  0xb7b6cfa5cfab98baU, 0xabb3b5a0b0c8a5d6U, 0xacb6a49cbebcaa9aU, 0xc09cb8abb3abb1b0U,
  0x9ea7b09fb9baa9c1U, 0xaeb7b2a0b3af9ba6U, 0xe694cc8bd2c4b9a2U, 0xb1b2a296bdf09bf7U,
  0x97cbaca9b5bca19fU, 0xb6b5cea8c9aaa0b3U, 0x9db6b3abb0c399bfU, 0xaabab1a6aeb4a9a0U,
  0xcaa2c4c1afabb0afU, 0xa6a2b49bb5b5aba0U, 0xabbeb2aaa5b2ada3U, 0xd0a4f39ad2b7b19dU,
  0xacadae99bde49df4U, 0x97c4b9a2aebca4a5U, 0xa6a0aeaba3b2bda8U, 0xb9aeafa1bfa0b490U,
  0xacb0a3afa4a2a0acU, 0x94b8b6aa9aa7b8adU, 0xb1bda9b2abafb394U, 0xb5aaabb6aaacb4adU,
  0x87c5c5c38d93abb6U, 0xb4beb7b99f72af7eU, 0xc397a3baaca2a7a7U, 0xa0b2bbbf86a8bfaaU,
  0xb5a1aeb7aa96b684U, 0xb3a6b0c09e97b1bfU, 0x94c5c1b09aaab4a9U, 0xbfada9b69fa2b68bU,
  0xaeadafbda3a6c0baU, 0x7ecbbcd08791a1bcU, 0xb4b9cabc9f6bc06aU, 0xc3969fb1a7a0a7baU,
  0xa4a9b9ba9aadbba9U, 0xbfa8b6a9bba0c788U, 0xaca3aab9a4a2a9b3U, 0x8bb8b5969ab6a9afU,
  0xb2beaeb9aca0b2a8U, 0xb49faeb6b19fa3baU, 0xa3adaac28ea0acbdU, 0xb1c4b9bfa077ba6fU,
  0xc59598c4a9a2a9bdU, 0xbda68cb8a698ac99U, 0xb2a59ab39aafaebaU, 0xb69ca1abb3b8b7a5U,
  0xb2a18eb3bfafa3aaU, 0xa8abaab39cb9a8bcU, 0xac9ca39bc0a0c2a1U, 0xafa592a89ca4a9a2U,
  0x9a9795b1a6c6abbbU, 0xadaec19fc0b3c7a4U, 0xba9c91a5a9aab297U, 0x9eb397aba0afa9bfU,
  0xad99a9a9a3b6c0aaU, 0xaaa992b3bda39eaeU, 0xa0b0a2b0aeae9ec5U, 0xab9f9aa3b5abbea4U,
  0xa7ac87aa99aba3a1U, 0x99a18bb19ebeaab4U, 0xa2abc3a1aaaabfa8U, 0xabac87a09da2ac9cU,
  0xa2a58ab18ca1a7b8U, 0xb6a7a9a6c9beb9b8U, 0xaeb395b4c49aafa5U, 0xa5969fb495b1b1bfU,
  0xaca1a19badb4c9abU, 0x9bc288a99ba49cabU, 0xa3919db8acb1b4bcU, 0xa3b1bc9db5a3bf9eU,
  0xd4cf9fb4308aa29eU, 0xadbbb1b77e92b2e1U, 0xc4bea9b3b0a89eb9U, 0xd6ad8ec0537c9a9fU,
  0xb8c4a9c38d96b7dcU, 0xa2b594c2beaea1b7U, 0xdda9afc99ca1a099U, 0xd1aba4bf87cdabc8U,
  0xadc3b7c5a4c5bb82U, 0xa3be43a455894e9dU, 0x95aab7b0af93c2afU, 0xcfb198d29ad09fa8U,
  0xe9a70dcf6fa2c0afU, 0xc6b99cc69aa9b29fU, 0x8eaa939ea0be9b99U, 0xc1bd58c098d0a38fU,
  0x9f9ca7a2a6d99ccaU, 0xa9c2ab92be98b9aaU, 0xceba91b9a5a04a90U, 0xa3a297a39faca2c5U,
  0x96c7989bb5cda5c3U, 0xb9e300a6adab86bcU, 0x9c91b5af88aea5bbU, 0xb793a780adcd9585U,
  0xa8d9d49fa5b8ca7fU, 0xa99594a896eca1c2U, 0xa1b3a07eb3a98aa0U, 0xb08283ad9daea5afU,
  0xaab49da8aa8db7a0U, 0xbfa2b3b1a9a895b9U, 0x9a9284ababb996baU, 0xa1b8afa6b598b2a5U,
  0xaea5b3a9b78fa7beU, 0x9c988da38cad9bb5U, 0x93a8a3b7bda4b98aU, 0xbbaacaa7bf9ab1baU,
  0xa8887fa08fb79d9fU, 0x9dc3a2a7b58cba97U, 0xb5a6c3b29ca3acbfU, 0x959a7ba29ab493b9U,
  0xa0c2b6a9bd7fb2a2U, 0xb5a3b9b0b19ea3bfU, 0x8b9c7cad87b299b5U, 0x94aaa6afb58abe87U,
  0xada6cdada7a4aabaU, 0x9e88769c86b6a2a9U, 0x9cbe98b49f7cbba6U, 0xbba5baacb7aab1ceU,
  0x9c9591a6a9b7a9b2U, 0x9ba6a1b0b88ebdb2U, 0xb0a9b5a9a7a7b5c9U, 0x8dad74ad87b198c3U,
  0x9b9cb0b6c390c992U, 0xb2a8bda9ada0b8b4U, 0xc3af8fbfacb1cc9cU, 0xc2a6a7abaea6b69fU,
  0xb5a69cb499aea7a0U, 0xaac2a2c4a5a7c2a9U, 0xbfaba5bb9cbcb2abU, 0xb4a5a9b6a5b0b797U,
  0x92ea9bda9a93bcacU, 0xbdb8b1be8f90b09cU, 0xc895a2b9afacbca5U, 0xaebc96c08facd59dU,
  0xbaa0a4b6a3a7afa0U, 0xb2a0abc1979cadbbU, 0xa0d1abc1b4abb7a2U, 0xc0aca7b796baaca9U,
  0xaca69fbb97a8c3a4U, 0x7fe69edf9990adb4U, 0xbdabb3c38d83ba7fU, 0xc793a5bc9e9eb3b4U,
  0xb5be97c2a1a8c3a2U, 0xcc9ca4a9a1b0bd9cU, 0xb2a2a4bca79ea9afU, 0x97cca2a5b4a7b4a8U,
  0xc8b8a6bf9ab8aabdU, 0xb29fa4b8aea1a2abU, 0x97d586d1979cb6bcU, 0xc0aea8c18c8cb481U,
  0xc7a19bc4a69da9aeU, 0x9ca9c69fb4c0acbfU, 0xa9b9c1a1c1b3ae99U, 0x9bc3b0b1a9a6a1b0U,
  0xa7b9c39d94aab0adU, 0xb2b6b6a0bca2b195U, 0xb1bdb7bea2c399b6U, 0xa8b6c6b0b9b2afb5U,
  0xc4bec9a5af92ad9eU, 0xaea397b996ab90aeU, 0x9bc3c7baaeafaebeU, 0xbbaec2abb4a5aea1U,
  0xaabca9b2ab9b97acU, 0xaab2cead9fb8bbaaU, 0xbbaab7ababb1b790U, 0xb0bdbcb8a6a696b1U,
  0xb0b7cdaab5a9b2b9U, 0xc3bbccb1b697aca1U, 0xbbaa97b4b4ad93adU, 0xacb3e1beb6b4afbbU,
  0xb0b0cba2d3aeb19cU, 0xa2b0b2b2939b9ca0U, 0xa8aac2af96bea9b2U, 0xb0bfc2a1bba8aa8eU,
  0xb0b4b1bba39c92adU, 0xc098cfacc0b3bcafU, 0xbac9bda6aaaaa79cU, 0xb0ab9fc2a0b390b9U,
  0x3e02c4f93d7a8d5cU, 0x3f1ff24a3ef900d8U, 0x3de7674a3db960c2U, 0x3ef9c47dbe9ecbc0U,
  0xbec73e873e671631U, 0xbf0bc9243e877785U, 0xbe1cf61e3e640682U, 0x3b270c53bd9ef76eU,
  0x3edc16a2be5ce333U, 0x3dc928663f0a8828U, 0xbe994c41bedad24dU, 0x3d51c98abea6eee1U,
  0x4003e3743ec9b568U, 0x3e391ef13cfaccacU, 0x3f1f8fa24009ef42U, 0x3e864794bec818dcU,
  0xbf4c64843fc43b58U, 0xbd9806173f28935dU, 0xba9b4f953e8c9ec8U, 0x3e2b498e3c68aee1U,
  0x3ef7d460bde6c80fU, 0x3e79ee3bbe18299cU, 0xbe72ae0bbea0fddaU, 0xbdb1e05cbf17c320U,
  0x3bf83777bef206e9U, 0x3ec9b1073e9ef5c7U, 0xbea629c9bda638f2U, 0x3efe21823e6ece70U,
  0xbe1f793dbe8f9869U, 0xbea0f23a3e589b63U, 0xc01dc893bd5b3980U, 0x3efbf2773ed2b0fbU,
};


