/**
  ******************************************************************************
  * @file    human_activity_recognition_data.c
  * @author  AST Embedded Analytics Research Platform
  * @date    2026-03-06T13:00:19+0100
  * @brief   AI Tool Automatic Code Generator for Embedded NN computing
  ******************************************************************************
  * Copyright (c) 2026 STMicroelectronics.
  * All rights reserved.
  *
  * This software is licensed under terms that can be found in the LICENSE file
  * in the root directory of this software component.
  * If no LICENSE file comes with this software, it is provided AS-IS.
  ******************************************************************************
  */

#include "human_activity_recognition_data.h"
STAI_ALIGNED(8)
const uint64_t g_human_activity_recognition_weights_array[688] = {
  0xbc86bf05bc87095eU, 0xbced7480bcffbd08U, 0xbd1701a4bcc20ac0U, 0xbcdc551bbbf22402U,
  0x3dbbc03a3d658ccbU, 0xbcdd67ea3b837d44U, 0xbce93370bceb87a4U, 0x3c409a89bca80c7bU,
  0x3d5468d33cbfa944U, 0xbd3a67553d0ecbd8U, 0xbd1846bfbd1b38b6U, 0xbc8684f3bdd22ed3U,
  0x3d51b3713e1f24a3U, 0xbd75234f3cb71462U, 0xbbe12422bb19da09U, 0xbcae2fd83cb332adU,
  0x3d93be77bb422b13U, 0xbe2477ddbc266f78U, 0xbc10ef6bbc588c0cU, 0xbc9547183d059e42U,
  0x3d96da3a3d9dc410U, 0x3d26fb7b3d493223U, 0x3d16713a3d6202e4U, 0x3c93b3d73d1e8167U,
  0x3c0311d5bc802097U, 0xbcd65f05bc21d472U, 0x3deed33e3caaadffU, 0xbbfb3ed5bd42a587U,
  0xbda4096cbd95dffdU, 0xbd911752be15711dU, 0x3ba51570bc5b13deU, 0xbd3e91d93ca8dffbU,
  0x3c34ce85bd046dc0U, 0xbc920f4cbbacdfc8U, 0xbc03c371bc7d540bU, 0xbe22a9e1bd6b5ab7U,
  0xbdd1287abe270c8bU, 0xbd8a7cfbbddccc4bU, 0xbdfd32ab3d834e1eU, 0xbd8583ecbd481d91U,
  0xbc071809bd9a09bcU, 0x3cbc0dd33d61325fU, 0xbcb712023d9c16cfU, 0x3d7509e0bb837a29U,
  0xbde45151bce27308U, 0xbb9f41b0bd94ce73U, 0x3c7887753c381ff4U, 0xbd0575da3d2020d8U,
  0xbdc34506bd8b9cd7U, 0x3dd793e3be013f2bU, 0xbd162760bcfd2e00U, 0xbb4e2da9be09db5dU,
  0x3b92592ebcdbe7f9U, 0x3b1f066ebc5384beU, 0xba934d973c3b3e91U, 0xbc9c015fbcbbe265U,
  0xbd26b9bebcd31746U, 0xbc486794bcd491b5U, 0x3d1dfdc3bc1829c3U, 0x3ceacfa93d939e90U,
  0xbd2ee8f93c8d663cU, 0x3d5a94f33afa2394U, 0xbe27c88ebd8b3effU, 0xbc3b13c3bd29c498U,
  0x3c8e85163d579e07U, 0xbc51fe883d09dfacU, 0x3be0e70fb896825eU, 0x3dac2859bd5acdd9U,
  0xbc4817693b568898U, 0xba0026963d0b7477U, 0xbca45b313cb9dc98U, 0x3e041fd63cb207caU,
  0xbbe0b9f4bdb0bcf6U, 0x3d94ea2dbc7a2e6bU, 0xbd3a4f433cf4cf48U, 0x3d5493d8bc0800abU,
  0xbc0529913c84ca36U, 0x3d74bc35bd828b29U, 0x3e3a4b3abdb04264U, 0xb7626ee03d926550U,
  0xbe46239dbdce08d6U, 0xbe0466c3be07e9ddU, 0xbdfe4686bd9ed393U, 0xbce33785be06756fU,
  0x3cdf27553cbbce8aU, 0xbd0e450c3b39a5e1U, 0xbd7bf895bdcbb721U, 0x3ba22a02bd18e6b4U,
  0x3e12689fbe45a9e0U, 0x3da4af68bc2b415aU, 0x3cff033d3ce9921dU, 0x3d15dbe83d80d944U,
  0x3d51d65e3d5442e5U, 0x3c5bd30f3cc5e25fU, 0xbcf66ee6bc0fc9a5U, 0xbdb4a927bcbb9714U,
  0x3e008a84bd8044edU, 0x3da15f16bbd5940dU, 0xbd448f623bd9e286U, 0xbd885a68bd534a0cU,
  0x3e0127e93de5fe25U, 0x3d1b0ee9bd1358e4U, 0xbd6840333c4f4f30U, 0xbe08319ebdba2a70U,
  0x3c0fde7f3c1ae413U, 0x3c63d4e13ab7699dU, 0xbd0da6073c271f7cU, 0xbcdf2b1abcb6ef39U,
  0xbc781e1ebd068512U, 0x3cb112043cb63220U, 0x3d0ff48d3cae8987U, 0x3ae2a7de3d45823bU,
  0xbd00cd1dbc415096U, 0xbd9a825abd5e8ea9U, 0xbdfb1f0fbdc197a6U, 0xbdd123d2bdbf198bU,
  0xbe8150853ce5fd3cU, 0xbd4eedcf3d1b3af3U, 0x3d1cd2c1bca5ddfeU, 0x3d0c10c73c9bf255U,
  0x3cbbc546bc820461U, 0xbd3168fabd1fcf17U, 0x3c82e82e3d461e33U, 0xbd1d0a3a3b20f786U,
  0x3b37cfe83c35273aU, 0xbd1dc253bdb59526U, 0xbc93635dbc565849U, 0xbda0ae19bd02172cU,
  0x3d981bab3c9414abU, 0xbd480be73c88518fU, 0xbda95c553da5b6b9U, 0xbd654756bc9ae375U,
  0xbdb89e22be06e6d4U, 0x3c6da110bc932f9eU, 0x3c0f78493d27577aU, 0x3de95a123d4035f4U,
  0xbd5d0b35bd96faf9U, 0x3bcc4555bd5d3aafU, 0xbc01d9033e198399U, 0x3dd62aabbc2b15feU,
  0xbdb9f532bd1060b6U, 0x3cdaab6abc5038abU, 0xbbd28e213cf8a714U, 0xbe16d463bc58da56U,
  0xbcfe6ffa3cadf20eU, 0x3ca8c927bd4edc8fU, 0x3cb99ee93d81bcbcU, 0x3b0dab923b51bfc0U,
  0x3c4867e9bbfec1adU, 0xbc9067f0bdcf43afU, 0xbc30d0173de0f8a8U, 0xbe015535bd544b3dU,
  0x3d2f9f3dbd2edbffU, 0xbca19b673c5ba2a5U, 0xbd9d48dbbda64cc2U, 0x3de2fae2be282231U,
  0xbd6b486a3ca83010U, 0x3cb67fdb3c9e1badU, 0x3cd9b04b3dce86f6U, 0xbd1592853cff82d1U,
  0x3c5618563d955214U, 0xbe11bc4abc8376eeU, 0xbdceb8d1be04bfecU, 0xbda4f065bdbec3a9U,
  0x3c025d94bc67cf36U, 0x3cd24a003ce27b98U, 0xbd8e70fcbce31179U, 0xbdd02f1fbd8f7a25U,
  0xbc852b3abdb429adU, 0x3d68fccf3a73cc2eU, 0x3e0d194e3d7a192cU, 0x3d5264c63e00a6f5U,
  0xbdc4d902bd8431f1U, 0xbd4ae5ddbdbf1bd9U, 0xbe141861bd7415e4U, 0xbd2188e1bdd46c57U,
  0x3b0de4b6bc976ebcU, 0xbde2ee773cd6a0aaU, 0xbd57fda4be3b2f90U, 0xbc54d486bd1e77d5U,
  0xbc6009283b917b82U, 0xbbb32047bcccc234U, 0x3bcea2993b8c375fU, 0xbc89b4b6bc8199c0U,
  0xb9ee1d00bd017cb1U, 0x3cb4d744bc5c483aU, 0xbcd5972bbbf87ecaU, 0x3c94909439e727f5U,
  0x3d8539d53d281371U, 0x3d6380103d62e503U, 0xbc063e953c578750U, 0xbe196e8dbdf67b5fU,
  0x3e8195ba3f1da624U, 0xbf9f35b7bc463f66U, 0xbf917b5dbef8e8c4U, 0xbf854297bccd4c70U,
  0xbc2b2accbfa2bb9cU, 0xbea9873ebdd8f837U, 0x3f5530d0bf36949dU, 0x3f0eba22bc63c6d6U,
  0xbf31800dbdad08f9U, 0xbf067234bbc13b57U, 0xbd594022be12b512U, 0xbf428d9ebf700f9eU,
  0xbf803025bf812567U, 0xbf7c8b44bf7e75c7U, 0xbf78b63dbf7aa0c0U, 0xbf74e136bf76cbb9U,
  0xbf7086cdbf72f6b2U, 0xbf6d3728bf6f21abU, 0xbf696221bf6b4ca4U, 0xbf658d1abf670c11U,
  0xbf61b813bf63a296U, 0xbf5de30cbf5fcd8fU, 0xbf5a0e05bf5bf888U, 0xbf5638febf582381U,
  0xbf5263f7bf544e7aU, 0xbf4e8ef0bf507973U, 0xbf4ab9e9bf4ca46cU, 0xbf46e4e2bf48cf65U,
  0xbf430fdbbf44fa5eU, 0xbf3f3ad4bf412557U, 0xbf3b65cdbf3d4f77U, 0xbf3790c6bf397b49U,
  0xbf33bbbfbf35a642U, 0xbf2fe6b8bf329523U, 0xbf2c11b1bf2dfc34U, 0xbf283caabf2a97dcU,
  0xbf2467a3bf265226U, 0xbf20929cbf227d1fU, 0xbf1cbd95bf1ea818U, 0xbf18e88ebf1ad311U,
  0xbf151387bf16fe0aU, 0xbf113e80bf132903U, 0xbf0d6979bf0fda08U, 0xbf099472bf0b7ef5U,
  0xbf06ae24bf078681U, 0xbf01ea64bf03d4e7U, 0xbefc2ab9beff9f4bU, 0xbef42c40bef855b2U,
  0xbeed182dbef0aba4U, 0xbee569f1bee90196U, 0xbedd26fbbee17fddU, 0xbed5d873bed96764U,
  0xbecdafacbed2b138U, 0xbec55562bec9fa3eU, 0xbebe4974bec38179U, 0xbeb72296beba792bU,
  0xbeaeda62beb40355U, 0xbea7e6e2beaaee99U, 0xbea00689bea32a3aU, 0xbe97f550be9c211fU,
  0xbe8f46c2be92395bU, 0xbe89440cbe8cf2a4U, 0xbe81d6b6be85b039U, 0xbe73b0bdbe7aa65bU,
  0xbe647262be6bc03dU, 0xbe54477abe5cb5beU, 0xbe462d1fbe4d2fdfU, 0xbe374132be3dc8f4U,
  0xbe28246abe2fa55fU, 0xbe17b5f9be1e953fU, 0xbe087510be10443dU, 0xbdef7238be00e00bU,
  0xbdd117e8bde018caU, 0xbdb36b39bdc3e956U, 0xbd95b559bda4c17bU, 0xbd715d62bd868565U,
  0xbd30f03fbd4fd106U, 0xbcef787cbd15aa94U, 0xbc623e86bcb0bc8dU, 0x3ab373dabbc0b094U,
  0x3c8685c03c13f6f1U, 0x3cfc6b0b3cc6a580U, 0x3d4087d33d1d4840U, 0x3d7c2e753d5ea443U,
  0x3d9b6f2b3d8d2c07U, 0x3db6e9b43da8df36U, 0x3dd756633dc839afU, 0x3df2bcfc3de470b2U,
  0x3e0aef403e01cd44U, 0x3e1acc103e1379caU, 0x3e29139d3e208cfdU, 0x3e39a6793e317d38U,
  0x3e48abf43e41da00U, 0x3e57e2653e502355U, 0x3e65307d3e5e59dbU, 0x3e75ad1b3e6dc84bU,
  0x3e8326ad3e7db060U, 0x3e8b6c8e3e872f8cU, 0x3e92222e3e8e398cU, 0x3e990c743e96a023U,
  0x3ea2c0853e9d96cbU, 0x3ea8f5883ea577d7U, 0x3eb192aa3eaf4bbfU, 0x3eb7e4573eb49b6aU,
  0x3ec0c5043ebca18cU, 0x3ec64dac3ec29300U, 0x3ecea8d03eccaa6aU, 0x3ed6393c3ed38595U,
  0x3edf04aa3edb1101U, 0x3ee5dc3a3ee33e80U, 0x3eecfc793eeade9eU, 0x3ef602d43ef22dcdU,
  0x3efdc7d23ef9d7dbU, 0x3f02b07a3f00c0f5U, 0x3f06807f3f0495fcU, 0x3f0a55863f08282cU,
  0x3f0ed8773f0c400aU, 0x3f11ff943f101511U, 0x3f15d49b3f13ea18U, 0x3f19a9a23f17bf1fU,
  0x3f1c99ad3f1b9426U, 0x3f2153b03f1f692dU, 0x3f2528b73f233e34U, 0x3f28fdbe3f27133bU,
  0x3f2cd2c53f2ae842U, 0x3f30a7cc3f2f9965U, 0x3f347cd33f329250U, 0x3f3851da3f366757U,
  0x3f3c26e13f3a3c5eU, 0x3f3ffbe83f3e1165U, 0x3f43d0ef3f41e66cU, 0x3f47f5ce3f45bb73U,
  0x3f4b7afd3f49907aU, 0x3f4f50043f4d6581U, 0x3f53250b3f513a88U, 0x3f56fa123f550f8fU,
  0x3f5acf193f58e496U, 0x3f5ea4203f5cb99dU, 0x3f6279273f608ea4U, 0x3f664e2e3f6463abU,
  0x8c6f6aaaa48d7f9eU, 0x737c9a8c985f755eU, 0x97948e8c96757d84U, 0x695c636fb05e9a85U,
  0x7f7a8e9e538b5388U, 0x83a993add17b9483U, 0xa55271b050529493U, 0x8b62ac91a27c924eU,
  0x948e747ea7828081U, 0x887c519876757490U, 0x7b8ca57b9f98606cU, 0x7b9687809e679b66U,
  0x80914b8dbf6e799eU, 0x81799d9464687a09U, 0x718d808086767080U, 0xaa68656f6180808cU,
  0x98788c719b8b8c00U, 0x72807a8bc29fbc9eU, 0x808d5ea8b7907492U, 0x8072a37c98957a77U,
  0x677b888c92406c67U, 0x95986ea6407599b0U, 0x82637d9e95845a0eU, 0x63a87f6ab267965dU,
  0xac73594c8283697eU, 0x80649775986c722aU, 0x88b95f7475676a76U, 0x8b7792857d8c8f80U,
  0x7e979786868b8987U, 0x9396857e757f8980U, 0x8a7b909270908297U, 0x828e8d73948486a6U,
  0x858d8c7a7a847c79U, 0xb09db79fb18da197U, 0x93939270947678a5U, 0xa8b77b7a748a6a76U,
  0x947dac847483908cU, 0x9794988d8b807e9dU, 0x7f9784776f7b9181U, 0x9f8e888c7a908787U,
  0x9193957991847d88U, 0x7f7a8c8277728981U, 0xb39ab29f97979890U, 0x9394877790697f9eU,
  0xa5c36b736b8b6d7cU, 0x9281b0997a8c8296U, 0x83988b898f837c8bU, 0x7d957879707e9379U,
  0x85888d8e769088a1U, 0x8a958a6e9b7e8172U, 0x8c8b90797982917dU, 0xad8faca49e83a092U,
  0x95877467906880bfU, 0xb3a7666e698d707cU, 0x82797b8b9a788ba6U, 0x976a9e826b959179U,
  0x9a84949889848071U, 0x889389806c7f8a8bU, 0x9172b7776c91817eU, 0x678c8e9689977c8bU,
  0x8c777686618772aaU, 0xa086b47883817b64U, 0x81878e847f807c7cU, 0x808a7c7b827f889bU,
  0x9060ad7a5f8a8367U, 0xa68e829379877c82U, 0x9474b47a74809587U, 0xb76d8e7a74857d72U,
  0x79ad7c866f89737fU, 0x8276817449938289U, 0xb3939d7575907459U, 0x8b9290836f8a8488U,
  0x877d897279838a8cU, 0x8b67b18368927c44U, 0x87778696809a6e7dU, 0x8484a58a87839092U,
  0x8e68bc7d748b8562U, 0x81908c9a7f8c6a88U, 0x7b689087639e7b94U, 0xa17fb97d7d966f4eU,
  0x7b8994898585808dU, 0x859098767a918274U, 0x739b698aa07f8093U, 0x7f867d74878f8697U,
  0x857c7e939f917a86U, 0x749b6497937e8d8aU, 0x99817e818e869191U, 0x8e978881ae819278U,
  0x5d8378988c858da7U, 0x897f87938893918fU, 0x8f8c868d9592927aU, 0x75af7798a8828799U,
  0x6d848c7e87879490U, 0x769465918f8c7577U, 0x5f9976928f879699U, 0x93709184998a9689U,
  0x7b9d8691ab7c8089U, 0x6d7f74939d8294b5U, 0x8087828997838a7dU, 0x898e88a2898d8c79U,
  0x879c548d9c8a8fbaU, 0x8597836f87769794U, 0x8789668e8b858572U, 0x6ca16d9095878aa2U,
  0x847c887d8d89987fU, 0x8e987d87a876907aU, 0x75895395887f9ab7U, 0x97887b8492878c7fU,
  0x7c917f788a8b8785U, 0x928b69829385869bU, 0x836e868391937b92U, 0x84878180a7928576U,
  0x7e867198818a8c80U, 0x906f818a908a8e95U, 0x58865b6e867e7774U, 0x7e7d7ca479909a9cU,
  0x73639394978ba293U, 0x739472809c899364U, 0x7992748997909695U, 0x8078928e8f8e8199U,
  0x6a8663809b8e8671U, 0x75897f94829492a8U, 0x886e948d95948c8cU, 0x508755749d6d8281U,
  0x7579809784a29aaaU, 0x8068a4949a7f9d86U, 0x768a6d799a849666U, 0x9691667c949296a7U,
  0x9d84978687878596U, 0x7a8b7a77947f8868U, 0x728f799e81968ea7U, 0x81718c8e8c92828aU,
  0x5f916673967b7c8fU, 0x6a82889d8197969cU, 0x776c9a9a9d859c88U, 0x84947b75908b867cU,
  0x8c887b8395838293U, 0x7a69878a8c907891U, 0x7e837888a8958683U, 0x89857897828b8e80U,
  0x9d7c85858c8b8994U, 0x568657718a807e70U, 0x747981a576949c9aU, 0x785d9495988da592U,
  0x73956a849d858d79U, 0x75917385958c958eU, 0x7c80928d978e809dU, 0x678a6982948f8377U,
  0x777d6e92858d98a8U, 0x8b6c91918b8f8c90U, 0x568c5272a16c8180U, 0x6a797b9889a19dacU,
  0x7c5fa29a9b81a187U, 0x748c707d97848e78U, 0x938a6280928992b3U, 0x938296899086809fU,
  0x7983677595867f71U, 0x808f68a07f9992adU, 0x86728688928b858eU, 0x60955872957e7c8eU,
  0x657f7ea18398969aU, 0x786a989f9a869d8fU, 0x966e64aba4778c9eU, 0x737a9a7d8b6e7c73U,
  0x91a3808c836d8691U, 0x696f6473c058aa93U, 0x8575899861816c71U, 0x75ad91aeb6789383U,
  0xa86b859c5b5f819aU, 0x875ea5998887943cU, 0x81908478a9767d8cU, 0x966e5b927280817cU,
  0x866a8a7698918383U, 0x7d977e7f9974926dU, 0x778b528a997d97a3U, 0x8c7d8b997c757551U,
  0x9186777e927b6686U, 0x9c667573648a6b9aU, 0x8782978b7e8b8b24U, 0x7376907cb38eb9a6U,
  0x808c79a0a99b7595U, 0x6a7f91888f8a8b90U, 0x666b8c9ca9577b7bU, 0x8c8f768d6e72a298U,
  0x885993a2908e5b47U, 0x76aa7f68a574927cU, 0x9f5a415f84767174U, 0x9169897f8588722eU,
  0x7d997b69846e6a80U, 0x99899b8b90857c8fU, 0x859aa48f977570a3U, 0x829f7b6e817a9489U,
  0x967d9a8db87d7f93U, 0x879289919678779dU, 0x9399767b99749677U, 0x9d8d9e8fb4798690U,
  0x8187929284767fb5U, 0x889c8084987d9080U, 0xa4829d989e7b7b87U, 0x959ea98fa28081aeU,
  0x7c9d79798d6f9675U, 0x9589698eab7e76a7U, 0x7f939f859e7a80b6U, 0x998b8380a4709272U,
  0x9d899f94ba787d9eU, 0x80839d8f917788c4U, 0x80937179a0758775U, 0xa183999a8c7c8085U,
  0x9e8f868e9f7782cbU, 0x8d9d786597659a80U, 0x9e87728b906d889aU, 0x83929b90927579b2U,
  0x897c76759870a373U, 0xa8929c8aac658f85U, 0x8485708c856e87c5U, 0x968a686f8c788469U,
  0x84927583868f8d77U, 0x887b7583828b887aU, 0x7e6f898695937d8fU, 0x81917c7a9586907bU,
  0x81826d93758b9367U, 0x897b8897858e8898U, 0x5e79567262897279U, 0x797b7b9f789a9866U,
  0x6c588f8e938e9e9fU, 0x7192627f918a8874U, 0x787f678380909662U, 0x8c72919597977a9bU,
  0x667e7c7d8b898b7cU, 0x787b7693808d947dU, 0x84828b8b879b8490U, 0x587a53716c78806fU,
  0x81778d917ea89569U, 0x704da39792899c91U, 0x748e6c788886976fU, 0x8b7e82857b8f9174U,
  0x927e949386937d97U, 0x82868979968b8768U, 0x7f81779c799a918dU, 0x8281869685917994U,
  0x54855e6f758c727eU, 0x7b8087a17ca7924bU, 0x5d65a6a4a08999a0U, 0x839ecb617b94977fU,
  0x9e8c6c8a81a18dbdU, 0x7451878c8db5897fU, 0x99b5b98a76b17368U, 0x968b9188a28aa890U,
  0x7c5f8a5b478b7188U, 0x4d9f815aabb87060U, 0x7daa6a846d9482c9U, 0x7e68a199698a8f7dU,
  0x8197ae65949d8685U, 0x8997719d746aa992U, 0x8c678a946eb263adU, 0x9a80b26481a27984U,
  0x94987580aca4a4ffU, 0x8c668b8a869e8f8bU, 0x5aac749ab1778c95U, 0x8c8f869483918be2U,
  0x7f9290976e6d6680U, 0x887f98745f7b8e85U, 0x9e87688a6d889a82U, 0xab9d7e7a78ce97a6U,
  0x7576896ec49a7364U, 0x85a8807e699ec2efU, 0xad6e8f94699d81baU, 0x5da6bcb292879c92U,
  0x71847e9e849798d9U, 0x786da895b09ba68fU, 0x9194798d978080a1U, 0x9b7386818f7c7e89U,
  0x7e82818d9b808b87U, 0x8e908d79ab7b877aU, 0x8e787fa57786806bU, 0x8a988093a1849491U,
  0x6b6a607064766084U, 0x837788ad7396887aU, 0x63648b8f9d7daf96U, 0x858f648797807e89U,
  0x8d70927b8a898c7aU, 0x90867f93ac83888cU, 0x757b817ea1738493U, 0x8e748e927c83929aU,
  0x89937d8da08b897dU, 0x666f546a7a6f6a7fU, 0x7e72a69477ab8b7bU, 0x66559a94a579af7fU,
  0x89886f769c7f8d71U, 0x93758a8a80888d87U, 0x90838d8da5828094U, 0x9b83857aa2748587U,
  0x7b7996a6768885a6U, 0x7789748fa68a808aU, 0x6a785965797d607fU, 0x7c7d9caa7ea3875aU,
  0x4d71a298b572a48dU, 0x8f7b9c8d7b828a8bU, 0x8894af8c8c87819eU, 0x8da5817e7776917cU,
  0x857d9b8c7c7f8399U, 0x918ca2759a817eb1U, 0x88958a7c857c8470U, 0xc396bca4bb859d92U,
  0x958d926e947772afU, 0xa8bd77767a826f70U, 0xa57cba8e7e81849fU, 0x998da88b91777aa5U,
  0x85a47a777c769077U, 0xa795959880837f9fU, 0x8c99aa7894797697U, 0x898c857688728b79U,
  0xc59cb8a6a5988f96U, 0x87978e79936375adU, 0x9fc565777a837177U, 0xa07ea69f80858191U,
  0x8b8ca284987e7899U, 0x7e98737a7d739371U, 0x92878793778488a1U, 0x948e8c72967e7e77U,
  0x91858776867a997eU, 0xbc8eb8a59e7ca289U, 0x9889806b905e79ceU, 0xb8af5f646886706dU,
  0xbd41f0b03ec1dc31U, 0xbedfe3643f019d77U, 0xbecc0534beb8cce0U, 0x3cd2f8a13e9add4dU,
  0xbe9101debe3607c2U, 0x3e363f913e92cad7U, 0x3ecefbcabdc1d3d9U, 0x3ebd581bbe53f215U,
  0x3f06849d3ea95fd9U, 0x3e6ee361beb83c17U, 0x3e4e15b7bf19857fU, 0x3edcbd44bee10893U,
  0x3e9601ed3fa6de35U, 0xbe5c95c93e8eddf0U, 0xbed4da56bf20033dU, 0x3efc64c33faf7695U,
  0xbface2d0bf21f705U, 0x3ef21f853f891ef2U, 0x3e99d4d6bd72af6dU, 0xbe18ea803e626dc2U,
  0xbe11fd41bea3c6d6U, 0xbebd4902bea51096U, 0x3e301512beee107dU, 0x3ea2f0edbeacaddfU,
  0xbf1297febd81c59dU, 0xbe2b73c73e6ce9bdU, 0x3ed9ef8e3e77e82aU, 0xbee18ad5bea33e7dU,
  0x3e38e3c83eef50e6U, 0xbeec801d3e9f1cf2U, 0xbfea41f8bf45c7f5U, 0x3f51dfba3f13be55U,
};
