/**
  ******************************************************************************
  * @file    human_activity_recognition_data.c
  * @author  AST Embedded Analytics Research Platform
  * @date    2026-03-06T13:13:21+0100
  * @brief   AI Tool Automatic Code Generator for Embedded NN computing
  ******************************************************************************
  * Copyright (c) 2026 STMicroelectronics.
  * All rights reserved.
  *
  * This software is licensed under terms that can be found in the LICENSE file
  * in the root directory of this software component.
  * If no LICENSE file comes with this software, it is provided AS-IS.
  ******************************************************************************
  */

#include "human_activity_recognition_data.h"
STAI_ALIGNED(8)
const uint64_t g_human_activity_recognition_weights_array[688] = {
  0xbbd5bf7abc94ffb7U, 0xbcfd4095bd02e74fU, 0xbd0f91d93bb472abU, 0xbd3118273bd30cf4U,
  0x3dc06f473d72225fU, 0xbd043973bc42cf19U, 0xbc774334bd2fc1bdU, 0x3d123416bbaed9fdU,
  0x3ce9e02a3c892cf6U, 0xbd15a7423c5ed9a8U, 0xbc174cbbb9317cb1U, 0xbd01ef03bd9ac0beU,
  0x3ce142493db2ba74U, 0x3c05fde83c9b2092U, 0x3c8e6ce33cc4983eU, 0xbd3144623d3dddbeU,
  0x3d23bf3fbc4f57e6U, 0xbe02c106bb5eba73U, 0xbd047564bd91c8fdU, 0x3c0f27dd3c145e42U,
  0x3d71ac483d7d8ed6U, 0x3cddd1103d13c5f7U, 0x3c7c1a943cfe0441U, 0x3cae83303c7f997dU,
  0x3b38a20cbd3514d2U, 0xbc7c28fa3c4cb90eU, 0x3d5b4f6ebbdfe2efU, 0xbc99369cbd7f991dU,
  0xbceb501cbcfc0138U, 0xbd2abb9dbd9fd005U, 0xbd16077dbd341ca8U, 0xbd8ad34fbcb59cbbU,
  0x3cb69f1fbca4621fU, 0xbc7b37153c5b162dU, 0xbc9e7660bceb9c2fU, 0xbe0e0b95bd32b9d4U,
  0xbd94b304be12aa97U, 0xbe053fb5be06f808U, 0xbe1860ef3d83f572U, 0xbcf9a86dbb977744U,
  0x3bfcc818bcb6f46aU, 0xbc77f01c3c3d68ceU, 0xbd0b3bd23cc952b2U, 0x3c939761bc6220e2U,
  0xbd42b2583c04da13U, 0x3c2b03f4bc6a6ae0U, 0xbc5b2a2abbe6e23fU, 0xbb6ebf103ba2c913U,
  0xbd86b801bd33b8c5U, 0x3c12c66cbdec95a7U, 0xbd72567fbd8f2977U, 0x3d0984f8bd8db316U,
  0x3cc4af593c7a15c4U, 0xbc94ac39ba3bddcbU, 0xbd258b05bcf480bcU, 0xbd0262eebcf243d7U,
  0xba52312739453ba2U, 0x3bfedccd3c2d6551U, 0x3ca96638bceb2c86U, 0x3d1362853d9768acU,
  0xbd4c50f23d2c67efU, 0x3d8104793c812a6bU, 0xbe3d5dd6bdc29cc3U, 0x3d30ccf9bd9e8816U,
  0xbc1ca0c73bcb6c55U, 0xba9584d23bf0adb9U, 0x3c333bf23b1a3a55U, 0x3cf7b9eabca42e90U,
  0x3adb2b60bc5eaf82U, 0x3b85a4ff3be0fde5U, 0x3af0028c3c2870e5U, 0x3d7f5c19bc657cfaU,
  0x3ba56932bd71445eU, 0x3d3bff703cc3b5c7U, 0xbd04d9503ca42190U, 0x3d015d17bd207fcaU,
  0x3bd30d8f3bb939d0U, 0x3c1430e2bd13fa06U, 0x3e0ce59fbc6185bcU, 0x3cd0a96a3d5f6879U,
  0xbe09dbe3bd4aa37eU, 0xbded18babdda0265U, 0xbdd56db8bd8e5c5eU, 0xbce8fe5bbde0275aU,
  0x3cc5ae7a3cbf662dU, 0xbce46e77b9f0dcbeU, 0xbd84a5b0bdb6d2a7U, 0xbb4fc73dbd429ae8U,
  0x3e3d6d67be564117U, 0x3dd578c23ac3b48bU, 0x3cdb19563c85a4e8U, 0x3b8da8bd3d42699aU,
  0x3da630ae3cdfb006U, 0x3ac6daab3cfe0747U, 0x3c0d69d13c1785c0U, 0xbe03bd54bd01554fU,
  0x3ded8b41bd6381d3U, 0x3dc7395cbc133d89U, 0xbd0f22533ca0f0a0U, 0xbd06c8fdbcefc181U,
  0x3dc828f63d8b0958U, 0x3cd8e884bd103e2bU, 0xbd561449bba421c3U, 0xbe237e2cbdb7765eU,
  0xbcc11552bc130d6bU, 0x3c6d10eabc9b6496U, 0xbd1861073c4a919dU, 0xbced3dd3bb933c1dU,
  0xbd73aa0abd1edf4eU, 0x3d2ec8793d3e6613U, 0x3cbf9ceb3d543edcU, 0xbd54247b3d071db5U,
  0xba82fa8cbd12a748U, 0xbd79f1d63c83b8c4U, 0xbe23cba5bdf813b1U, 0xbc4be991bdede3bdU,
  0xbe4209a63d0f100bU, 0x3c218eb73cccd7c9U, 0x3c8dd93e3ba472deU, 0xbc9de72abc9c6a95U,
  0xbc951884bc0fc108U, 0xbd1028d0bd21171aU, 0x3d0530593cce5ccaU, 0xbd2a9ad43b739a9cU,
  0xbd2038a9bd2b1115U, 0xbc4fc99bbd3de090U, 0xbbea76213c4271dcU, 0xbd3fb331bcffbaadU,
  0x3d5faba4bc9136bbU, 0xbce72ac43c6f212eU, 0xbcda21533d6ce4eaU, 0xbd674b03bbb710d4U,
  0xbd729c93bdb7cdb9U, 0x3cb1ef42b98f7341U, 0xbb67260e3c9d28ddU, 0x3d89a2dd3ccebdd5U,
  0xbd85342abda6868fU, 0xbb6a6e79bd884138U, 0xbccb2d9a3e1e1ed7U, 0x3d67f49abca09a66U,
  0xbd9f2f7abd0ad4dfU, 0x3d4bff4bbbeb7edfU, 0xbc422e733cf797c8U, 0xbdc3bdbdb8c56525U,
  0x3c444b9b3d641daaU, 0x3ac820aebc421585U, 0xbc69316b3c2cbb90U, 0x3bfb5606bcbe4a44U,
  0x3a97236a3c0f70daU, 0xbd2b33b7bd9c4ef4U, 0xbd1b4d8f3d299064U, 0xbda00488bd6c3302U,
  0x3d445346bc3083c8U, 0x3bf2b64e3b4a426aU, 0xbd28efaebdb1d5d3U, 0x3de0182dbe1cc8caU,
  0xbd8d29d93cb4403fU, 0x3c048d233cd011a7U, 0x3cbbd1763dce44d5U, 0xba9119f13ce610ebU,
  0xbc32018a3d32b22bU, 0xbe01987dbd16226dU, 0xbd304c35bda37677U, 0xbd36cfb7bd419bd8U,
  0x3bdcec15bc7ee82eU, 0x3ca0e1fd3ca64a43U, 0xbd6e0858bca1a5acU, 0xbdcbcc38bce2fb65U,
  0xbc9583cabd802cbfU, 0x3d0579273bf3f07cU, 0x3dd310453d140f3eU, 0x3d8e3ca83de38195U,
  0xbd949609bb839e6cU, 0xbd50617cbdaefc43U, 0xbe068175bdaddc13U, 0xbd2ec5a1bdc37912U,
  0xba04411cbb7b2e0eU, 0xbe1437fe3ceb9e75U, 0xbd1e4e55be46d4cdU, 0x3b9c1d79bd010a8dU,
  0x3bc35abb3cd2f76cU, 0x3c4a1ccdbcafa78fU, 0x3d4014983caf6131U, 0x3cb94fa33ce66fffU,
  0x3cabf9363c84d6ceU, 0xbcde7a8bbd7c7d53U, 0xbd86ba7abd728cadU, 0x3cb93117bbfe0e15U,
  0x3d5888123d2e2558U, 0x3ceb9c793d6659b6U, 0xbd2d4719bd32622cU, 0xbe2609afbdfee534U,
  0x3ea1536b3eff20fcU, 0xbfa508003d88565aU, 0xbf984224beea53ccU, 0xbf8a1b0c3d3061b6U,
  0x3e01a51bbfa9b66fU, 0xbe6b5e7bbdf57b7fU, 0x3f3abdc3bf43c4d3U, 0x3f0d8d003c97278bU,
  0xbf3b8d3bbdb36ac7U, 0xbf142db63df21e2aU, 0x3d12fa15be418020U, 0xbf23bdcabf7397c7U,
  0xbf77ec69bf79c6e0U, 0xbf74377cbf7611f3U, 0xbf70828fbf725d05U, 0xbf6ccda1bf6ea818U,
  0xbf69287ebf6af32bU, 0xbf6563c7bf673e3eU, 0xbf61aedabf638950U, 0xbf5df9ecbf5f6ad3U,
  0xbf5a44ffbf5c1f76U, 0xbf569012bf586a88U, 0xbf52db24bf54b59bU, 0xbf4f2637bf5100aeU,
  0xbf4b714abf4d4bc0U, 0xbf47bc5dbf4996d3U, 0xbf44076fbf45e1e6U, 0xbf405282bf422cf9U,
  0xbf3c9d95bf3e780bU, 0xbf38e8a7bf3ac31eU, 0xbf348f16bf370e31U, 0xbf317ecdbf335943U,
  0xbf2dc9dfbf2fa456U, 0xbf2a7344bf2bef69U, 0xbf266005bf283a7cU, 0xbf223fd7bf24858eU,
  0xbf1ef62abf20d0a1U, 0xbf1b413dbf1d1bb4U, 0xbf178c50bf1966c6U, 0xbf13d762bf15b1d9U,
  0xbf102275bf11fcecU, 0xbf0c6d88bf0e47feU, 0xbf0816b1bf0a9311U, 0xbf0503adbf06de24U,
  0xbf014ec0bf032937U, 0xbefb8e2ebefee893U, 0xbef40d6cbef786cfU, 0xbeec5ff0beeee634U,
  0xbee52fb4bee8ab03U, 0xbedd18b8bee28d95U, 0xbed62864bed9d74eU, 0xbeceb886bed1c8f3U,
  0xbec7ac1abecb628bU, 0xbec07505bec44135U, 0xbeb8d3cfbebc3a85U, 0xbeb0177abeb4f4b9U,
  0xbea8f0ccbead5c2eU, 0xbea172d8bea64b1aU, 0xbe9bdfd8be9e0f25U, 0xbe92f008be97074cU,
  0xbe8bc657be8fd757U, 0xbe833b23be875ecfU, 0xbe7b032cbe810244U, 0xbe6d5cccbe7415a4U,
  0xbe5cf320be6344ccU, 0xbe4e27e6be53cc1dU, 0xbe3ff046be4807fdU, 0xbe30a136be38f0bfU,
  0xbe1f4bafbe25412dU, 0xbe1256c1be19167aU, 0xbe04a36ebe0b6deaU, 0xbde9ace9bdfb07f4U,
  0xbdcbd3e7bdd8a264U, 0xbdae9629bdbd89cdU, 0xbd8f2695bda019daU, 0xbd68e2edbd81c281U,
  0xbd2d345cbd486b77U, 0xbcde2f74bd0b4bd0U, 0xbc61ff55bca6af4fU, 0x3ad3cea3bbc8d946U,
  0x3c84e4993c2047b8U, 0x3d00e39d3cc58a05U, 0x3d362fe13d1ee1afU, 0x3d6c3de73d52f30bU,
  0x3d94ec533d8486a5U, 0x3db2d9943da3d7caU, 0x3dcfcf563dc0dd3fU, 0x3df11e0c3de23d15U,
  0x3e05ce683dff3bbcU, 0x3e14d4543e0cd527U, 0x3e248e363e1dadf2U, 0x3e33944c3e2a5014U,
  0x3e4162933e3a72c8U, 0x3e53e3393e49d665U, 0x3e6434363e5acdd9U, 0x3e6eb2a83e6a60e0U,
  0x3e7e73793e7565d7U, 0x3e8634763e829216U, 0x3e8f6a893e8a1e4eU, 0x3e9418e03e913753U,
  0x3e9c8dff3e979e88U, 0x3ea435323e9fe564U, 0x3eaaf5053ea87d11U, 0x3eb33abd3eae89bcU,
  0x3eba131c3eb643b1U, 0x3ec0e43d3ebde400U, 0x3ec9532c3ec5527bU, 0x3ed0b23d3ecc4065U,
  0x3ed673543ed3e8adU, 0x3ee035953ed99b9cU, 0x3ee6acdb3ee21a36U, 0x3eee24d03eea6be4U,
  0x3ef5efa03ef019a3U, 0x3efc917c3ef8969aU, 0x3f022a233f00d190U, 0x3f05df103f0413b0U,
  0x3f0993fd3f081a24U, 0x3f0d48eb3f0aa1e7U, 0x3f10b09a3f0f2361U, 0x3f14830f3f12d84eU,
  0x3f1867b23f168d3cU, 0x3f1c1ca03f1a4229U, 0x3f1fd18d3f1df716U, 0x3f23867a3f21ac04U,
  0x3f26fa403f2560f1U, 0x3f2af0553f2915deU, 0x3f2ea5423f2ccaccU, 0x3f325a2f3f307fb9U,
  0x3f360f1d3f3434a6U, 0x3f39c40a3f37e993U, 0x3f3d78f73f3b9e81U, 0x3f40e5193f3f536eU,
  0x3f44e2d23f43085bU, 0x3f4897bf3f46bd49U, 0x3f4c4cad3f4a7236U, 0x3f50019a3f4e2723U,
  0x3f53b6873f51dc10U, 0x3f576b743f5590feU, 0x3f5b20623f5945ebU, 0x3f5ed54f3f5cfad8U,
  0x91736eacab8e7a98U, 0x6d7d928d9c617861U, 0x9995908b98758686U, 0x715f6577ba60957cU,
  0x797886a75d8c548bU, 0x8aa999add07c9f89U, 0xb05b74b655559793U, 0x8966a998a8839350U,
  0x9e977685ab868983U, 0x8d7b539c7b76728aU, 0x728f9b80a795646fU, 0x7c9a877ca4669d6aU,
  0x8d924d94c8707797U, 0x787e939b6e667d09U, 0x779585808e767282U, 0xb76d68776881808dU,
  0x947b8579a58e8d00U, 0x79897e8dc6a2c2a1U, 0x868d60aabc93748aU, 0x7c759b85a1927d7aU,
  0x6e82888c97447569U, 0x9a9871ad467695a8U, 0x7b68759f95865f0eU, 0x66af826bb7669b62U,
  0xb4775c578a83697dU, 0x816a947d9f6d762bU, 0x8ec061757b6e757bU, 0x957d938b7e928a74U,
  0x709d868d94948e87U, 0x9e9d8e877c839188U, 0x9183909b70977c8aU, 0x75977c79a18d8aa7U,
  0x8d94958280878382U, 0xbba5b8abb2959c8bU, 0x879b8379a27f7fa3U, 0xb6bd88827a8f7380U,
  0x9d82ae8b75898b80U, 0x8a9a87949787849eU, 0x879c8d7d75809689U, 0xa89588947b978279U,
  0x839b84809e8d8388U, 0x867f95887e758f8aU, 0xbca2b3ad979f9584U, 0x849f7a819d70889eU,
  0xb5ca767c74907488U, 0x9b86b2a27a917d8aU, 0x75a17b919b89828cU, 0x869b818079839a83U,
  0x8b8c8e9677988394U, 0x7a9c7b75a6868972U, 0x96949a8181859786U, 0xb49aacb09f8fa087U,
  0x869468719b7388bfU, 0xc6b26f7874937a87U, 0x85737f8ea273829dU, 0x8e6795856c8f8b7cU,
  0x9a878e90887e876dU, 0x918d8c84727e8281U, 0x876dae7b70897d81U, 0x6c928b8f8990818aU,
  0x98737a88678370a7U, 0x9b80af7c84767967U, 0x819483787e808577U, 0x8485807f8b798193U,
  0x8760a37f64827969U, 0xa6947c8b7a7f827dU, 0x9d6fb97d7a7e8d7dU, 0xad69837b797e7574U,
  0x7cb77a7f7280767aU, 0x906f857a4d907f86U, 0xad8b957b80826c5cU, 0x8aa086776d898a81U,
  0x88778c74807e8282U, 0x8465a6876c8a7244U, 0x87827f8d7d947777U, 0x8a7fa98c8f7d8687U,
  0x8467b17c74847d63U, 0x829889927d836d83U, 0x8961958e68997892U, 0x9c79b08383886a51U,
  0x7897887c83858883U, 0x819594727195897cU, 0x7b9d70869e848490U, 0x7f81837b87957d99U,
  0x7b807a8d99918190U, 0x7e9e6d928e859187U, 0x947a81878e8d8c91U, 0x8199837da883927bU,
  0x61887f93888e8ea3U, 0x8870909e88918694U, 0x8a9082878b969881U, 0x7dae8092a2889096U,
  0x6b7d9185858f8d94U, 0x6c97618d878d7c80U, 0x699a8092898c9c97U, 0x9065938a9594938eU,
  0x6da38288a57f828bU, 0x71857b8b908f9cb2U, 0x80798b9598828282U, 0x8692849f81919382U,
  0x8f9d5e88969097b9U, 0x848b8877897c8c9aU, 0x808e618a82898f7cU, 0x76a17891938c92a1U,
  0x82748b848e929583U, 0x7f9d787fa27a917bU, 0x7a8d5c8d808c9eb4U, 0x977a869093848388U,
  0x7a917b75838c8e8eU, 0x9b8a74808e868698U, 0x836d878692957591U, 0x7d867e79a2908b80U,
  0x8a857d957c8a8c7dU, 0x8c6a818c92908c93U, 0x507e5669807c7879U, 0x837b84a376919798U,
  0x7056949896889692U, 0x71966e7b948b996dU, 0x828e7f8590949992U, 0x7f7693938c927d98U,
  0x64865f7b958c8e7eU, 0x80858b967c9494a6U, 0x87679291919b8b8dU, 0x4586506c986c8285U,
  0x7e78898f76a99ba7U, 0x7b5da998987e9a86U, 0x758a697695839b70U, 0x9d8e73778d9499a5U,
  0x9a7a998987877c97U, 0x768b76738c7f9073U, 0x7e8b879e7d9691a5U, 0x7e6c8b918d97818cU,
  0x5390606c917a7c92U, 0x708194967a9c9398U, 0x725f9f9e9c81958bU, 0x82957772898d8e86U,
  0x9587868191848390U, 0x7b69898e8e917090U, 0x78817582a3918d8cU, 0x958385947c8a8f7dU,
  0x987785868d918692U, 0x4e7e516d857e7f75U, 0x797888a473949996U, 0x75519599978b9991U,
  0x7196657f95869282U, 0x7f8d7f818f90988bU, 0x7c7d949294927d9dU, 0x618a657c8d8e8b83U,
  0x837b7a947e8e9aa7U, 0x8a668f9588968a91U, 0x4b8b4d6b9c698184U, 0x7479858f79a99ea9U,
  0x7754a69e98809d87U, 0x768c6c7991849483U, 0x9b886e7d8b8b95b2U, 0x9179978d918778a0U,
  0x768462708d86877cU, 0x8c8a75a17b9b94abU, 0x846d858b9392848fU, 0x5393526a907c7c90U,
  0x6b7f899a7b9d9596U, 0x725e9ba29a819693U, 0x9a7267adaa788797U, 0x6d7c937f91707e76U,
  0x95a4808d866e9093U, 0x7174667ac95aa58bU, 0x7f747ea16b846b73U, 0x7cae97b0b3799c85U,
  0xaf7389a46161849aU, 0x8664a2a08d8b963dU, 0x889b867dae7a8791U, 0x9c6f5d9578818077U,
  0x7f6d807ba0918487U, 0x80997f7c9e75956fU, 0x828b5493a27d929bU, 0x8680809d85717853U,
  0x948a7d7c977b6a88U, 0xa56b797b698d6c9bU, 0x83879192878f8d25U, 0x7880907fb790beabU,
  0x868c7ca3af9c738dU, 0x6681889097878d94U, 0x6b728e9bac5b857dU, 0x908d799576739f8fU,
  0x805f8ba2908f6049U, 0x76b17f68a9739482U, 0xa75f43688b787174U, 0x917086878b8b772fU,
  0x85a17b6b8a747583U, 0x9c8e9f8a93867888U, 0x7f9b9b8d9a7974a8U, 0x859d8071857d968cU,
  0x97829d91be7e798aU, 0x829381929a7d7aa0U, 0x94977b7d97769c7bU, 0x9a94a18fb97a848bU,
  0x7a898b95867f7fbbU, 0x9196878f997b9284U, 0xa784a198a17c7a80U, 0x8e9fa090a58285b3U,
  0x809b7c7e9173917aU, 0x9a8b6b92b07e73a0U, 0x78979889a47c84bcU, 0x9c888684a8729376U,
  0x9a90a296be797c9aU, 0x778595928f818acaU, 0x888f7482a173837aU, 0xa5859b998b7d807fU,
  0x98917d91a07a89d2U, 0x949d7a679d6a9a86U, 0x9f89758c93708794U, 0x7b9793908f7b81b8U,
  0x8d7d777a9c71a079U, 0xa197a08fb1678e81U, 0x7d886c8f82778bcbU, 0x9e866d789278896fU,
  0x7d8c727e848a9586U, 0x9776887e77848476U, 0x766b817f8f907588U, 0x79897a71927f998aU,
  0x917b7f8e6a808f64U, 0x8276808f828c8091U, 0x556e52695c827886U, 0x88738c996e8f9260U,
  0x5f5283848d8a9596U, 0x6a8e5e7a8e868f82U, 0x88797a7d758b925eU, 0x866f8a9090937794U,
  0x5c797a768784938cU, 0x8974888c73868e7aU, 0x7e7e8485809b7e89U, 0x50714e656672837cU,
  0x926e9d8871a08d63U, 0x62469a8e8a879686U, 0x6c8a6a7186829e7dU, 0x9b78957e718a8c70U,
  0x89788c8d7e8d768eU, 0x7c83877292858e76U, 0x907b899771948a8aU, 0x7a7a7e8f7f8f758bU,
  0x4d7c59646f827389U, 0x8b769597729c8a44U, 0x4b5d9e9995849097U, 0x7c9cc96076969c86U,
  0xa38e748679a18bbbU, 0x7054838e8db3807eU, 0x92b2b8826eb17970U, 0x9b8e99819989a88dU,
  0x765f855a4a8a6683U, 0x45967d53a5b46e60U, 0x7fa46d80698d7fc7U, 0x775da0936587877aU,
  0x7999ac608e9f878bU, 0x90967c966b6ea88fU, 0x8a67889869b162aaU, 0x8f7fb05d79a27b8bU,
  0x9d947f78a1a6a1ffU, 0x8662868a7f9d8f89U, 0x51a76f92ac758c95U, 0x918b8b8e798d89e1U,
  0x7a8a90956b6c607bU, 0x8380956f597b8f8dU, 0xa1837083678b977fU, 0xa6977d7972ca8fa2U,
  0x6f778666be9a776cU, 0x8ca488806b9ebeefU, 0xac688c94659d7db4U, 0x56a2baaa8c849a91U,
  0x727e82977d9493d7U, 0x7164a994a9969d8dU, 0x95967d8f9e807c9cU, 0x98748083937c7f8dU,
  0x8085808b9d809287U, 0x9491917fb37e8374U, 0x88767ca97d83826eU, 0x8e9a808fa1809b95U,
  0x746d64766a786384U, 0x827a87b376948d7eU, 0x696f888fa180b79aU, 0x8a8f678c9f7f7c85U,
  0x89728c8191868a7dU, 0x93887d8faf828b8cU, 0x7f7a8483a976828eU, 0x887688978480919eU,
  0x8f9a7f8ba6888b7bU, 0x7173567181726c81U, 0x7d75a59d80aa8b7fU, 0x6e609796a87bb581U,
  0x8d877178a27e8b6cU, 0x9078848f86848d8aU, 0x928a8a87a6838894U, 0xa081897dab748183U,
  0x747b8fa5778787aaU, 0x7990758ba787838aU, 0x767d5d6e80806283U, 0x7c8199b485a38a5eU,
  0x547aa097ba76af8cU, 0x96819f937e87827bU, 0x79999c91988f85a1U, 0x95aa89857c799983U,
  0x8c859e9580857a89U, 0x81928f7ba68b81b4U, 0x8f9b9284887d8b77U, 0xcca0c1adc28b9785U,
  0x869581749f8277b4U, 0xb5c4837f80867878U, 0xac80be9582857d91U, 0x899495929d7d7ea9U,
  0x8ca8827c837a947eU, 0xb09a97a08487778fU, 0x7ba1987ea0817b9aU, 0x8f928c7b90739080U,
  0xcea4bcb1ab9e8b89U, 0x769f7e829f6b7cb3U, 0xaccc6e8082857682U, 0xa882a9a583887b82U,
  0x7b93908ca2837c9dU, 0x879f7b8085779a79U, 0x988a899b7b8a8192U, 0x819579769e858579U,
  0x988b8e7c8d7b9e87U, 0xc397bdb0a486a17eU, 0x889471759a6880d5U, 0xcab9666e728a7976U,
  0xbe5553643e87aafdU, 0xbeae47003ed0ab94U, 0xbe8bcf4abe7142ecU, 0xbd8e0e0f3e46eb80U,
  0xbe33dcf4bb2fa286U, 0xbaf286803e671fc9U, 0x3ea28ed6bddbec35U, 0x3e7fdf18bd94d840U,
  0x3f32bb923f009c32U, 0x3ddd529cbeb19ad3U, 0x3e79bee5bf0768ebU, 0x3eb9e871bea3a923U,
  0x3ebc7e5b3f996addU, 0xbd5551073ddad84eU, 0xbea58902bf0938beU, 0x3f01f10b3fa37332U,
  0xbf9fda6fbf225addU, 0x3ef066c13f7a7989U, 0x3e9a4d1e3d251eeeU, 0xbd0015b23dce5168U,
  0xbe09bf79bea453e9U, 0xbe11835fbe72a571U, 0x3d86b464bf050f4eU, 0x3eb97baabee37fa0U,
  0xbf16c4b83dded2efU, 0xbeb28b5e3ed48e41U, 0x3e63dfe83d1010ffU, 0xbea19202be145875U,
  0x3c721d043ecfd8d1U, 0xbebc6f573e7a392bU, 0xbff7aed3bf0fb0c1U, 0x3f5a90953ec6ee5eU,
};
