/**
  ******************************************************************************
  * @file    network_data_params.c
  * @author  AST Embedded Analytics Research Platform
  * @date    2026-04-15T13:39:19+0200
  * @brief   AI Tool Automatic Code Generator for Embedded NN computing
  ******************************************************************************
  * Copyright (c) 2026 STMicroelectronics.
  * All rights reserved.
  *
  * This software is licensed under terms that can be found in the LICENSE file
  * in the root directory of this software component.
  * If no LICENSE file comes with this software, it is provided AS-IS.
  ******************************************************************************
  */

#include "network_data_params.h"


/**  Activations Section  ****************************************************/
ai_handle g_network_activations_table[1 + 2] = {
  AI_HANDLE_PTR(AI_MAGIC_MARKER),
  AI_HANDLE_PTR(NULL),
  AI_HANDLE_PTR(AI_MAGIC_MARKER),
};




/**  Weights Section  ********************************************************/
AI_ALIGNED(32)
const ai_u64 s_network_weights_array_u64[1376] = {
  0x3dc9cc08ba59536fU, 0x3f1b0648bf13f23dU, 0x3e37552f3c4abc9cU, 0xc07bc6c5bd2cf44eU,
  0xbfcb652dbf32cfa5U, 0xc0737da5bd8df979U, 0xc014927f3bd2d0f5U, 0x3f9db22fc166fac8U,
  0xc01beedf3b798ab3U, 0xbe5602c5bf034fb8U, 0x3e88bb23c090db30U, 0xbeb168ebc063e790U,
  0x3d846490bfa31c4aU, 0xbc9249a7bee82326U, 0x3d490dbabf7ab2d8U, 0x3e24041fbf0ddab0U,
  0xbf80b6babda2f8e5U, 0xbea245acbee685a1U, 0x4023d010bf960dd9U, 0xbf9450b63d7dbbf5U,
  0xbfd5736b3b9e8254U, 0xbf9a1459bcc15301U, 0xc036ea83bca285e3U, 0xbfc9aee5bc9891aaU,
  0x3f464f83bdb779a3U, 0xbfca8d68bdb80241U, 0x40355a98bf51d12eU, 0x3fc24f28bf461529U,
  0xbe0daa7fbf016971U, 0x3ef993bebed13fd8U, 0xc02a4fb9bc8c9b75U, 0xc015223c3e827486U,
  0xbf6c72e0be8981f6U, 0x3f610cc9bc07ed61U, 0x3f6ee1a63d935510U, 0x3f2b4e413b84a9b8U,
  0x3f0231d9bcb1563aU, 0xbf613f903d5eb1ddU, 0x3fcd5021bf38a8cdU, 0xbfbb79b1bd4a87fdU,
  0xbfacb7a13cb5affaU, 0xbf6cdf05bb5c94a9U, 0x400164c0bf130483U, 0xbfcb12cdbd97254eU,
  0x3fa68e4cbebb48a7U, 0xc00916a1bd0e0920U, 0xbf94c4933d6e7035U, 0xbf3e53d1bbd42f35U,
  0x3ed313f2bbbeee35U, 0x4002d035bfb9ae93U, 0x4060d3a2bfaf6e5cU, 0x3f664920bea42bbdU,
  0xc015037e3d71b05fU, 0xc04c984d3d325ce1U, 0xc00f9aa23d1bd6e9U, 0x402ab538bfd52aceU,
  0xbfaae6ce3c9180f5U, 0xc065f0123cd79126U, 0xc0a5c079bf852e0dU, 0xc05c9d203c17f65fU,
  0x4005a8ecbe1a6f57U, 0x403cdaf7be5a9895U, 0x3fb67399bd9aa49aU, 0xbee795633bb776d5U,
  0x3f2d38d3bf06c8d0U, 0x3cd3ce05bf746e0aU, 0x3c82162cbd9b8104U, 0x3ef0047bbe569ca5U,
  0xbe0b6e4dbe25dacfU, 0xc0096aacbd8bfe5bU, 0x3f10de94be62fef2U, 0x3f73f15ebe847f49U,
  0x3fa493b8405e5727U, 0x402b5ad640305a86U, 0xbeba8932405356d1U, 0x3e59c77fbd71f60cU,
  0xbe975c203f7bf5ebU, 0x3fef21e6bf186b8aU, 0xbf76c2343e92a345U, 0x3d892ac03f9d500cU,
  0xbd50ba693c1bf805U, 0x40002a443eeb66e2U, 0xbf70b9f83ef72d64U, 0x3e192a623edc11edU,
  0x3e0762f23e13ad94U, 0x400b09183ea53a79U, 0xbf160cef3f29c244U, 0x3ee4f01a3e8474b7U,
  0xbe5bbb523ef5c780U, 0x3e60a6373eb80d7bU, 0xbff925893e92f974U, 0x3eb9dbbc3f71848dU,
  0x3dbee7d1be8ce283U, 0x3d863cba3c81aff6U, 0xbf400b0d3ed9e24fU, 0x3e392a9d3f4e1ef4U,
  0xbbd766073f0752b6U, 0x3e8b85193e327d9dU, 0xbbc67b243fa5763aU, 0xbdbcd4973f81017cU,
  0xbf86813dbf62a20bU, 0xbb6cf49e3f131221U, 0xbf91b4113f487e1eU, 0x3dea19af3f041d89U,
  0xbf4e38c0bfe15411U, 0xbebb8c293eef67b1U, 0xbe9848a53f562e1fU, 0xbde3f45a3df9e564U,
  0xbeaba7bbbe736c44U, 0xbea66a893ebdf75eU, 0xbe8ae38b3fbdf12bU, 0xbeac32733f1d1eccU,
  0xc031b961bfd830a3U, 0xc086fcfcbf4954c4U, 0xbf56b8c9be9cbf98U, 0xbf4fb62fc03512ffU,
  0xbff413f23e42ff4dU, 0xc0824d37bfdc2bd1U, 0x3fd5688dbefb6a6fU, 0xbfbf23953ed9315cU,
  0xbf0288f8bf4ed465U, 0xc011f2e8bfa01d16U, 0xbeb22420bf73e86aU, 0xbf9724acbf844548U,
  0xbf7a4cff3f01ed71U, 0xbf545afa3fcc2167U, 0xbf0a0784bd99b747U, 0xbfc62aa83ef8deecU,
  0xbfca805fbea64e44U, 0xc011742ebe075abbU, 0xbe203dca3e9c333fU, 0xbfdb2b2cbe8eb5f9U,
  0xbfa9481dbe735dcaU, 0xbf288ee6c0343d90U, 0x3f53e8de3f29e880U, 0xc01ac4213d31e320U,
  0xbedffabc3f4fdb33U, 0xbd84cd9c3ef0537eU, 0x3e4bc8cd3eb55a43U, 0x3cdf38343ef9f376U,
  0xbf7e12c43f04d44dU, 0xbf57aef73f0a7a91U, 0x3ef43eb73ea03021U, 0xbc9a74753ebbe5eeU,
  0xbf00eb343f8785f2U, 0xbe6969a53d82069cU, 0x3e691569bf9dc6e4U, 0xbf01d56e3ef70173U,
  0xbeb097933b8f55c5U, 0xc0207878bf24952fU, 0xbea347e03da4a24dU, 0x3eb67c973e0f0f89U,
  0xbf5687ab3f7a0dd1U, 0xc0855ecd3ea5d502U, 0xbd9053ab3e82a7a9U, 0xbd4ad7b23ee633efU,
  0xbe7b1c6a3e5156caU, 0xc08a916f3e02fcd1U, 0xbe2066dfbecbcd17U, 0x3fbd0764bf4135d8U,
  0x3f1f72873f8cf45eU, 0x3d9c587fbfa15304U, 0xbe3e76e43d2af3c8U, 0x3ebf7323bc8fd166U,
  0x3dc874783fab2f63U, 0xbd6803d4be07ee67U, 0x3eb4a45abd9a2e08U, 0x3f36c8803e8bc750U,
  0x3e6df6393f61e07fU, 0xbf43371a3e4592d8U, 0x3e02da42bf5bb35cU, 0x3ea9bb0cbe48c087U,
  0xc04f096fc0d4948fU, 0x3d9bc091bf31937dU, 0xbfe32542c0be5490U, 0xbf0b4506be40dd78U,
  0xbf95b22fc0c9b532U, 0xbde9cb74c00e4723U, 0xbf471af1c09f2613U, 0xbe5b47d6bec05d65U,
  0xc0406924c0a59c07U, 0x3dcb5ef6c0592c2cU, 0xbda113d1c0adc85fU, 0xbdd0e39ebdd1d5e9U,
  0x3dc89086bf158880U, 0x3f13a8723f543f74U, 0xbeec3d653f6a9220U, 0x3f39884e3f3dc135U,
  0x3e88c43a3f3852e4U, 0xbf89a2c83fbbf27fU, 0xbe65a51e3efe79b5U, 0x3fa7b388bf042efeU,
  0xbf845bb1bc9de7d5U, 0xbfed12b83fb35124U, 0xbe5a8db33e89b7a7U, 0x3f72ba72bd1f8c78U,
  0xbeeed6bebfa26f4bU, 0xbec8e6fb3f0aac07U, 0xbfc97189bd16a513U, 0x3f4e4239be41b0afU,
  0x3e471755bdf4bc93U, 0xbf099ff0be668284U, 0xbfa47c73bd16c76eU, 0x3e529c24be64c6bdU,
  0xbeca420b3fdfd317U, 0xbfc5b0a6be9a9014U, 0xbf0206e43f49c793U, 0xbeb3b718bee96a59U,
  0x3f4e3142bf2d7f63U, 0xbfeebe833f956674U, 0xbee3c1da3f1959adU, 0x3cc5aadfbf586b12U,
  0x3e821eb7bf8cb256U, 0xc0603a043e926eceU, 0xbea10c8ebf923f27U, 0xbed4be67bfccb54dU,
  0xbd134084be210f7fU, 0xc016414fbed7b79bU, 0x3d7cb4e83ea50062U, 0xbdb2be6abf796308U,
  0xbfad66cd3f7fc907U, 0xc04d7f0abfa9857cU, 0xc00ab282bff9a8b1U, 0x3b101ba8bf5e602eU,
  0xbfe70f23bf47e8faU, 0xbfed6ca9c005516cU, 0xbfed93a7bfd53e40U, 0xbf586bbfbefa8c57U,
  0xbf0f12ce3e4d1920U, 0xbffc6355bf9aa366U, 0xbfe5e3293da7d9faU, 0xbdd3a19abf10d7e3U,
  0xbfa0e27fbe073f5dU, 0xbff0edd33f86bc17U, 0xbe05e6083d81df0aU, 0xbf1f5ea63fc09dbfU,
  0xc026f9763f3e7808U, 0xc076507d3ee59a31U, 0xbf1c048ac0100387U, 0xbfdcd3edbecb454cU,
  0xbf69d115bdc2e48dU, 0xbfe5bb1cc0400607U, 0x3e608f823f9d20b4U, 0x3f29592f3ef874a2U,
  0x3e99cde0bec33f44U, 0xbf3972e03fa272a8U, 0xbf6c7458bf3af685U, 0x3e98ecec3f02d873U,
  0xbe85c535bf6a03bdU, 0xbf24f3913ebbf437U, 0xbeb11ce13d04b11eU, 0x3f658e10bf625ba6U,
  0x3d9a1f6abf8d0ecdU, 0xc014777fbe209af6U, 0x3c7b286b3f5c99e0U, 0x3e5cd14f3f63ed85U,
  0xbe5da147beddcdb0U, 0xbf9dcd27bfda9b24U, 0xbf0bebddbeea6be7U, 0xbe861ff5beccf773U,
  0xbdb879ca3dc0247fU, 0x3f740f62bd83a328U, 0x3ef3ef573d9e5175U, 0x3d078c653db6111bU,
  0x3f7033a13f55b4c5U, 0xbf3d9cbb3d4b7a9aU, 0x3e66d84ebf071c89U, 0xbfb9acd43f0ac323U,
  0x3e7735983d3951daU, 0xbf30ea05bf1600a2U, 0x3f08a4c13e57525dU, 0x3f118946be4bb49cU,
  0x3f5e3035bf92b9c0U, 0x3ea66ce9bfc7d9abU, 0x3f5a247fbdd02b9dU, 0x3e2067f0bf8e7d7aU,
  0x3e658306be803a15U, 0xbeaf2423bfd2b098U, 0xbf0afab6bf40fb45U, 0xbe8a1462bf248e5cU,
  0xbfa47f37bc7b21d0U, 0xbf293bb4c0a4aebaU, 0xbea40be2bd77d921U, 0x3f6a5e00bf3198a9U,
  0xbec9da64be864f32U, 0xbde7ac5dbf7a2056U, 0x3ede304abeb40decU, 0xbe1e1d35bec7a370U,
  0xbf5b3095bd4e6d58U, 0xbed974bcbe83c052U, 0xbf6db39fbfa7516cU, 0x3ca8e0aebee7675dU,
  0xbfeb8ccbbf46bf80U, 0xc010611bbf88f4daU, 0xc01029f1bdc6c0ecU, 0x3d3ef4d3bf2f18ffU,
  0x3d7c0cf0c012cb6aU, 0xbf2af796c01fca7bU, 0x3f6f79343dfa1c1dU, 0xbe321c1bbf2d66e6U,
  0xbe110e533dc2d424U, 0xbc93e9afbf8497a6U, 0x3eeca818bf27b0c9U, 0xbf1487d7bfa4a7b4U,
  0xc031c393bfa7f021U, 0xbfbfb668c07be28cU, 0xbff9232cbf2bdc7cU, 0xbf0e095dbf3a2724U,
  0x3ca21993c0021347U, 0x3e0cec4bc0967ba7U, 0x3f0e31933e3aea6dU, 0x3db55b30bf6036ceU,
  0xbe391a66beb11d64U, 0xbe2e6b46bfa30af4U, 0x3f4829763f46e090U, 0xbe879520bf89cb36U,
  0xbf02a440bde3fac9U, 0xc05c45aac0214c67U, 0xbed85d223e8d90d2U, 0xbf2900ec3f2ab68fU,
  0x3f0abab73e3a5262U, 0xbf0a4c26c0c0abf0U, 0x3ebc9e56bbb3d8b4U, 0xbd0e6e66bd97f663U,
  0xbe0b3983be9c068fU, 0x3e0f6345c08d1d86U, 0x3f1c027b3f38ece1U, 0xbd9ffec4c0553865U,
  0x3f1557d83fe03343U, 0xbf1fcaedbdf6a010U, 0x3f69cdba3ca9ab70U, 0x3e9c7ede3f307896U,
  0x3e70ce4bbd849305U, 0x3f545ebfbee3edffU, 0xbe7c5194bd55a556U, 0xbee339b6be27c505U,
  0xc06150c1bf29e071U, 0xbf8622d9bfbdde3bU, 0xc027b15fc000fa7eU, 0xbfe54fb5c018043cU,
  0x3f02b7bfbf61b4d4U, 0x3f2f4d3fbfcab421U, 0x3efada44bf2cadccU, 0x3eb8de7bbf2656c4U,
  0xbd5b9449bdad1f61U, 0x3f118d05bcaf81d3U, 0xbedb1e43bee4d0c2U, 0xbe6bab67c01593d8U,
  0xc064e43c3f3a922eU, 0xc03b25d53ed3b933U, 0xc029df0bc08679baU, 0xc02b041dc06a19a5U,
  0xbc4f88ef3e30ec68U, 0x3d82a156bfd6acd0U, 0x3d80fdf4bf610b5dU, 0xbeb8691ebe851ee1U,
  0x3ea36a4fbd1f6cd1U, 0x3db7428b3f2894ddU, 0xbf96f782bf82b4c8U, 0x3eef242ebffffb37U,
  0xbff7e628be7a0fdfU, 0xbf66e077bc78e8c1U, 0xbf7d5a31c02c52b6U, 0x3f95eac8bffd61aeU,
  0x3fb428823eb2df21U, 0xbeb31b34bed5e339U, 0x3f5e1f8abd2c66a4U, 0x3e4dbd61bfcbaa70U,
  0x3e89f5fa3eb4b825U, 0x3ede890d3f98e502U, 0x3f8061203d97a57aU, 0x3f66854abdbf720cU,
  0x3ea1617a3e926492U, 0x3f3104f53ebdfaa6U, 0x3f5536e4bf5900f1U, 0xbf619ce0be869029U,
  0x3d6e34ce3e5c94c1U, 0x3f350377bed98c80U, 0x3dc657f5bf816821U, 0xbe68061dbf4875caU,
  0x3f79db043f6e13c5U, 0x3eecc6493edb4361U, 0xbf5c9fbdbfb4a7e3U, 0x3e4f32f5bd960546U,
  0x3f3bb1623edb7cfbU, 0x3f83a1a53ee535aeU, 0x3f0210d93eb7a31eU, 0xbeff0d42bdf89685U,
  0xc06a0a2d3e77b8fdU, 0x3e0014abbf4e7114U, 0xc06eceeec054c745U, 0xbf708f153dd1e714U,
  0xc09ccecd3f8382a6U, 0xbf9b091abf3f8d8eU, 0xbf4693bdc03690bfU, 0xbf73e8f83ebd2731U,
  0xc040a9893f208cf7U, 0xbf9798f6bf8d587dU, 0xbf13bba7bee913e4U, 0xbed35da7be42dd6cU,
  0xbe6875dc3ed3c23dU, 0xbed6da92bec23d2bU, 0xbf9fb40abf435b38U, 0xbf3a3b01be8dbddfU,
  0xbf1ddc9fbe14f8e0U, 0x3f88a97abf9c9bc2U, 0xbfaca831bf514abfU, 0xbf3d3b43bfb2d6cbU,
  0xbedacc8d3ea095e6U, 0x3ce2837ebca27539U, 0xbec94d95be83e1f8U, 0xbf26daabbf57db9fU,
  0xbfc811c6bf35e577U, 0xbfffd477bfcad65cU, 0xbfa4a66c3eeea2f8U, 0xbfeeafc8bf9017c3U,
  0xbfc5ace6be37ca5bU, 0xc0184340bdb52cffU, 0xbfb8ad46bf77d0ffU, 0xbdcb5e7ebf0577f4U,
  0xbf22f7b8bf1c3b65U, 0xbf6da4d8becb9488U, 0xbe74b8ddbfce625aU, 0xbf8e646ebfb91395U,
  0xbf8a3694beead3a3U, 0xbf9777dfbfb2e159U, 0xbef395263e615713U, 0xbee900d3bff654a9U,
  0xbea212cf3f1e9efcU, 0xbfeae86e3c2f2449U, 0x3d8731bf3f4ee387U, 0xbfa078123f5e156bU,
  0xbf3b5aa5bf7e433cU, 0xbf89a35b3ef95b28U, 0xbf281503bee08078U, 0xbffda3ebbfe4b0c0U,
  0xc044744dbe7bd157U, 0xbfe9ceeac01fdfe1U, 0xc093676b3edcc4eeU, 0xbec81d9f3fce0694U,
  0xbfbf6e6f3fd3bb17U, 0xc06b26183faf14eeU, 0xc07c41ec3d69ee1aU, 0xbda852883f688a5cU,
  0xbfda0bebbfbfd24aU, 0xbf81c1df3e5b97ccU, 0xc01bea09bf8af9abU, 0xbedc5b8dbff68440U,
  0xbf879b773f6f052cU, 0xc03b099ac0a66fd5U, 0xbfb3afe5bd2e4667U, 0x3ed9e85c3f4c5047U,
  0x3ea818553f4caea9U, 0xc0025ee2bee8869fU, 0xbf82b641c0119a63U, 0x3ea1cd2f3f642223U,
  0xbf893d713e69afb0U, 0xc049c002bd69b139U, 0xbfdb6070c01d0340U, 0xbfba135abe1d003eU,
  0xbf636a22be7ef825U, 0xbe8d7e163ecb4ff9U, 0xbe5ba2ac3e281a66U, 0xbebcb345bdc78aa2U,
  0xbdbb7f933f0cfb6aU, 0xbeaadc0a3ee8a9a9U, 0xbd3d29babf9ed3c0U, 0xbed52205bdb008bdU,
  0xc01a3c863bfc5e69U, 0xbf84e440bed178dcU, 0xbf6989303f8c10e9U, 0xc00474d3bdf105caU,
  0x3f042b52bf8b9411U, 0xbec27b93bfabcdcbU, 0x3f79c6a0bebfd0c5U, 0xbfb0c8aabea704b1U,
  0x3ec4313dc05623e6U, 0x3f234f06be1d0117U, 0x3eff9977bf6ef12fU, 0xbf2e2358c0890586U,
  0xbea638e0c009c180U, 0x3f192dd33ea1500aU, 0x3ed3d397bfb498dcU, 0x3f4c64d2bfc030f5U,
  0x3efb08b0c086a1daU, 0x3de764ad3c3f7682U, 0x3f4aecc93f403d2cU, 0xbf764afebfd767c5U,
  0x3c669b1dc0b180e1U, 0x3f6b83debdc3886dU, 0x3ea077c1bf5e3368U, 0xbe97be34c07d66c5U,
  0xbe497000c07a2f17U, 0x3f49bfa93f1a544bU, 0x3d02c1a9befba72cU, 0x3f9a679dbfe45dd0U,
  0x3c0af86ac03d1803U, 0xbdc258703f94f067U, 0x3e6093c83f52ad8eU, 0xbe8f2090beac8a77U,
  0xc01a37e6c00833bcU, 0x3dbd9b433f14c418U, 0x3eb100353f4d2531U, 0xbeec14bdbff601f8U,
  0xbe5765b8c029e86eU, 0x3eacd3513eee238bU, 0x3ec13ef83f7b6cc6U, 0x3f21c747bf098a46U,
  0xbfe9d01cbef4afbcU, 0x3ecc03f5bf0b53dfU, 0x3f6959aabf0346d9U, 0xbfac0cadc0996567U,
  0xbfff0e0bbff192eeU, 0xbf91764cbed8bd60U, 0x3f3822cbbfd2421cU, 0xbfe32314c0aa2a97U,
  0xbffd950cc06ab991U, 0xbf6a2c0dbe0b42f6U, 0x3f3a0d64bf2843feU, 0xc01cad8dc05ebc4fU,
  0xbf5ea8cc3f5e95afU, 0x3f9d0c443f27d27eU, 0x3f19c734bf0c445bU, 0xbf50e07ac008d408U,
  0xbf0d34b53fd1c595U, 0x3f747540bee2e041U, 0x3ebf9e15bf8d49e8U, 0xbfb00f71bf0b4264U,
  0xbf87d24d3fb5d7c1U, 0x3f77de09bdefc16eU, 0x3f2ec84bbf079abfU, 0x3dc4a5d7bfdebabfU,
  0xc089eb973e8700ebU, 0x3eb1ff0e3f4bd424U, 0xbe5b9334c0261903U, 0xc01f40083f06de44U,
  0xbfd78ba33d979b56U, 0x3d74deb33ecb07edU, 0xbfe3707cbf88587aU, 0xbf4451643f240f70U,
  0xc01d1f943d66bcefU, 0x3f128c6abead5a92U, 0xbf84dc3cbff79528U, 0xbfa25f423f608b9aU,
  0xbfab2ec1bef4d476U, 0xbff4e44dbfb09905U, 0xbfdb1e5cbfc95e79U, 0xbf69699bbfa8203bU,
  0x3e503c623d0ee307U, 0xbeb5ef883e9b1c0dU, 0xbe45a3af3e27682cU, 0xbf4f0884bd01ef71U,
  0xc00a20fdbf4476c6U, 0x40045b5abe54029fU, 0x3e4737ee3e2ce96fU, 0xbbd5b7c3bea5beebU,
  0xbfd0b6823f7db6a8U, 0xc02aa9b8c013cf6cU, 0xc00106b2c04ee0a6U, 0xc016bdcbbf9e2ca4U,
  0x3ef2d62f3ef75a6cU, 0x3eb8fc9bbff474a3U, 0x3dc273b9bf13144cU, 0x3e16618bbe99d3c6U,
  0x3e4dfc51bd59d9a5U, 0x3f80afdcbe86d0d0U, 0x3f1248e2befa46fcU, 0x3ec139f6bfa33fbaU,
  0xc00c1ea6bfbfe977U, 0xc075ff76c0317df4U, 0xbfbdeedbc006dd41U, 0xc03319fbbfd65155U,
  0xbfa3fff7bfc1cba3U, 0x3dcfd887bf2d6fc5U, 0xbed190e2c0025d23U, 0x3cd93572c01d5759U,
  0xbbf4e4dc3e73d849U, 0x3f499c3cbd667f45U, 0xc06e0dcfbe6613fcU, 0x3e493529bd847accU,
  0xbfa125c1bfc902b0U, 0xbf1b09b2bfa82287U, 0xc0327aadbff8b3adU, 0xc00987363efb6454U,
  0xc03acd7abfe955d1U, 0xc00d5a76bfba8d17U, 0xbf983d0f3ee05e48U, 0xbf1cab32bf8136bbU,
  0xbf92560a3f8c2db7U, 0xc032f4a03e10e451U, 0xbf0027abbf94a001U, 0x3ebcb1293f7b838eU,
  0xbf8e7d91c01375feU, 0xc0104ee4c0446f0aU, 0xbfa0e18cbf47a539U, 0xc00faa7fbfa284ceU,
  0xbf3d794dbf00bc5fU, 0xbf8688bcc0c27ac5U, 0xbdbda90f3ea4b164U, 0xbda754d3bf19e92aU,
  0x3e061629400b934fU, 0xbfe33ff8be514024U, 0xbf92bcdf3e520846U, 0xbd94e1293f867e66U,
  0xbf650b0fbff2b1f8U, 0xc00d9823c00a6d88U, 0xbed7f585bceff041U, 0xbf9fe697be08f2dcU,
  0xbe6283ee3f2227c9U, 0xbf1df06cbfeec45cU, 0xbe914d353f909945U, 0xbe816b28be854fd1U,
  0x3ed643233f91239bU, 0xbefb52413dca4604U, 0x3eb17d3abeaa9a52U, 0x3ef6de263ed25adeU,
  0x3df6a4c5bfe9e1a4U, 0x3fe4316ebe8cbd5fU, 0xbf9fbb6abeba7e85U, 0x3f9935d53f83ae44U,
  0xbf2fbec2be80f38fU, 0x3f32bd8abf3ccfd8U, 0xbffd28f2bf0168d4U, 0x3f3fd6ec3ee8c9b9U,
  0x3fcd9897bffda20aU, 0x3f47f0d23fa02caaU, 0xbf9dafbf3f517ebaU, 0x4013eed33d93dbc5U,
  0xbf891b37be509887U, 0xbf14f1d9c00412f1U, 0x3ebdc572c0202d35U, 0xbfda7b51bd1bf0a3U,
  0xc007af4cc01c401aU, 0xbfa1e52dc0413b35U, 0xbdd6c51cc093ccc6U, 0xbf834e22c07d4509U,
  0xbeeaeb0ac00a0297U, 0xc001243bbf41f9deU, 0xbe52d247bfae1d0eU, 0xbf9cd9bbbff01d3dU,
  0xc02a21c83eabe21aU, 0x3da00935be9a1754U, 0x3ca9f3f23eb77a1dU, 0xbf0ed4c23d941828U,
  0xc08deaa53f0fb2d9U, 0x3f034af83e1995d7U, 0x3e010b5f3cb65399U, 0xbe1b85a43eff2f13U,
  0xc0105124bd87c06fU, 0x3ea727c03e2747e4U, 0x3ec5f16cbf761856U, 0xbf4fc6943e7dcb28U,
  0xc02da750bf10d890U, 0xbfed0606bf9a4daaU, 0xc04c9b78c011732fU, 0xc04579f0bf6aa14fU,
  0xbffbf3a4c045e731U, 0xbf8034b6c020c08aU, 0xbfcf1c44bf5a76b1U, 0xbfb21450bfd76504U,
  0xbeb852fac0094ef1U, 0xbf475443bf018a3bU, 0xbf9dc3643ed9d212U, 0xbdfd32f63c9480f9U,
  0x3e8ec383bf105629U, 0xc02ad433c030c469U, 0xbfc5fe17bee296e7U, 0xbf77ed8abfdfe357U,
  0xbf7f53f4c076af93U, 0xc01b300cbc431ddaU, 0xbfc63df1bf807bd4U, 0xc041a39a3e97e8ccU,
  0xc003656cc03cd7a5U, 0xc0326b4cbf1440fdU, 0xc00ba956c0531e03U, 0xc052a947bf3cb9a9U,
  0x3edd8b8d3c701667U, 0xbe557ef5bfc19ca8U, 0x3f3fbc963e6c82eeU, 0x3e7080eabf51fbd9U,
  0x3f91b040bec24e21U, 0xbe8a1fcd3da22198U, 0x3ecf0ee33d2b9c40U, 0x3e49d557bfbe4c25U,
  0x3fb4171d3e40e686U, 0xbe27c2cd3dd4637dU, 0x3d3db2273ddb0338U, 0xbf1befacbfc01fc6U,
  0x3f239939bf8032a6U, 0xc0b91443bfbbc716U, 0x3f6091633f000838U, 0x3e536d64bf88834fU,
  0x3e80e0f33ea81fbbU, 0xc0d432d2beab82b9U, 0x3ce33d9fbde755d8U, 0x3bbda3e23e6f0675U,
  0x3e5bcb6cbee3a77fU, 0xc09e2868bdbd21f2U, 0x3e8043a5bf0b2531U, 0xbddcc31e3e8c0eddU,
  0xbd93a3fcbfdc3166U, 0xbfabcb06c0a13e90U, 0x3ed1f7f73f2ebad5U, 0x3d5ba776c059f4e9U,
  0x3e62bba8bf0a02c4U, 0xc01d02f13d558419U, 0x3e72eb9f3f1846a5U, 0x3e12eb2bbebcd044U,
  0x3eeb22a3bebb4e05U, 0xbfe10234bda60711U, 0x3eecb2073f78784fU, 0x3f12c2ddbf507374U,
  0xbf77a06bbe881f57U, 0x3ef86817bd607617U, 0x3e85959ebea86bc9U, 0x3ddd1870c0460fc5U,
  0xbfe882833f95c123U, 0x3ed0b099bef54d13U, 0x3d97b671bf89e896U, 0x3ea0a9c1bf650944U,
  0xbf09595a3f80575bU, 0x3ece4893bfa67b44U, 0x3ed1351ebe80f7c8U, 0xbf4232c5be6a2d4fU,
  0x3ed705de3ebb4c35U, 0xc0595d24bf96fbdfU, 0x3cd0d4193f103e04U, 0xbef13872bf088fdaU,
  0x3f32cc74be020150U, 0xc08dee7dbf84a278U, 0x3f3f8058bd884b66U, 0x3d4453a1bee2f1b9U,
  0x3f0b7d433eb431d4U, 0xc06a63343eb94f4aU, 0xbec20296bc66db1eU, 0xbfe5458dbf75377fU,
  0xbe382ed33ed9f89bU, 0xbeb8d9fdbf90286dU, 0xbfe796a93f99a840U, 0xbe0b544cbe2393d0U,
  0xbe1034e33e349e6fU, 0x3eb151c13e80de54U, 0xbff724d13e49f4dfU, 0x3df58a503e9ea05dU,
  0xbe5ea05b3ee0ee75U, 0xbe1d0ddf3f526b9fU, 0xbec2a5bf3f2efeb3U, 0xbfe3847a3eb65049U,
  0xbf0e7070c0414ebbU, 0xbf93c65dc000ab9eU, 0xbf8be1663f4a38b8U, 0x3f5398a4beab88a6U,
  0xbf2a3857c0608e6eU, 0xbf9c2c0d3ea4cc60U, 0xbf13eada3e8c9b95U, 0x3e4ed1de3ef794c5U,
  0x3ec46191bfe19137U, 0xc01df5753eb7b5d5U, 0x3eff8b85bf90a367U, 0xc007dc8dbe0d9bddU,
  0xc08578bbbf44e56bU, 0x3ee571813f0620f5U, 0xbdbfef113f0276bcU, 0xbe93501f3e7ceb01U,
  0xc08e1ca6c02d0b0eU, 0x3e5021073efacf25U, 0xbe92d29e3f43be94U, 0xbef0cefdbf95602aU,
  0xbfc3a4d9c06a1c8bU, 0x3f3835f13edc18bdU, 0xbf9347c13f87259aU, 0x3edd1cc6bf5eb355U,
  0xbf987e7bbf415c26U, 0x3d8f45fcbd99a56eU, 0x3d36395d3f5e833cU, 0xbf9ede6b3db92dc8U,
  0xbff150c0bfa5b882U, 0x3f2ecf643e66b38bU, 0x3e39080f3ee6a4d7U, 0xbfa0b31e3d07fadbU,
  0xbfe7ee56bf7dbd1aU, 0x3e40d92d3e93d191U, 0xbe67928c3f034ad3U, 0xbf82a038bcb877deU,
  0xbff6de3f3dc2f59eU, 0xbe9d7c343fa9f65eU, 0x3d8bb3233f10ff03U, 0xbf99a9443f2b46dcU,
  0xc06c75083e46c0d4U, 0x3d9ad8913f1d4dceU, 0xbec37b6a3f52d1e5U, 0xc035f54c3e8cce8bU,
  0xc0655c0b3eeb894aU, 0x3e87f6293e8e4db5U, 0xbdb744273fb48fbcU, 0x3e6dcc073f1dd7bdU,
  0xbf1a531a40176039U, 0xc06129fe3f407b82U, 0xbe9dc9b7bd8c28f8U, 0x3d6771c83f2b39b8U,
  0xc044a4fc3f34ba7aU, 0xc02fd5c03ef5f942U, 0xc030c8fec042b5f1U, 0xbf677119bf80a853U,
  0x3f1564613e8567c5U, 0xbf91d71bbfb656acU, 0xc042812bbf90e184U, 0xbf4d5cc5c0200ae2U,
  0x3f397c273fd48a38U, 0xbfaa29323ee509deU, 0xbe4c7345bee81883U, 0x3e6d0daa3f670377U,
  0xbf9305a4bfb141c8U, 0xbf856abf3f023383U, 0xbe0d5095bfe150b6U, 0xc02b9ac0c0125518U,
  0xbf99e7943f46845cU, 0xbeed7eb73eece13fU, 0x3e80ffb8bfa360bfU, 0xbfce06d03f566226U,
  0x3db4bcd83f2b9e42U, 0x3d10f982beb2fb12U, 0xbeb260a3bf08c9a6U, 0x3ed06f423f1a419aU,
  0xbe0c46fe3e1e870bU, 0x3e96d2a9bd0fa610U, 0x3df4b1cec0325740U, 0xbff077dabef1896dU,
  0xbec1185cbe1e8f6aU, 0x3f286c573c0b2d51U, 0xbe0e865ac06e287dU, 0x3d7efba0c00ff6a3U,
  0xc051c5013e65cf7bU, 0xc056b8cdbf816c67U, 0xc0a18b603e3609deU, 0xbf99092ebf8749f2U,
  0xc0709b873fc2dc0bU, 0xbfec13d53d0e37a9U, 0xc0b242853ed454eaU, 0xbf3047a43e48fd50U,
  0xc02f37553f67362aU, 0x3d8bb6973f1bb5f3U, 0xc08dea1bbffea266U, 0xbef2c366bfc45337U,
  0xbe65a1393ea9e848U, 0xc0780cc33ea4ddf9U, 0x3d4da7d53e1f0bd3U, 0xbe63ed27be88281dU,
  0xbe6ed5663fd78658U, 0xc0820a3b3eb0bcfcU, 0xbe1b9a63bdb0f457U, 0xbe5154473f6412bdU,
  0xbdeea8d63ebb6294U, 0xc082f33e3e58ad1cU, 0xbe464325be8e374bU, 0xbf4527cb3f131daeU,
  0x3f54704ebe69802eU, 0xbfb7c41fbf634daeU, 0x3f03aa5a3ebbee08U, 0x3f2f878f3db1f472U,
  0x3f55ad7fbf870fb1U, 0xbf5cfe943d7c669fU, 0x3f0e8f8d3d5220a8U, 0x3f00cacd3eafc13fU,
  0x3fa43dc2beea0469U, 0xbf8fc5043d5debe7U, 0xbe0d5be3be9da3a6U, 0x3eeac4b0bef2796dU,
  0xbf067fd4bea79d43U, 0xbd2ae775bff52c75U, 0xc056b368bf1466bbU, 0x3e0066043f48443aU,
  0xbedeaf7a3f06457fU, 0x3eb01988bf9687d7U, 0xc00b42d13ef447edU, 0x3f1935873fcb4f5eU,
  0x3f2db0763f7d2849U, 0xbf90e1903f32896bU, 0xbf1800e7bec2cdc4U, 0x3f9e4da13ff36ef4U,
  0xbf2731173f531166U, 0xbfab71adc0b1e0d2U, 0xbf13cdc8bfac934bU, 0xbf5dd6f3bff9e142U,
  0xbedd28843e84e6d1U, 0xbf36d033be5f87e7U, 0xbf624c673e4207c1U, 0xbcd058923f07de62U,
  0xbe81b3543ee4bfc8U, 0xbe5f376d3f077870U, 0xbe7ca02cbfde1829U, 0x3f3aa0313e9a430aU,
  0xbf950f7d3df23d58U, 0xbf0a95c7bfbc2bbaU, 0xbeeb667fbe03204dU, 0xbeed66d03f1e1eccU,
  0xbf6b454f3d8f2a11U, 0xbe962363be62fb3aU, 0xbde4be00be46dd17U, 0x3f1ab5393f32662eU,
  0xbf6e03f9be3a73d4U, 0xbeb7751ebd1199afU, 0xbeb876013dd5dbb6U, 0xbe9a1d1f3f1eaf54U,
  0xbf966ce6bf6e93a3U, 0x3fac93733fc334e3U, 0x3f10acbb3d869abdU, 0xbfc195c9be1c3adbU,
  0xbf589978be525e71U, 0x3fd0cf703fcdcd69U, 0x3f2d4fd03f0f0161U, 0xbfb2be14becfe32aU,
  0xbf0ab565bf12fd5aU, 0xbf0dc8d73f7b1472U, 0x3f9cfaa43c86123eU, 0x3b35e3aa3f0f524aU,
  0xbee5dd30bed92899U, 0x3f8104fc3fbafa94U, 0xbdd3cf7cbbaea9f8U, 0xbef17c4d3f4a0887U,
  0xbf1928a3bf783b7bU, 0xbe1acdb43f7306d1U, 0xbddfdefe3f07ebfaU, 0xbf2d29f43f12dcf6U,
  0xbf090fccbeef496bU, 0x3e7c236d3ed28ac4U, 0x3f0700113f29b6c0U, 0xbd2b2ab63f881f16U,
  0x3d9a106cbf94b888U, 0xbce8e24abf140e88U, 0x3ef4b25d3ee50c6fU, 0xbf583c033f5fa679U,
  0x3ece5846bfa924bfU, 0x3e6574203e79a9a5U, 0x3e689cdb3eed270bU, 0xbeae14103e119e98U,
  0xbdfcc8a8bf4cf36eU, 0xbda416f23ef86c61U, 0xbf050715be627ea8U, 0x3f7aebd33f1bfad2U,
  0xbf0bd8543f8a473aU, 0x3e9fd4983e9f24d4U, 0x3f43ff8c3e3a37c2U, 0x3e276b153f90a5a2U,
  0xbe9e58253ff71975U, 0xbbe66fb6bca2520fU, 0x3e28a139bebc66fcU, 0xbc7ecab43f0f6d06U,
  0xbfe4cbd63ff17ad9U, 0x3eea3f143e8d8dd7U, 0xbd689e55beec62b4U, 0xbf8a275e3fe5c0afU,
  0xbf404fde3f277a4eU, 0x3eaf0e5e3f47c2e2U, 0xbf8faa2b3db63d90U, 0xbf82dfbf3d7ec5aaU,
  0xbf1bebe9bfc7540bU, 0x3eb38d173f3c4d66U, 0xbfeb866dbdc0bf02U, 0xbfef6cdfbf63b4d8U,
  0xbee0ad7c3f0c3f48U, 0x3ed6f6783f6615a3U, 0xc01ff5a8bc1569ffU, 0xbf9379a43d657e4dU,
  0x3f0e8a243d2f6f9eU, 0xbe53432a3f40d41cU, 0xbf9115f83f3dcfa6U, 0xbf5f591b3faeaa45U,
  0xbed6dd1a3eaae709U, 0xbee140d13f1f0ce8U, 0xbfe899f43f48f4e8U, 0xbface4d6bd80414cU,
  0xbec6f651bcea456eU, 0xbf7009703f06d963U, 0xc01359183ae45abdU, 0x3ef955283f906087U,
  0xc0122062bfdc2b88U, 0xbfe138bebf38655eU, 0xbf710cc7c00cb4b9U, 0xc0254940bfdf0bb6U,
  0xc032561dc091f548U, 0xc041556dbf436e54U, 0xbf9a469ebff47098U, 0xc079b4f43d444a84U,
  0xc002c74dc02f453bU, 0xc0c21ba1c001898cU, 0xbf4828f0bf80c39eU, 0xc04d2232bfeeb1eeU,
  0x3f355518bea7c892U, 0x3e926e623e81aca0U, 0x3f11d813bdd568b1U, 0x3e48d8fa3de70dfaU,
  0xbe267797beed41e5U, 0xbe7d555f3d9a75b8U, 0x3f1204c1beac369dU, 0x3e255d8fbe2e6ef3U,
  0x3f168984becfc92aU, 0xbf0d07273e16775bU, 0x3f2dd5443ebe2ca6U, 0xbe3ac7033e8df59fU,
  0x3efb2b183e984c68U, 0x3e7cdf563f0f9736U, 0xbe32d1343e87be14U, 0x3e628bce3eac2bf0U,
  0x3e6ac0103dca350eU, 0x3d6957ce3e0bbbf7U, 0x3e4d5cfe3e818fd2U, 0x3ed6048c3edcd249U,
  0x3ee7e5b93ec7ebbdU, 0x3deb355f3ded6eddU, 0x3ee6bf953f7cfb19U, 0x3e0301a23eeb8ccbU,
  0xbfe9bb2f3f72f5caU, 0xbf3740973d6fb190U, 0x3efa5f84bd73d17bU, 0xbd9b4b3a3e84c15bU,
  0xbed7180c3e978434U, 0x3f8532193e0e3d54U, 0x3e8e138e3e8919abU, 0x3eae7d26bb15fe59U,
  0x3f3889f63f38850eU, 0x3f21946d3d84d0eaU, 0x3ddee565bf433defU, 0x3cdcd4a33e02b5ceU,
  0xc016bfd33e217ed6U, 0x3ee7c4c53f216d6fU, 0xc009afef3e4c8a61U, 0x3ea73eb03eca1a98U,
  0xbf876c3abfa32273U, 0x3ed911c93e044879U, 0xbf6f8bb23eee14f2U, 0x3f281cca3d5c80d5U,
  0xbf7133f7bee2ec5eU, 0x3ed1edd73cabc933U, 0xbf89ae863e493431U, 0x3e87849a3efd634dU,
  0xc020bdadbf1513c1U, 0xbe5551693c35f064U, 0xc026f2d2bfcb8160U, 0x3d5d8c0fbed563fdU,
  0xc00cbc77bec64a8eU, 0xbdd38135beb97a19U, 0xbefe3df63d08b614U, 0x3e3bc1c93d4bccc6U,
  0xbf37b6f8bef717b5U, 0xbf10c374bf772c7eU, 0xbf08d5dbbf67b5ebU, 0xbe28e4f8be38b168U,
  0x3f2868a5bf07b0dfU, 0x3faedfed3e9ba195U, 0xbf42ed803d32d1b8U, 0x3f391916be71cee1U,
  0x3ed8a5683e62dc47U, 0x3d853e6c3fc31448U, 0xbf69b447bf2cab0aU, 0xc00940d4be178916U,
  0x3f614a563fd877c1U, 0xbf99f3033f96a15eU, 0xbfeeaa0dbf10f0adU, 0xbfc3b6efbfbbbb8fU,
  0xbe3754b7be3c5e36U, 0xbc2ac1fc3f516864U, 0xbf40eb41be448ed1U, 0x3e674d3b3f378c0dU,
  0xbe4373ee3ec51398U, 0xbdc506053f82d933U, 0xbf4b5f3fbf2af38aU, 0xbf7f511b3e03af68U,
  0xbef8cfd03f3ec2efU, 0xbfc18949c0306a4bU, 0xc002ce9ac02fd5daU, 0xc04cc9abbf2edd38U,
  0xbf01c3ad3ed82cdcU, 0xbda30fc23eb0139eU, 0xbe3f2a153ed7e026U, 0xbcc65be83ecfe6ecU,
  0xbe91d06ebfdd81faU, 0xbe89b37a3e0bb33fU, 0xbe561fbcbf58477fU, 0xbf2f4e363eaf1d66U,
  0xbffea450bee5df25U, 0xc0188aecc031e7a2U, 0xc04b4c27c07e47a7U, 0xc0730bf8bfbb6d53U,
  0xc0136c06bf3e7d8fU, 0xbea66f893f2413baU, 0xbffd58d6bf91fe0bU, 0xbff3d4ecbf98ae0eU,
  0xc017b66cbf93f3d8U, 0xbfc956d6bfd706d4U, 0xc0353900bfd2ebc4U, 0xbfc5b44ac020c5e0U,
  0xbf8c327f4015924aU, 0xc0154d2fc01bd19cU, 0xbf995892bdbe69c6U, 0xbfd22c59bf73187aU,
  0x3f536a2ebf337dceU, 0x3e93b27f3e270a00U, 0x3c39105ec0406350U, 0xbf099556c0109e9eU,
  0x3f2d2b27c03439b0U, 0xc00491c9c01c7e99U, 0x3f0430e1c07aabbfU, 0xbf185d8ebfbbabc1U,
  0x3ed4a734bdbedfc9U, 0xbf577a4bc027f2c9U, 0x3f7497f8bfb4c484U, 0xbfdbb6743f4e8fc3U,
  0xc0268c6f3ec527ecU, 0x3ed0743a3f218e43U, 0xbe517b90bef0dd08U, 0x3e97e2093e15c75fU,
  0xbead60c93f1176d1U, 0xbd5634dfbba9df20U, 0x3f1295ccbe3d8b87U, 0xbf54f7333f9a1e39U,
  0xbf10bf3c3eefd858U, 0x3e712ab1bf00c5b0U, 0x3f676c6ebf14add3U, 0xc01a7a1a3f8a9b15U,
  0x3e23e0a9be3c3ef5U, 0xc04e06a1bfa8daadU, 0xbb42c1b23e5402e1U, 0xbe9469a53f453764U,
  0xbed06c85bf1dc5efU, 0x3e17fd98bdb79f6cU, 0xbecf2c96be5e5d00U, 0x3f46c08cbe14fd33U,
  0xbf04bb323f6be3f3U, 0xbe1f17913eac915bU, 0xbef935c2bebee42fU, 0xbe0ec7a9ba3100a1U,
  0x3e01786cbeb70c1eU, 0xbd8fe30cbfd623b7U, 0xbebb192a3e5c3262U, 0x3ddf888fbec0ce87U,
  0x400a4e9cbd7d3448U, 0xbe51b055be5851c2U, 0xbf161ac8bf10fc60U, 0x3ee61112be20487cU,
  0xbfb5a45ebef4b11bU, 0x3c566fd63fc1c874U, 0xbe5fe214bd1e8576U, 0xc028808a3e2762beU,
  0xbf12c1803fd93889U, 0xbeb4a4c7bff769b2U, 0xbf2e8bf6bffe2851U, 0xbd042e10bfac9597U,
  0x3e74e32b3fcb228cU, 0xbf31e09dbeeb252eU, 0xbce09a55bef6ddecU, 0x3d454bf8bf260ffdU,
  0xbfb9e27ac0041472U, 0x3ed6ce203d979961U, 0x3dce0416bf7e6c26U, 0xc0a83b5bbed5dc04U,
  0xc01439953f848a91U, 0xc003f8cac01dac67U, 0xbe439d48bf5e99b2U, 0xbee58443bf2745adU,
  0xc01bd696bfaf7ea8U, 0xc01bafd53d484d8aU, 0x3ef386debf39355aU, 0xbf120574c018cd98U,
  0xbfe4531d3fdeda86U, 0xc0238e023e26477cU, 0xbe3d178d3cc937ddU, 0xbfa8a813bf282564U,
  0xbfc9531a3e153be3U, 0xbf023d163d8385a4U, 0xbe6efbdabee8fb36U, 0x3efcd8eabe98bdc2U,
  0xbee23cc63f70129eU, 0xbf130e13be863e77U, 0xbe04f0dfbede319dU, 0x3f308588beb03f03U,
  0xbf8bd9c03ddfc77aU, 0xbe74c527be5ebb77U, 0xbceadfa3bf0c3f0fU, 0x3eb5eb42bec4a13eU,
  0xbe6bfa3f3f1ad87dU, 0x3e660a84bef1782fU, 0xbf01882dbea21cf1U, 0xbf112bc0bf3b6c99U,
  0xbfdb49643f06ef51U, 0x3e5693abbc3e9a41U, 0xbe111f9dbe428a47U, 0xbe99e2d7bf4586c8U,
  0xc01b6cfd3ee0af1bU, 0xbdcc312cbda8c38eU, 0x3e06f417c05aa0b9U, 0xbe452abcbf229714U,
  0x3ed19f5ebfb53f18U, 0x3e1de9e1bed967b0U, 0x3e982cc73f93a719U, 0xbf10e79f3f4337d7U,
  0xbf257560bfd68edcU, 0x3f4eeae83e67ab2dU, 0xbca4dafb3e3d1000U, 0xbf185896bff7b876U,
  0xbe8a735e3dfb5bd4U, 0x3f1488033f2debf5U, 0xbf4d5c893ea46db8U, 0x3fdb92a43ed83febU,
  0xbf982bc0bec3bcddU, 0x3e5c54723fc6407bU, 0x3dc607393e8757a2U, 0xbf29c39dbe7b3b5fU,
  0xc01dff33bf9fa888U, 0x3ceb1e7a3f474988U, 0x3d8258483f87691bU, 0xbeabf9fe3dec2294U,
  0xbf25c685be91763eU, 0x3eca44ba3f08ac58U, 0x3e79b11d3f959908U, 0xbea61f4e3e6a464eU,
  0xbfc36af03e829d75U, 0x3f27d706bf5b022dU, 0xbe3329a6c0504c90U, 0xbf3a24e3bff03fdbU,
  0xc04e21a3bfeee09dU, 0xbd97af7ec0034bacU, 0xbe3363fec0424065U, 0xbfc8909ec08cbbc6U,
  0xbfd7ab533f15c034U, 0x3e922822bfdbf4d1U, 0x3f23303bbf6eaf71U, 0xbf844204c03edf52U,
  0xc002da983f0d7809U, 0xc03025754042726cU, 0x3fc721a2c0172255U, 0x400a29093ed84206U,
  0xbecd7379c0079f59U, 0xbff736b5401b7b8dU, 0xbf83bd4cbf39c56aU, 0x3f7d7c91be7101eeU,
  0xbf564d1b3e691ceeU, 0xbf4aad7ac00ca46cU, 0xbf9686c53f9f0193U, 0xc0a1a1864022d6b0U,
  0xbe9cab3abf3f579cU, 0x3fc26f6640818be6U, 0xc0629fdac099fae1U, 0xc080e4274048efa5U,
  0xbf0fc3143eb9f685U, 0xbe1f51fbbeb49737U, 0xbf41c920bf19c245U, 0xbe8845eebf13475aU,
  0xbd51351dbee5bfc7U, 0x3bb067c03d7cb9b8U, 0xbeddcc2fbe2c2cf1U, 0xbee5d1e6be006285U,
  0xbf3d42ad3ee8cbb5U, 0x3e581dd7bead46cbU, 0xbe2e7b91be1c4f21U, 0xbe2057123dcaa9c6U,
  0xbfb0bf0f3f1cbd72U, 0x3e70b71bbd9fde98U, 0xbf16cf6fbfa12b82U, 0xbec62f92be07b47cU,
  0xbf051ce43e93ad85U, 0x3e84f6e0be8fa3e7U, 0xbd99265f3e833b3bU, 0x3cc74eb6be2c12d1U,
  0xbef36ce3bed1d0f9U, 0x3c3239113bb33de4U, 0x3e3b12b7bf026c10U, 0x3e6bbd533da7cdf4U,
  0xbeb6f21fbfa6f55bU, 0xbeb9c4ea3ecfd58eU, 0xbe94050dbe66de8dU, 0xbe95fcb33e11c1daU,
  0xbe8eda223e489ad6U, 0x3f336d293ec6c47dU, 0x3df4cd37be9670efU, 0x3e27bb6bbf676913U,
  0x3e1b2fc2bdfa71edU, 0x3e89a11cbe722a97U, 0x3da9bd073f3ef13dU, 0x3e4155bd3ec24455U,
  0x3ec9a04abe1611d3U, 0x3d6fe1233f02e68cU, 0xbd942601bdbdfd35U, 0xbe80cb6a3f195c55U,
  0xbd928b2e3d0e8da2U, 0xbe1c15273e30ccd9U, 0x3ef0ab283e8d1a23U, 0xbe0969263ec3de5bU,
  0xbe2364683e91432bU, 0x3e29c0d0bd993e27U, 0xbd774f103e1deae2U, 0x3e7854cf3ec7f549U,
  0xbd3c94acbeb008ddU, 0x3e77d437be6a1430U, 0xbecbc71a3da55d65U, 0xbe9a7136be73cb9eU,
  0x3c45a34b3e5d772cU, 0x3f232db4bee6805aU, 0xbeb6b321be3bf260U, 0x3ede9884bf4df032U,
  0xbe0a788b3edaa1e0U, 0x3e3006d9be7651e7U, 0xbed2ab5fbe3de145U, 0xbd97bf15bf5b1c77U,
  0x3e78d536bd1d30c1U, 0xbe67a81b3b181d07U, 0xbdd891aabe8f7886U, 0x3f1f7712bd29325bU,
  0x3e90fa2dbed671fcU, 0xbcd95e793eba1aaeU, 0xbd5e81413dd3b98fU, 0xbe073cd3bd88d0ecU,
  0xbeeb56943eee0300U, 0x3dda70433e9b738cU, 0xbdde1c68be2ec237U, 0x3e6f8b2c3f2dc2f2U,
  0x3ead3a19be8ab347U, 0xbe945011bea6db18U, 0x3e0b1cbe3eace435U, 0xbf0a99fdbcd9821dU,
  0x3da19611bd236476U, 0x3e9a32e5be9c3530U, 0x3eef86b2bf0093a1U, 0x3e581a743e242fc9U,
  0x3e27a9e6bf0230faU, 0xbe3021f13d2b9f78U, 0xbe1eb7e9bf874dc3U, 0xbedbfe4fbea64bdcU,
  0xbfb9fd6f3efc10abU, 0x3dbd5831bf327264U, 0xbf30fb553efa7447U, 0x3f026fb4bea4ab23U,
  0x3dc2550d3f22bc28U, 0x3e56f061bf23a82dU, 0xbf256c3b3e39620eU, 0xbeb73b2abfab53afU,
  0x3ea814433dec3d09U, 0xbf50fe523e78d716U, 0x3e59d5b73ead7924U, 0xb9d6fdcfbd8f9c33U,
  0x3eee613cbceb6b9bU, 0xbd78b5eabe9c3551U, 0xbdd03b173e952d24U, 0xbe8506ecbda23956U,
  0xbdc8fdd1bec667aaU, 0x3d7f61febe4c06d7U, 0xbf52b90d3c5d8b56U, 0xbea5d2bebf34d733U,
  0xbea86220bed73372U, 0x3dabea4ebca73b16U, 0xbca98c7dbe912d97U, 0x3eb514aebf28e382U,
  0x3e9033b4bd6c450cU, 0xbf0c974abea8e883U, 0xbe8d85163e942b66U, 0xbd43c255be0906b7U,
  0xbd9e0ce6beccb2d5U, 0x3cc0d252be53ee59U, 0x3e31d5943ee981ccU, 0x3e8ef8993ee0d3adU,
  0xbe96b2f53e202dacU, 0x3d15c991be660478U, 0x3ebc6ea2be42e8f6U, 0xbecd025e3e1e9d4bU,
  0xbd504f0b3eb19f65U, 0xbf0d8388bd202056U, 0x3e65925fbe34bb28U, 0xbebce8c5be4b427cU,
  0x3e337ad63e712a85U, 0x3def77223e8dd55cU, 0x3d596543bcf6b989U, 0xbee787dc3e0d7487U,
  0x3fdfa50dbeba67cdU, 0xc011b209c00097fdU, 0xc0514f453ed50968U, 0x40323e77bf6601f2U,
};


ai_handle g_network_weights_table[1 + 2] = {
  AI_HANDLE_PTR(AI_MAGIC_MARKER),
  AI_HANDLE_PTR(s_network_weights_array_u64),
  AI_HANDLE_PTR(AI_MAGIC_MARKER),
};

