/**
  ******************************************************************************
  * @file    network_data_params.c
  * @author  AST Embedded Analytics Research Platform
  * @date    2026-04-01T16:52:13+0200
  * @brief   AI Tool Automatic Code Generator for Embedded NN computing
  ******************************************************************************
  * Copyright (c) 2026 STMicroelectronics.
  * All rights reserved.
  *
  * This software is licensed under terms that can be found in the LICENSE file
  * in the root directory of this software component.
  * If no LICENSE file comes with this software, it is provided AS-IS.
  ******************************************************************************
  */

#include "network_data_params.h"


/**  Activations Section  ****************************************************/
ai_handle g_network_activations_table[1 + 2] = {
  AI_HANDLE_PTR(AI_MAGIC_MARKER),
  AI_HANDLE_PTR(NULL),
  AI_HANDLE_PTR(AI_MAGIC_MARKER),
};




/**  Weights Section  ********************************************************/
AI_ALIGNED(32)
const ai_u64 s_network_weights_array_u64[2026] = {
0xbca256afbe038e5bU,0xbdcd20da3d86693fU,0x3ceee90d3d6bf5f1U,0xbd5a73b83e08ffa5U,0x3dc00f363d826b80U,0xbd208238bd888235U,0xbe010dc73d87bf68U,0x3cc07810bd91076cU,0x3dd241eebc2b3244U,0x3e25152cbe0b6d0bU,0x3d41e8123d1b87e6U,0x3d5ae7fc3d6ed552U,0x3dc3d0063dcb1da7U,0xbd1857af3e0097c6U,0x3ca2c3b73c90e937U,0x3d4dc301bdc31670U,0xbe18b121bd32a2a0U,0xbc0485883d147baaU,0xbcd382dc3cba3568U,0x3ddaff733dc2ab7eU,0xbd4027b03ba80fb6U,0xbc8dafd8bdef50c2U,0xbe13033dbd216cb0U,0xbd3332ac3db09355U,0xbe2c13d13d9e4ff9U,0x3d81a94cbd3ada96U,0x3a80b193be13e7a7U,0xbdd72283bdd8ce8cU,0x3e1338323cf631b3U,0xbc723882bdac14a2U,0xbcf7b667bdf8e365U,0x3ddb68cf3d52ba2dU,0xbd0b07e0bdde7f11U,0xbde1897f3d7272efU,0x3b8007cabdd43119U,0xbdece88f3dc94217U,0x3d2e07783c9bcde6U,0xbd51a4803e00a3b3U,0x3dac31103d843f1aU,0x3d7529d43d52741cU,0xbdef47cebe15f3ffU,0x3ee8aa1abeb7ea92U,0xbec4c7eebef73800U,0x3e717b7bbe63c10cU,0x3f105648be089a4dU,0x3ede340ebeba9520U,0xbe338c313f009b92U,0xbf063311bef4b6d1U,0xbe965f4a3eb93212U,0xbdcc11bd3e9f0860U,0xbdb448c3be438a9bU,0x3acacbfd3dd78177U,0xbdcd52fd3e7b3cd7U,0xbe095468bd9688fdU,0xbd5db6d2bdc41202U,0xbd96af5e3ea87b16U,0xbe0eeda33e2f9b22U,0xbe57955a3b48a6eeU,0xbe62dfa4be457e0bU,0xbcbc21073e591a2eU,0x3dedf0b83e2c0112U,0x3e28e1e23c59c6e9U,0x3e1753413dd3b0c0U,0x3cfc82c3be1d4d37U,0xbda3838f3c1c0de6U,0xbe6b05c13d640659U,0xbe417332be0c2313U,0xbe50e5e03e686d1cU,0x3d4c69e1bcd8969aU,0x3e3f57a73e3a03a7U,0x3ccb48643e37409bU,0xbd95bc073c75c3feU,0x3e568a5abd114c39U,0xbd8d41f93e009c00U,0x3dc74e8b3d15f513U,0x3ded2a243e2953dcU,0xbe56b4953ddd453aU,0xbcfafc3c3e36187fU,0x3e866b85be4c78f7U,0x3e9d31bcbcdc3d0bU,0x3df8b56b3d85f406U,0x3e754abdbe7b399dU,0xbc03e09d3f010976U,0x3e22e67abd206f4fU,0xbed7955fbb41c14cU,0xbea8db0cbe928b30U,0x3d0d74e7beb5dfb7U,0x3ed63ceb3e6ca849U,0xbe2322c6be3016a9U,0xbe2fea323e86c2bfU,0x3c8ddfebbd7a8788U,0xbe30387cbd9465e0U,0xbda24b363e7ba1baU,0xbd5909d93e4dc7b2U,0xbdc43b33be82ad2bU,0x3de237a23e6eb294U,0xbdf2ddd3bd65911fU,0xbe4b46853e4f42b1U,0x3d47f7663e083c7dU,0x3de1e4be3d1589a3U,0x3d7981383d140298U,0xbd81baf53e111359U,0xbd45b61cbba49e4cU,0xbdefd9123e2b9bcfU,0xbca5cd72bde29ea3U,0xbe7c7fcc3df73626U,0x3d2941ac3deb20adU,0x3cce728d3e397b71U,0xbe1d0485bdd1ffe7U,0x3d978e973e6fdcb1U,0x3dd350653d4c13c8U,0x3e0104613e74504dU,0x3d72b7093e1f1f7dU,0xbe3ebc403e870cfaU,0x3d13e0313e368bd7U,0xbc792ea1bdbc7ddeU,0xbe29a0473e3d8a22U,0x3b8d18e3be202eceU,0xbd1ea5453e0a5833U,0x3e32439a3c2dbe88U,0x3e261632bc4773f0U,0xbe98831b3e8ebaa5U,0x3d54428a3e399586U,0xbe432990be29cd11U,0x3d56a783be308ccfU,0xbe502d203e9c72caU,0xbc42aac23d8ea1d8U,0x3e84c2703dcc64d9U,0xbd42d42d3eafb0f2U,0xbe14ba553e5a7985U,0xbdcd26eebd687fbeU,0xbe5175e83ec76996U,0xbe671e1c3d534ab5U,0x3d2eb6e03e6fad20U,0x3e64a8ccbde546e7U,0xbda40efdbdc50d5fU,0x3e8f734abd0a2995U,0x3c2e92abbe29a8aaU,0x3d81c372be853e71U,0x3e3068213e51816dU,0xbe9f6de53d4fb5aaU,0xbdc2c9793ec88dd9U,0x3ec36637beb1a4b3U,0xbd8145923e4fa7a2U,0xbe17edce3e327935U,0xbde434f93ead3fdcU,0xbe5337823c819a9fU,0x3d84ec2dbe23709aU,0xbe42aa713ed0db57U,0xbe1dc0c33dbef9ddU,0xbe055e9c3e5cab37U,0xbdff297d3ea97d1cU,0xbee08c903e89a924U,0x3ebd0dba3f0031a4U,0xbe3749a8be0898e9U,0x3d902fa43e68801eU,0xbd5e31d8be0b3ff4U,0x3eabe6f13c3ec0e9U,0x3e48289c3d45b8b3U,0x3eb6d51c3d2b361bU,0x3e845d013ca0fdc4U,0xbde3e808be0d0cfbU,0x3e82f2263e082024U,0x3ee4b8a0bc9e5dfeU,0xbddd091ebdec0c3cU,0xbe3f3f093dd4e757U,0xbde68c67be6981c9U,0x3e7303013f03443fU,0x3ca4e09d3e132f07U,0xbe4030993dafe19bU,0x3e01cd8a3e262fcbU,0xbe4e10debd90dce8U,0xbe225a263dc7b0b7U,0xbd443c573e3afa72U,0xbd46bd3ebde1f967U,0x3dd7a0debc8f14d0U,0x3e32ae363d4d3e69U,0xbe0f067c3e4bca56U,0x3e86944bbd50340cU,0x3c3242913df28736U,0xbd9d40893e44d49fU,0x3d9b3e863ebdc3f7U,0xbd9760d2be092facU,0x3e5381973e36c328U,0x3d8a96bbbd532743U,0x3e36910c3c9f3de9U,0xbccc6b433d3f0d59U,0x3d4633ae3dc71feaU,0xbea335ebbd995eb8U,0xbdfed2533d86f70dU,0x3e54eb773cc40030U,0xbdc5f7c43ea11e9bU,0x3df0830abdd7bb47U,0x3bd5dc663e435313U,0xbcfbd28b3d80a0d3U,0xbe4543023d94e8c2U,0xbe86d2273d6da29fU,0xbda4719ebd060796U,0xbdd0e007bddff9d5U,0x3e31c49c3d423a15U,0xbdf26efc3e1eec74U,0xbe273dff3d688621U,0xbd0759fd3e1f2abcU,0x3d8f021039eafc3eU,0xbd9b524abe146ca3U,0xbe6575bf3d809dbcU,0x3e04a3fbbe3e57fbU,0x3e84aa7c3e1cde95U,0x3da406693e19e84aU,0xbdca35693dfabecbU,0xbce79a2bbd81af63U,0xbdf9ea833e3b9ee5U,0xbcbf0dc3bd749023U,0x3ceb17ed3c79ca45U,0xbe3455153e20ab49U,0x3a38ddff3e5c2c84U,0x3d702b36be332617U,0x3dc67787bd2ee153U,0xbc83a15b3d35b2aaU,0xbd2a73d23e12cd36U,0x3e3b82083deb97eeU,0xbdd28c6ebd9dae6fU,0xbc0affcfbe1ff37dU,0x3e8b16b8be04ca2dU,0x3d6f1b043d4b8170U,0xbd5b78963b95b904U,0xbd43be513db10debU,0xbdfa8b42be0f0e6cU,0xbe06694bbd9ac753U,0x3d2fd40bbb6c02e8U,0x3c3eb8c0bcbe3436U,0x3e15caa3bdf20590U,0xbdadd8be3e4971a4U,0xbdcc3a353ddbfbe9U,0x3e549f9bbe062904U,0x3db97feabdb165a3U,0xbe5c143f3c74e230U,0xbdf9fa213dc40813U,0x3dba4b16bdf98a69U,0x3e06d36a3e578799U,0x3d8a729dbdb8aa43U,0xbe08e9083e2afd4aU,0x3c4c8eb5bd9d3224U,0xbe12c9da3e4305d2U,0xbe0934fdbd08181fU,0x3da100c83e9654fcU,0x3e2ae2d0bc1dc916U,0x3c73351a3cf9cf68U,0xbd2e1f8ebe71b2f9U,0xbc9178bd3d178997U,0x3e6c8b563d95262dU,0xbe8391233c0fa238U,0xbe70792c3df66c2eU,0xbe51c87dbe52198fU,0xbcda24fcbe0bb6cbU,0x3bffb1023e3a6831U,0x3e3f6ff5bce36db9U,0xbc9258143da8b75eU,0x3e5fe350be5595fdU,0x3e0be2343e321a88U,0x3d3430cd3e67607bU,0x3dabad5b3cb5c437U,0x3c74712d3e01290fU,0xbe08ea85bd87b533U,0xbcc7bd29bdf9f6feU,0x3e3d81f63e031a4fU,0xbe1cdf37be0c7810U,0x3ccbb9e63e150956U,0xbe81179fbb86e69cU,0x3df17fcebe4fefe0U,0x3d5804453c3527b4U,0xbd198572bd11949cU,0xbddaed17bdf07696U,0xbe2c5630bd9d0a2aU,0xbd43012f3db359a2U,0xbe0880b13e06c31dU,0x3e62d3b93ce3c132U,0xbd102cd23d4c672dU,0x3c8507fa3d2dee06U,0x3d7412b2bb696e55U,0x3d9d623d3d765563U,0x3e3e2a6a3e6aee7dU,0xbd6bb0fd3db27e20U,0x3db1a6323e46eb75U,0xbecab5b2be0f2673U,0x3e134730bce1431bU,0x3d8e0476bdee1fd6U,0x3e4a0d003e58830dU,0xbd2085e13df01f9eU,0x3dd277033e8c8a93U,0xbe0ec379bd81c3d1U,0x3d42f6eb3e167c8dU,0xbe2f8c823e045a6aU,0xbd6402f83c35bbb4U,0x3e323e1b3db58695U,0x3e38f5263e06194cU,0x3b33f3f93d86c3c9U,0xbe65f99c3db334adU,0xbdbdbab7bc40bf71U,0xbe4295743e1b59eaU,0xbe2854ccbdbf0884U,0x3a5581ecbd5d06f8U,0xbd98b448be6fdb00U,0x3c17f836bdeac2f6U,0x3e4e879b3d979a09U,0xbe8b25b93ddb9e1fU,0xbcf9163f3e11aad7U,0xbd5ecba93e22b8b9U,0x3d192fb2bcf7e9d9U,0xbc960702bdded26fU,0x3dcefc853cc358eeU,0xbceb4431bcf71973U,0x3e5d42183e00eab3U,0xbe1c18363d2d945aU,0xbd97a70f3c888ca2U,0xbd3f003cbdb5d1e7U,0xbe4e6cf13bc25010U,0xbe3a10d8bd09189cU,0x3d149b91bd029561U,0x3e6d42df3e74f6f8U,0xbc6d23dd3de445b6U,0x3d0f97bc3c8abe43U,0x3da8c351bd556168U,0x3dcaabbfbe30c9caU,0xbcbb806a3e0c27acU,0xbe820e20bda1ee63U,0x3d19d8fe3da10a3eU,0x3e22ebca3e15511cU,0xbd81209f39c6f14aU,0x3de82c963d774753U,0x3e1545e33e6db264U,0xbe2b7dad3d723176U,0xbe690b583e332c65U,0xbe30e9733e306e24U,0x3ca1cc94bdbb6913U,0xbd2e408b3dab283dU,0x3dbc50f33c9bb24cU,0x3d796dea3d4a89b3U,0x3ea1e5d63b137c4aU,0xbd2a233b3ea35281U,0xbd9c121c3d207b15U,0xbcddb1d83cb090baU,0x3dfcd53fbc2971daU,0x3da35b27be080429U,0x3dde93653d95b42dU,0xbcd0049e3e197006U,0x3e4f7f983e35aebaU,0xbdb11ab63e131aa2U,0x3ca76747bd67f42fU,0xbe960ac73dcd545eU,0x3d098e75bdf5f0cfU,0xbda01a6f3e991b19U,0xbe1c705b3e6b6430U,0xbd47e5353c0ac8ffU,0x3e3ee55eba4a880cU,0xbda8582cbd1b0a9dU,0xbe7052c53da46368U,0xbd423d7b3e56dd05U,0x3c885d83be0efc17U,0x3e2155c43e751c03U,0xbd960f113d7061e3U,0xbd713db6bdc51223U,0x3e09810f3ddb8f8fU,0xbe2cf6cebdd607cbU,0xbe8c5a5d3d8fbe32U,0xbe5a8e05bd8124c4U,0xbe0000f7bd20b45aU,0x3e4a0c843e89e8e0U,0x3d07e618bdb71596U,0x3e07a3c0bdf32c93U,0xbd45cb723e3af212U,0xbdeb345f3b9dcecbU,0x3df768033e36a0d9U,0x3e2b13033cf9958dU,0x3e231d603e4eaa6eU,0xbdebe3fa3d514eccU,0x3e1cebacbdd83ae0U,0x3ceeae153c96374fU,0xbe44d8483e435216U,0xbdbeef1f3e094040U,0x3dbe60393e222d38U,0x3d55346c3d5930a9U,0xbe26d2eb3dba7beaU,0x3e609bd33dc2109bU,0x3e3c7c993e098946U,0xbe4076f03db2e9cfU,0xbd7aabf93e11cba5U,0x3d8bb00abe3e0a75U,0xbe3621c0be4826f1U,0xbe11879d3e399453U,0x3e0e85e63e1b30ebU,0x3e701fe4bdf70d7cU,0x3db681c53e2ec31fU,0xbe49181a3d058d5dU,0x3c01e8313cde0a9dU,0xbda0bf8f3dd5d9acU,0xbe21af113e2b000fU,0xbe2c8bce3d9c9cd8U,0xba8d455cbe203f2bU,0x3cc963243e51017eU,0xbe1e47913dc06562U,0x3d4966b13e57d43aU,0x3e5c78ab3d34910dU,0xbe07a452bced37f4U,0x3d7046cebc53333eU,0xbdbe65dc3e43d2f4U,0x3d94165dbcf0714eU,0xbcab088dbc1a3fbfU,0x3e89e78fbe0c0d91U,0xbd05086ebe184e87U,0x3ea0b9ddbdeecc3cU,0xbd85d2693ca2c5c4U,0xbe6931ca3d024b04U,0xbdb4d4d63e50145aU,0xbddb949dbea2215dU,0x3dbeac85bdb806a2U,0xbe0dfbbabdc95b8cU,0xbdc24461bde168aaU,0xbd944f503e092d94U,0xbe8e5e4c3c6d5308U,0x3dbd67a03d59ae49U,0x3d2558233e6a4da9U,0x3e16fdbabd324ea1U,0xbda0425c3e047173U,0xbea038473d6e8746U,0x3d9ee6d33e7f06b2U,0x3e0534b0bea53742U,0xbe3f914f3e65d69fU,0x3e0d8bfd3e6a1936U,0x3e3262253e14796eU,0x3dacfbf4bd85b7f9U,0x3d3c97223d87d6fdU,0xbd36ada8bdd74a79U,0x3e499c083e94d593U,0x3d0f23303d72cc77U,0xbe2429793e7bbc10U,0xbe0e7f8a3e581590U,0x39d06adf3dcab781U,0x3e95243cbe2bf05eU,0x3c59fc3c3dc23569U,0xbe68057dbe1c8203U,0xbe2975a3bc3f45eaU,0x3e1a90203cb7ab79U,0x3de687d9bbc431beU,0xbcec54a53e82625bU,0xbe84a9853dcfbf07U,0x3dad3c94be4ba8dcU,0xbe2b34893e8dd111U,0x3e24139a3e41c266U,0xbe46b35d3e41f5f9U,0x3cf17a8abe1aeb0bU,0xbd9ccf033e8de24dU,0xbe3f2112bdae6ebaU,0xbe03f6bc3e7f50d1U,0x3da2d35bbce41979U,0x3d7c4d0cbde7a069U,0x3d1a38283e6661e3U,0xbdbabd2dbd2f0c54U,0xbe6a01f93e1c5980U,0xbe251e933e3defbcU,0x3e0077773d3d1474U,0xbbd4e7b63d17508eU,0x3ca4cf313bc3287aU,0x3e2cd572bd5a0324U,0xbdbcf42bbda77437U,0xbe0bd3cf3df7eb07U,0xbe10efe53e1973edU,0x3d11cf3e3e2ec3ecU,0x3d2c67033bb89f6eU,0xbd6f45623ca918feU,0x3e4879f2be50d94fU,0x3dc0dc883e24b213U,0x3e73cf533db316ecU,0x3dafbb783b4b4108U,0x3dbf5e0c3d870b40U,0xbd9a54c73e315f2bU,0xbe41fd3bbdf32323U,0x3cd985cb3dfa939fU,0xbca09169be6dfbfdU,0xbd100d7d3e91e37cU,0x3e405a6dba701152U,0xbdb517833cfecabbU,0x3df961cdbb712d54U,0x3d60e79d3d4a868aU,0xbdd0c6673e0269e5U,0xbd198c00be1571ccU,0xbe3575d7be1a0b9cU,0x3c24073b3d3a0f41U,0x3ca0588ebdfe64f5U,0x3cfc53663e4f0f4dU,0x3e06a88d3dc587e8U,0x3d1b428b3e7cc36cU,0xbe87568bbdc20a4eU,0xbe4898cabbb2413cU,0x3e4b81c5bec445c8U,0x3da4562bbd8ad1d1U,0xbbb331973d037705U,0xbdf48b6f3e207c27U,0xbc03e9173e1f8e44U,0xbd849a7d3e18afdcU,0xbeace28d3c7d1c8bU,0xbdc681583e375de0U,0x3bab3814be282086U,0x3e42f7673ded952cU,0x3d06d089bd3f189cU,0xbd96f7e33d7b0c54U,0x3cd10c123cb3c998U,0xbe6b16e63dfff877U,0xbe42840b3dcdcc26U,0xbe348b87bcb5ce60U,0x3d067f36be92c5d2U,0x3bc619483d2f6fb2U,0x3da732cc3d0db9e9U,0xbe09657b3d7c8bcbU,0x3cd84c113debb3f6U,0xbcd94da1bc6a9dc7U,0xbe4dd2ed3d225977U,0xbcf074ec3c50357fU,0xbc2944c5be9115efU,0x3e135ee33dbdd101U,0x3dfa1ead3e0a0b92U,0xbe456beb3dac23ceU,0x3dc7b77e3defd106U,0x3e74f797bd35c48aU,0xbeb36126be08f834U,0xbde4c5763e328860U,0x3db6d2b4bddc3c27U,0x3e1d43583ebb5c3aU,0xbdfa861a3e10c7d7U,0x3d84942abd2e841cU,0x3e2b7b6c3d89a4f5U,0x3db8abd43dcde60fU,0x3d1e8150bd934ac1U,0xbc1dadc23e529e03U,0x3ddbcdaabd093b4dU,0x3d984d3dbc54c98bU,0xbd3c77c13e1f457dU,0xbcff6341bda77c45U,0x3de794773e3266cbU,0xbdc03601bda63a5aU,0xbda0f1d9be1b81d1U,0x3c073f4d3d8d496cU,0xbda110d1be21187fU,0xbdeadde13e0c49ddU,0x3e184b68be0706c7U,0xbe16c049bd9ee433U,0x3befa949bd70cb40U,0xbe6137bd3e104be8U,0x3ca019aabd716a86U,0xbda29cf7bd8b2ff2U,0x3e852e9cbe0cfcfcU,0xbd2e846f3deb8528U,0xbd037dc5bd9393acU,0xbe76e1213db53e7dU,0xbd929297be0e19bfU,0xbdbf23e3bd36df04U,0xbc1695df3e0377ddU,0xbc830d623e74e3adU,0x3d765232be69be64U,0x3e2ef1bbbd2ac201U,0xbe2b449abd480040U,0x3ced5478bd01fbbcU,0x3d212d303e469ea1U,0x3df01f803cb22e7aU,0xbd9065edbe074fa2U,0xbda23490bcf2d2afU,0xbb6f790abdf81aaeU,0x3d84c6763e172a22U,0x3d8032c53dc60123U,0xbd7a22ce3e0edf8fU,0xbc792f263e0725e2U,0xbe5b9c82bc7e4288U,0xbb4826333e626f65U,0x3ca913d9bd1369bbU,0x3e5f4dcebe145935U,0xbd4d5eeabca988b0U,0xbe1ee3643e15bc30U,0x3d8d9cdfbd700850U,0xbdea41953ddac40eU,0x3d6a8a2fbe276822U,0xbd6646203d0444c9U,0xbe53cf9f3d7ab6aeU,0x3e10db6bbe1c8aa2U,0x3de6ac4d38ff326cU,0xbd7307903d8aff9eU,0xbdb34b683cdf196fU,0x3d4dd5223e029984U,0x3cad30533db4f0dbU,0xbe273a90bdc22386U,0xbe2f221aba7d51beU,0x3e3dada83c02727bU,0x3a803a72bd8c399eU,0x3e5fc1413ddb122aU,0x3c8cab98be3e99b4U,0xbd9e859d3e0964e4U,0xbd3fd75b3e16cdc1U,0x3d483700be0b4e33U,0x3d26878e3e2c86f3U,0xbd803350be55d21aU,0xbcb61c123caf2eeaU,0xbdd8ab063e0a99acU,0x3e339d5a3d7a56d2U,0xba188a9c3d893fcaU,0x3e6335953d9445c3U,0x3d6167e7bd7bf931U,0xbe6cf5263e078961U,0x3d91dd403df1698eU,0xbdbdc099bd882dc0U,0xbdd83dd93df2c257U,0xbe466360bde1a897U,0x3e86f9923e2e15d8U,0xbde64cb6bcdd283aU,0xbe4f2edb3d073c46U,0x3bb489d5bd50d7feU,0x3cdcfa90bc4310abU,0x3e3f946c3be477caU,0xbc1c16b23d1f2e50U,0xbe8625fbbcfaa4efU,0xbce658973e7964c0U,0xbd7dd36e3e3622ccU,0xbe130de13d9736e1U,0x3d1c2c913b1222daU,0xbd5db631be028536U,0xbcc6a23abda4f603U,0xbe1f4320bcd11798U,0xbe18e8153e2efba8U,0x3e4704a0bc8716c3U,0xbdc1ebc0be2aec49U,0xbd6375653e3aac69U,0x3d347cb03d2dfc3eU,0x3e06b239bcecb5f1U,0x3db10fc13ca194b5U,0xbe58a10d3ccfdffaU,0x3cd0d6333e0a820dU,0xbddb8d2c3cb01c2dU,0xbd350f243dc6866dU,0xbd05207cbd9c821cU,0xbe5f4ff43d8113e1U,0x3d7f875f3e3a8211U,0x3e8818f2be100a49U,0x3d4f3b5cbcc3943bU,0x3d65bcd03df8f746U,0xbbc101773dc7c383U,0xbe76766f3e3429acU,0xbd2f9015bd68fd8dU,0xbd5348d63da5fea5U,0x3df5ab0cbe122685U,0xbc01fc59be0151cfU,0xbe08892dbcf2d61cU,0xbc805ad3bd20881bU,0xbdb43422bdee5ce0U,0xbe444daabd8653ccU,0xbe991f823e2e7471U,0xbe80fd123e8ec651U,0xbc540532be3f7764U,0x3d060e913e493872U,0xbda5442b3e6790f8U,0xbea4d0b8bd12f46fU,0xbe3f33443de179e1U,0xbd0e01503e647bf3U,0xbd776d81bc9549bfU,0xbe6a971c3d100621U,0x3e3ddfb63d3fcddfU,0x3e75cf943e342a76U,0xbd9a3fa43caa4931U,0x3c0283bc3da0865dU,0x3d1410fc3c56500cU,0x3c7bd8a53e4376acU,0xbd625a873e235190U,0xbcbf2a4b3e0b0487U,0x3d4320aabdabebbeU,0x3e6c3fbd3e9a2042U,0xbd96193dbddd82e9U,0xbe1f54973e99f5adU,0x3e6965d63e7cb4cbU,0xbc093b433d523ddaU,0x3c9de6dabc9e8527U,0x3d41fd273dc7fc5bU,0xbd936b2dbdc1394bU,0x3e0433c93e938082U,0xbd0789eebda606d9U,0xbebdd87e3e982e53U,0x3e80eb8f3d684568U,0xbe247e4f3e2875e4U,0xbe2f5b18be3c560fU,0x3de1c3163d922bf3U,0xbdde08b2be0ec07fU,0x3e0487953d4d8e6bU,0xbe924787be3d78fbU,0xbe90d896be43b29dU,0xbddfd89fbe37fae7U,0xbe97f790be1fe1faU,0xbe3d13d6bda8c80cU,0xbec77b00bdc1fac1U,0x3ca54e36be444ae6U,0xbec9d7abbead6aacU,0xbe965f4a3eb93212U,0xbdcc11bd3e9f0860U,0xbdb448c3be438a9bU,0x3acacbfd3dd78177U,0xbdcd52fd3e7b3cd7U,0xbe095468bd9688fdU,0xbd5db6d2bdc41202U,0xbd96af5e3ea87b16U,0xbe0eeda33e2f9b22U,0xbe57955a3b48a6eeU,0xbe62dfa4be457e0bU,0xbcbc21073e591a2eU,0x3dedf0b83e2c0112U,0x3e28e1e23c59c6e9U,0x3e1753413dd3b0c0U,0x3cfc82c3be1d4d37U,0xbda3838f3c1c0de6U,0xbe6b05c13d640659U,0xbe417332be0c2313U,0xbe50e5e03e686d1cU,0x3d4c69e1bcd8969aU,0x3e3f57a73e3a03a7U,0x3ccb48643e37409bU,0xbd95bc073c75c3feU,0x3e568a5abd114c39U,0xbd8d41f93e009c00U,0x3dc74e8b3d15f513U,0x3ded2a243e2953dcU,0xbe56b4953ddd453aU,0xbcfafc3c3e36187fU,0x3e866b85be4c78f7U,0x3e9d31bcbcdc3d0bU,0x3df8b56b3d85f406U,0x3e754abdbe7b399dU,0xbc03e09d3f010976U,0x3e22e67abd206f4fU,0xbed7955fbb41c14cU,0xbea8db0cbe928b30U,0x3d0d74e7beb5dfb7U,0x3ed63ceb3e6ca849U,0xbe2322c6be3016a9U,0xbe2fea323e86c2bfU,0x3c8ddfebbd7a8788U,0xbe30387cbd9465e0U,0xbda24b363e7ba1baU,0xbd5909d93e4dc7b2U,0xbdc43b33be82ad2bU,0x3de237a23e6eb294U,0xbdf2ddd3bd65911fU,0xbe4b46853e4f42b1U,0x3d47f7663e083c7dU,0x3de1e4be3d1589a3U,0x3d7981383d140298U,0xbd81baf53e111359U,0xbd45b61cbba49e4cU,0xbdefd9123e2b9bcfU,0xbca5cd72bde29ea3U,0xbe7c7fcc3df73626U,0x3d2941ac3deb20adU,0x3cce728d3e397b71U,0xbe1d0485bdd1ffe7U,0x3d978e973e6fdcb1U,0x3dd350653d4c13c8U,0x3e0104613e74504dU,0x3d72b7093e1f1f7dU,0xbe3ebc403e870cfaU,0x3d13e0313e368bd7U,0xbc792ea1bdbc7ddeU,0xbe29a0473e3d8a22U,0x3b8d18e3be202eceU,0xbd1ea5453e0a5833U,0x3e32439a3c2dbe88U,0x3e261632bc4773f0U,0xbe98831b3e8ebaa5U,0x3d54428a3e399586U,0xbe432990be29cd11U,0x3d56a783be308ccfU,0xbe502d203e9c72caU,0xbc42aac23d8ea1d8U,0x3e84c2703dcc64d9U,0xbd42d42d3eafb0f2U,0xbe14ba553e5a7985U,0xbdcd26eebd687fbeU,0xbe5175e83ec76996U,0xbe671e1c3d534ab5U,0x3d2eb6e03e6fad20U,0x3e64a8ccbde546e7U,0xbda40efdbdc50d5fU,0x3e8f734abd0a2995U,0x3c2e92abbe29a8aaU,0x3d81c372be853e71U,0x3e3068213e51816dU,0xbe9f6de53d4fb5aaU,0xbdc2c9793ec88dd9U,0x3ec36637beb1a4b3U,0xbd8145923e4fa7a2U,0xbe17edce3e327935U,0xbde434f93ead3fdcU,0xbe5337823c819a9fU,0x3d84ec2dbe23709aU,0xbe42aa713ed0db57U,0xbe1dc0c33dbef9ddU,0xbe055e9c3e5cab37U,0xbdff297d3ea97d1cU,0xbee08c903e89a924U,0x3ebd0dba3f0031a4U,0xbe3749a8be0898e9U,0x3d902fa43e68801eU,0xbd5e31d8be0b3ff4U,0x3eabe6f13c3ec0e9U,0x3e48289c3d45b8b3U,0x3eb6d51c3d2b361bU,0x3e845d013ca0fdc4U,0xbde3e808be0d0cfbU,0x3e82f2263e082024U,0x3ee4b8a0bc9e5dfeU,0xbddd091ebdec0c3cU,0xbe3f3f093dd4e757U,0xbde68c67be6981c9U,0x3e7303013f03443fU,0x3ca4e09d3e132f07U,0xbe4030993dafe19bU,0x3e01cd8a3e262fcbU,0xbe4e10debd90dce8U,0xbe225a263dc7b0b7U,0xbd443c573e3afa72U,0xbd46bd3ebde1f967U,0x3dd7a0debc8f14d0U,0x3e32ae363d4d3e69U,0xbe0f067c3e4bca56U,0x3e86944bbd50340cU,0x3c3242913df28736U,0xbd9d40893e44d49fU,0x3d9b3e863ebdc3f7U,0xbd9760d2be092facU,0x3e5381973e36c328U,0x3d8a96bbbd532743U,0x3e36910c3c9f3de9U,0xbccc6b433d3f0d59U,0x3d4633ae3dc71feaU,0xbea335ebbd995eb8U,0xbdfed2533d86f70dU,0x3e54eb773cc40030U,0xbdc5f7c43ea11e9bU,0x3df0830abdd7bb47U,0x3bd5dc663e435313U,0xbcfbd28b3d80a0d3U,0xbe4543023d94e8c2U,0xbe86d2273d6da29fU,0xbda4719ebd060796U,0xbdd0e007bddff9d5U,0x3e31c49c3d423a15U,0xbdf26efc3e1eec74U,0xbe273dff3d688621U,0xbd0759fd3e1f2abcU,0x3d8f021039eafc3eU,0xbd9b524abe146ca3U,0xbe6575bf3d809dbcU,0x3e04a3fbbe3e57fbU,0x3e84aa7c3e1cde95U,0x3da406693e19e84aU,0xbdca35693dfabecbU,0xbce79a2bbd81af63U,0xbdf9ea833e3b9ee5U,0xbcbf0dc3bd749023U,0x3ceb17ed3c79ca45U,0xbe3455153e20ab49U,0x3a38ddff3e5c2c84U,0x3d702b36be332617U,0x3dc67787bd2ee153U,0xbc83a15b3d35b2aaU,0xbd2a73d23e12cd36U,0x3e3b82083deb97eeU,0xbdd28c6ebd9dae6fU,0xbc0affcfbe1ff37dU,0x3e8b16b8be04ca2dU,0x3d6f1b043d4b8170U,0xbd5b78963b95b904U,0xbd43be513db10debU,0xbdfa8b42be0f0e6cU,0xbe06694bbd9ac753U,0x3d2fd40bbb6c02e8U,0x3c3eb8c0bcbe3436U,0x3e15caa3bdf20590U,0xbdadd8be3e4971a4U,0xbdcc3a353ddbfbe9U,0x3e549f9bbe062904U,0x3db97feabdb165a3U,0xbe5c143f3c74e230U,0xbdf9fa213dc40813U,0x3dba4b16bdf98a69U,0x3e06d36a3e578799U,0x3d8a729dbdb8aa43U,0xbe08e9083e2afd4aU,0x3c4c8eb5bd9d3224U,0xbe12c9da3e4305d2U,0xbe0934fdbd08181fU,0x3da100c83e9654fcU,0x3e2ae2d0bc1dc916U,0x3c73351a3cf9cf68U,0xbd2e1f8ebe71b2f9U,0xbc9178bd3d178997U,0x3e6c8b563d95262dU,0xbe8391233c0fa238U,0xbe70792c3df66c2eU,0xbe51c87dbe52198fU,0xbcda24fcbe0bb6cbU,0x3bffb1023e3a6831U,0x3e3f6ff5bce36db9U,0xbc9258143da8b75eU,0x3e5fe350be5595fdU,0x3e0be2343e321a88U,0x3d3430cd3e67607bU,0x3dabad5b3cb5c437U,0x3c74712d3e01290fU,0xbe08ea85bd87b533U,0xbcc7bd29bdf9f6feU,0x3e3d81f63e031a4fU,0xbe1cdf37be0c7810U,0x3ccbb9e63e150956U,0xbe81179fbb86e69cU,0x3df17fcebe4fefe0U,0x3d5804453c3527b4U,0xbd198572bd11949cU,0xbddaed17bdf07696U,0xbe2c5630bd9d0a2aU,0xbd43012f3db359a2U,0xbe0880b13e06c31dU,0x3e62d3b93ce3c132U,0xbd102cd23d4c672dU,0x3c8507fa3d2dee06U,0x3d7412b2bb696e55U,0x3d9d623d3d765563U,0x3e3e2a6a3e6aee7dU,0xbd6bb0fd3db27e20U,0x3db1a6323e46eb75U,0xbecab5b2be0f2673U,0x3e134730bce1431bU,0x3d8e0476bdee1fd6U,0x3e4a0d003e58830dU,0xbd2085e13df01f9eU,0x3dd277033e8c8a93U,0xbe0ec379bd81c3d1U,0x3d42f6eb3e167c8dU,0xbe2f8c823e045a6aU,0xbd6402f83c35bbb4U,0x3e323e1b3db58695U,0x3e38f5263e06194cU,0x3b33f3f93d86c3c9U,0xbe65f99c3db334adU,0xbdbdbab7bc40bf71U,0xbe4295743e1b59eaU,0xbe2854ccbdbf0884U,0x3a5581ecbd5d06f8U,0xbd98b448be6fdb00U,0x3c17f836bdeac2f6U,0x3e4e879b3d979a09U,0xbe8b25b93ddb9e1fU,0xbcf9163f3e11aad7U,0xbd5ecba93e22b8b9U,0x3d192fb2bcf7e9d9U,0xbc960702bdded26fU,0x3dcefc853cc358eeU,0xbceb4431bcf71973U,0x3e5d42183e00eab3U,0xbe1c18363d2d945aU,0xbd97a70f3c888ca2U,0xbd3f003cbdb5d1e7U,0xbe4e6cf13bc25010U,0xbe3a10d8bd09189cU,0x3d149b91bd029561U,0x3e6d42df3e74f6f8U,0xbc6d23dd3de445b6U,0x3d0f97bc3c8abe43U,0x3da8c351bd556168U,0x3dcaabbfbe30c9caU,0xbcbb806a3e0c27acU,0xbe820e20bda1ee63U,0x3d19d8fe3da10a3eU,0x3e22ebca3e15511cU,0xbd81209f39c6f14aU,0x3de82c963d774753U,0x3e1545e33e6db264U,0xbe2b7dad3d723176U,0xbe690b583e332c65U,0xbe30e9733e306e24U,0x3ca1cc94bdbb6913U,0xbd2e408b3dab283dU,0x3dbc50f33c9bb24cU,0x3d796dea3d4a89b3U,0x3ea1e5d63b137c4aU,0xbd2a233b3ea35281U,0xbd9c121c3d207b15U,0xbcddb1d83cb090baU,0x3dfcd53fbc2971daU,0x3da35b27be080429U,0x3dde93653d95b42dU,0xbcd0049e3e197006U,0x3e4f7f983e35aebaU,0xbdb11ab63e131aa2U,0x3ca76747bd67f42fU,0xbe960ac73dcd545eU,0x3d098e75bdf5f0cfU,0xbda01a6f3e991b19U,0xbe1c705b3e6b6430U,0xbd47e5353c0ac8ffU,0x3e3ee55eba4a880cU,0xbda8582cbd1b0a9dU,0xbe7052c53da46368U,0xbd423d7b3e56dd05U,0x3c885d83be0efc17U,0x3e2155c43e751c03U,0xbd960f113d7061e3U,0xbd713db6bdc51223U,0x3e09810f3ddb8f8fU,0xbe2cf6cebdd607cbU,0xbe8c5a5d3d8fbe32U,0xbe5a8e05bd8124c4U,0xbe0000f7bd20b45aU,0x3e4a0c843e89e8e0U,0x3d07e618bdb71596U,0x3e07a3c0bdf32c93U,0xbd45cb723e3af212U,0xbdeb345f3b9dcecbU,0x3df768033e36a0d9U,0x3e2b13033cf9958dU,0x3e231d603e4eaa6eU,0xbdebe3fa3d514eccU,0x3e1cebacbdd83ae0U,0x3ceeae153c96374fU,0xbe44d8483e435216U,0xbdbeef1f3e094040U,0x3dbe60393e222d38U,0x3d55346c3d5930a9U,0xbe26d2eb3dba7beaU,0x3e609bd33dc2109bU,0x3e3c7c993e098946U,0xbe4076f03db2e9cfU,0xbd7aabf93e11cba5U,0x3d8bb00abe3e0a75U,0xbe3621c0be4826f1U,0xbe11879d3e399453U,0x3e0e85e63e1b30ebU,0x3e701fe4bdf70d7cU,0x3db681c53e2ec31fU,0xbe49181a3d058d5dU,0x3c01e8313cde0a9dU,0xbda0bf8f3dd5d9acU,0xbe21af113e2b000fU,0xbe2c8bce3d9c9cd8U,0xba8d455cbe203f2bU,0x3cc963243e51017eU,0xbe1e47913dc06562U,0x3d4966b13e57d43aU,0x3e5c78ab3d34910dU,0xbe07a452bced37f4U,0x3d7046cebc53333eU,0xbdbe65dc3e43d2f4U,0x3d94165dbcf0714eU,0xbcab088dbc1a3fbfU,0x3e89e78fbe0c0d91U,0xbd05086ebe184e87U,0x3ea0b9ddbdeecc3cU,0xbd85d2693ca2c5c4U,0xbe6931ca3d024b04U,0xbdb4d4d63e50145aU,0xbddb949dbea2215dU,0x3dbeac85bdb806a2U,0xbe0dfbbabdc95b8cU,0xbdc24461bde168aaU,0xbd944f503e092d94U,0xbe8e5e4c3c6d5308U,0x3dbd67a03d59ae49U,0x3d2558233e6a4da9U,0x3e16fdbabd324ea1U,0xbda0425c3e047173U,0xbea038473d6e8746U,0x3d9ee6d33e7f06b2U,0x3e0534b0bea53742U,0xbe3f914f3e65d69fU,0x3e0d8bfd3e6a1936U,0x3e3262253e14796eU,0x3dacfbf4bd85b7f9U,0x3d3c97223d87d6fdU,0xbd36ada8bdd74a79U,0x3e499c083e94d593U,0x3d0f23303d72cc77U,0xbe2429793e7bbc10U,0xbe0e7f8a3e581590U,0x39d06adf3dcab781U,0x3e95243cbe2bf05eU,0x3c59fc3c3dc23569U,0xbe68057dbe1c8203U,0xbe2975a3bc3f45eaU,0x3e1a90203cb7ab79U,0x3de687d9bbc431beU,0xbcec54a53e82625bU,0xbe84a9853dcfbf07U,0x3dad3c94be4ba8dcU,0xbe2b34893e8dd111U,0x3e24139a3e41c266U,0xbe46b35d3e41f5f9U,0x3cf17a8abe1aeb0bU,0xbd9ccf033e8de24dU,0xbe3f2112bdae6ebaU,0xbe03f6bc3e7f50d1U,0x3da2d35bbce41979U,0x3d7c4d0cbde7a069U,0x3d1a38283e6661e3U,0xbdbabd2dbd2f0c54U,0xbe6a01f93e1c5980U,0xbe251e933e3defbcU,0x3e0077773d3d1474U,0xbbd4e7b63d17508eU,0x3ca4cf313bc3287aU,0x3e2cd572bd5a0324U,0xbdbcf42bbda77437U,0xbe0bd3cf3df7eb07U,0xbe10efe53e1973edU,0x3d11cf3e3e2ec3ecU,0x3d2c67033bb89f6eU,0xbd6f45623ca918feU,0x3e4879f2be50d94fU,0x3dc0dc883e24b213U,0x3e73cf533db316ecU,0x3dafbb783b4b4108U,0x3dbf5e0c3d870b40U,0xbd9a54c73e315f2bU,0xbe41fd3bbdf32323U,0x3cd985cb3dfa939fU,0xbca09169be6dfbfdU,0xbd100d7d3e91e37cU,0x3e405a6dba701152U,0xbdb517833cfecabbU,0x3df961cdbb712d54U,0x3d60e79d3d4a868aU,0xbdd0c6673e0269e5U,0xbd198c00be1571ccU,0xbe3575d7be1a0b9cU,0x3c24073b3d3a0f41U,0x3ca0588ebdfe64f5U,0x3cfc53663e4f0f4dU,0x3e06a88d3dc587e8U,0x3d1b428b3e7cc36cU,0xbe87568bbdc20a4eU,0xbe4898cabbb2413cU,0x3e4b81c5bec445c8U,0x3da4562bbd8ad1d1U,0xbbb331973d037705U,0xbdf48b6f3e207c27U,0xbc03e9173e1f8e44U,0xbd849a7d3e18afdcU,0xbeace28d3c7d1c8bU,0xbdc681583e375de0U,0x3bab3814be282086U,0x3e42f7673ded952cU,0x3d06d089bd3f189cU,0xbd96f7e33d7b0c54U,0x3cd10c123cb3c998U,0xbe6b16e63dfff877U,0xbe42840b3dcdcc26U,0xbe348b87bcb5ce60U,0x3d067f36be92c5d2U,0x3bc619483d2f6fb2U,0x3da732cc3d0db9e9U,0xbe09657b3d7c8bcbU,0x3cd84c113debb3f6U,0xbcd94da1bc6a9dc7U,0xbe4dd2ed3d225977U,0xbcf074ec3c50357fU,0xbc2944c5be9115efU,0x3e135ee33dbdd101U,0x3dfa1ead3e0a0b92U,0xbe456beb3dac23ceU,0x3dc7b77e3defd106U,0x3e74f797bd35c48aU,0xbeb36126be08f834U,0xbde4c5763e328860U,0x3db6d2b4bddc3c27U,0x3e1d43583ebb5c3aU,0xbdfa861a3e10c7d7U,0x3d84942abd2e841cU,0x3e2b7b6c3d89a4f5U,0x3db8abd43dcde60fU,0x3d1e8150bd934ac1U,0xbc1dadc23e529e03U,0x3ddbcdaabd093b4dU,0x3d984d3dbc54c98bU,0xbd3c77c13e1f457dU,0xbcff6341bda77c45U,0x3de794773e3266cbU,0xbdc03601bda63a5aU,0xbda0f1d9be1b81d1U,0x3c073f4d3d8d496cU,0xbda110d1be21187fU,0xbdeadde13e0c49ddU,0x3e184b68be0706c7U,0xbe16c049bd9ee433U,0x3befa949bd70cb40U,0xbe6137bd3e104be8U,0x3ca019aabd716a86U,0xbda29cf7bd8b2ff2U,0x3e852e9cbe0cfcfcU,0xbd2e846f3deb8528U,0xbd037dc5bd9393acU,0xbe76e1213db53e7dU,0xbd929297be0e19bfU,0xbdbf23e3bd36df04U,0xbc1695df3e0377ddU,0xbc830d623e74e3adU,0x3d765232be69be64U,0x3e2ef1bbbd2ac201U,0xbe2b449abd480040U,0x3ced5478bd01fbbcU,0x3d212d303e469ea1U,0x3df01f803cb22e7aU,0xbd9065edbe074fa2U,0xbda23490bcf2d2afU,0xbb6f790abdf81aaeU,0x3d84c6763e172a22U,0x3d8032c53dc60123U,0xbd7a22ce3e0edf8fU,0xbc792f263e0725e2U,0xbe5b9c82bc7e4288U,0xbb4826333e626f65U,0x3ca913d9bd1369bbU,0x3e5f4dcebe145935U,0xbd4d5eeabca988b0U,0xbe1ee3643e15bc30U,0x3d8d9cdfbd700850U,0xbdea41953ddac40eU,0x3d6a8a2fbe276822U,0xbd6646203d0444c9U,0xbe53cf9f3d7ab6aeU,0x3e10db6bbe1c8aa2U,0x3de6ac4d38ff326cU,0xbd7307903d8aff9eU,0xbdb34b683cdf196fU,0x3d4dd5223e029984U,0x3cad30533db4f0dbU,0xbe273a90bdc22386U,0xbe2f221aba7d51beU,0x3e3dada83c02727bU,0x3a803a72bd8c399eU,0x3e5fc1413ddb122aU,0x3c8cab98be3e99b4U,0xbd9e859d3e0964e4U,0xbd3fd75b3e16cdc1U,0x3d483700be0b4e33U,0x3d26878e3e2c86f3U,0xbd803350be55d21aU,0xbcb61c123caf2eeaU,0xbdd8ab063e0a99acU,0x3e339d5a3d7a56d2U,0xba188a9c3d893fcaU,0x3e6335953d9445c3U,0x3d6167e7bd7bf931U,0xbe6cf5263e078961U,0x3d91dd403df1698eU,0xbdbdc099bd882dc0U,0xbdd83dd93df2c257U,0xbe466360bde1a897U,0x3e86f9923e2e15d8U,0xbde64cb6bcdd283aU,0xbe4f2edb3d073c46U,0x3bb489d5bd50d7feU,0x3cdcfa90bc4310abU,0x3e3f946c3be477caU,0xbc1c16b23d1f2e50U,0xbe8625fbbcfaa4efU,0xbce658973e7964c0U,0xbd7dd36e3e3622ccU,0xbe130de13d9736e1U,0x3d1c2c913b1222daU,0xbd5db631be028536U,0xbcc6a23abda4f603U,0xbe1f4320bcd11798U,0xbe18e8153e2efba8U,0x3e4704a0bc8716c3U,0xbdc1ebc0be2aec49U,0xbd6375653e3aac69U,0x3d347cb03d2dfc3eU,0x3e06b239bcecb5f1U,0x3db10fc13ca194b5U,0xbe58a10d3ccfdffaU,0x3cd0d6333e0a820dU,0xbddb8d2c3cb01c2dU,0xbd350f243dc6866dU,0xbd05207cbd9c821cU,0xbe5f4ff43d8113e1U,0x3d7f875f3e3a8211U,0x3e8818f2be100a49U,0x3d4f3b5cbcc3943bU,0x3d65bcd03df8f746U,0xbbc101773dc7c383U,0xbe76766f3e3429acU,0xbd2f9015bd68fd8dU,0xbd5348d63da5fea5U,0x3df5ab0cbe122685U,0xbc01fc59be0151cfU,0xbe08892dbcf2d61cU,0xbc805ad3bd20881bU,0xbdb43422bdee5ce0U,0xbe444daabd8653ccU,0xbe991f823e2e7471U,0xbe80fd123e8ec651U,0xbc540532be3f7764U,0x3d060e913e493872U,0xbda5442b3e6790f8U,0xbea4d0b8bd12f46fU,0xbe3f33443de179e1U,0xbd0e01503e647bf3U,0xbd776d81bc9549bfU,0xbe6a971c3d100621U,0x3e3ddfb63d3fcddfU,0x3e75cf943e342a76U,0xbd9a3fa43caa4931U,0x3c0283bc3da0865dU,0x3d1410fc3c56500cU,0x3c7bd8a53e4376acU,0xbd625a873e235190U,0xbcbf2a4b3e0b0487U,0x3d4320aabdabebbeU,0x3e6c3fbd3e9a2042U,0xbd96193dbddd82e9U,0xbe1f54973e99f5adU,0x3e6965d63e7cb4cbU,0xbc093b433d523ddaU,0x3c9de6dabc9e8527U,0x3d41fd273dc7fc5bU,0xbd936b2dbdc1394bU,0x3e0433c93e938082U,0xbd0789eebda606d9U,0xbebdd87e3e982e53U,0x3e80eb8f3d684568U,0xbe247e4f3e2875e4U,0xbe2f5b18be3c560fU,0x3de1c3163d922bf3U,0xbdde08b2be0ec07fU,0x3e0487953d4d8e6bU,0xbe924787be3d78fbU,0xbe90d896be43b29dU,0xbddfd89fbe37fae7U,0xbe97f790be1fe1faU,0xbe3d13d6bda8c80cU,0xbec77b00bdc1fac1U,0x3ca54e36be444ae6U,0xbec9d7abbead6aacU,0xbe965f4a3eb93212U,0xbdcc11bd3e9f0860U,0xbdb448c3be438a9bU,0x3acacbfd3dd78177U,0xbdcd52fd3e7b3cd7U,0xbe095468bd9688fdU,0xbd5db6d2bdc41202U,0xbd96af5e3ea87b16U,0xbe0eeda33e2f9b22U,0xbe57955a3b48a6eeU,0xbe62dfa4be457e0bU,0xbcbc21073e591a2eU,0x3dedf0b83e2c0112U,0x3e28e1e23c59c6e9U,0x3e1753413dd3b0c0U,0x3cfc82c3be1d4d37U,0xbda3838f3c1c0de6U,0xbe6b05c13d640659U,0xbe417332be0c2313U,0xbe50e5e03e686d1cU,0x3d4c69e1bcd8969aU,0x3e3f57a73e3a03a7U,0x3ccb48643e37409bU,0xbd95bc073c75c3feU,0x3e568a5abd114c39U,0xbd8d41f93e009c00U,0x3dc74e8b3d15f513U,0x3ded2a243e2953dcU,0xbe56b4953ddd453aU,0xbcfafc3c3e36187fU,0x3e866b85be4c78f7U,0x3e9d31bcbcdc3d0bU,0x3df8b56b3d85f406U,0x3e754abdbe7b399dU,0xbc03e09d3f010976U,0x3e22e67abd206f4fU,0xbed7955fbb41c14cU,0xbea8db0cbe928b30U,0x3d0d74e7beb5dfb7U,0x3ed63ceb3e6ca849U,0xbe2322c6be3016a9U,0xbe2fea323e86c2bfU,0x3c8ddfebbd7a8788U,0xbe30387cbd9465e0U,0xbda24b363e7ba1baU,0xbd5909d93e4dc7b2U,0xbdc43b33be82ad2bU,0x3de237a23e6eb294U,0xbdf2ddd3bd65911fU,0xbe4b46853e4f42b1U,0x3d47f7663e083c7dU,0x3de1e4be3d1589a3U,0x3d7981383d140298U,0xbd81baf53e111359U,0xbd45b61cbba49e4cU,0xbdefd9123e2b9bcfU,0xbca5cd72bde29ea3U,0xbe7c7fcc3df73626U,0x3d2941ac3deb20adU,0x3cce728d3e397b71U,0xbe1d0485bdd1ffe7U,0x3d978e973e6fdcb1U,0x3dd350653d4c13c8U,0x3e0104613e74504dU,0x3d72b7093e1f1f7dU,0xbe3ebc403e870cfaU,0x3d13e0313e368bd7U,0xbc792ea1bdbc7ddeU,0xbe29a0473e3d8a22U,0x3b8d18e3be202eceU,0xbd1ea5453e0a5833U,0x3e32439a3c2dbe88U,0x3e261632bc4773f0U,0xbe98831b3e8ebaa5U,0x3d54428a3e399586U,0xbe432990be29cd11U,0x3d56a783be308ccfU,0xbe502d203e9c72caU,0xbc42aac23d8ea1d8U,0x3e84c2703dcc64d9U,0xbd42d42d3eafb0f2U,0xbe14ba553e5a7985U,0xbdcd26eebd687fbeU,0xbe5175e83ec76996U,0xbe671e1c3d534ab5U,0x3d2eb6e03e6fad20U,0x3e64a8ccbde546e7U,0xbda40efdbdc50d5fU,0x3e8f734abd0a2995U,0x3c2e92abbe29a8aaU,0x3d81c372be853e71U,0x3e3068213e51816dU,0xbe9f6de53d4fb5aaU,0xbdc2c9793ec88dd9U,0x3ec36637beb1a4b3U,0xbd8145923e4fa7a2U,0xbe17edce3e327935U,0xbde434f93ead3fdcU,0xbe5337823c819a9fU,0x3d84ec2dbe23709aU,0xbe42aa713ed0db57U,0xbe1dc0c33dbef9ddU,0xbe055e9c3e5cab37U,0xbdff297d3ea97d1cU,0xbee08c903e89a924U,0x3ebd0dba3f0031a4U,0xbe3749a8be0898e9U,0x3d902fa43e68801eU,0xbd5e31d8be0b3ff4U,0x3eabe6f13c3ec0e9U,0x3e48289c3d45b8b3U,0x3eb6d51c3d2b361bU,0x3e845d013ca0fdc4U,0xbde3e808be0d0cfbU,0x3e82f2263e082024U,0x3ee4b8a0bc9e5dfeU,0xbddd091ebdec0c3cU,0xbe3f3f093dd4e757U,0xbde68c67be6981c9U,0x3e7303013f03443fU,0x3ca4e09d3e132f07U,0xbe4030993dafe19bU,0x3e01cd8a3e262fcbU,0xbe4e10debd90dce8U,0xbe225a263dc7b0b7U,0xbd443c573e3afa72U,0xbd46bd3ebde1f967U,0x3dd7a0debc8f14d0U,0x3e32ae363d4d3e69U,0xbe0f067c3e4bca56U,0x3e86944bbd50340cU,0x3c3242913df28736U,0xbd9d40893e44d49fU,0x3d9b3e863ebdc3f7U,0xbd9760d2be092facU,0x3e5381973e36c328U,0x3d8a96bbbd532743U,0x3e36910c3c9f3de9U,0xbccc6b433d3f0d59U,0x3d4633ae3dc71feaU,0xbea335ebbd995eb8U,0xbdfed2533d86f70dU,0x3e54eb773cc40030U,0xbdc5f7c43ea11e9bU,0x3df0830abdd7bb47U,0x3bd5dc663e435313U,0xbcfbd28b3d80a0d3U,0xbe4543023d94e8c2U,0xbe86d2273d6da29fU,0xbda4719ebd060796U,0xbdd0e007bddff9d5U,0x3e31c49c3d423a15U,0xbdf26efc3e1eec74U,0xbe273dff3d688621U,0xbd0759fd3e1f2abcU,0x3d8f021039eafc3eU,0xbd9b524abe146ca3U,0xbe6575bf3d809dbcU,0x3e04a3fbbe3e57fbU,0x3e84aa7c3e1cde95U,0x3da406693e19e84aU,0xbdca35693dfabecbU,0xbce79a2bbd81af63U,0xbdf9ea833e3b9ee5U,0xbcbf0dc3bd749023U,0x3ceb17ed3c79ca45U,0xbe3455153e20ab49U,0x3a38ddff3e5c2c84U,0x3d702b36be332617U,0x3dc67787bd2ee153U,0xbc83a15b3d35b2aaU,0xbd2a73d23e12cd36U,0x3e3b82083deb97eeU,0xbdd28c6ebd9dae6fU,0xbc0affcfbe1ff37dU,0x3e8b16b8be04ca2dU,0x3d6f1b043d4b8170U,0xbd5b78963b95b904U,0xbd43be513db10debU,0xbdfa8b42be0f0e6cU,0xbe06694bbd9ac753U,0x3d2fd40bbb6c02e8U,0x3c3eb8c0bcbe3436U,0x3e15caa3bdf20590U,0xbdadd8be3e4971a4U,0xbdcc3a353ddbfbe9U,0x3e549f9bbe062904U,0x3db97feabdb165a3U,0xbe5c143f3c74e230U,0xbdf9fa213dc40813U,0x3dba4b16bdf98a69U,0x3e06d36a3e578799U,0x3d8a729dbdb8aa43U,0xbe08e9083e2afd4aU,0x3c4c8eb5bd9d3224U,0xbe12c9da3e4305d2U,0xbe0934fdbd08181fU,0x3da100c83e9654fcU,0x3e2ae2d0bc1dc916U,0x3c73351a3cf9cf68U,0xbd2e1f8ebe71b2f9U,0xbc9178bd3d178997U,0x3e6c8b563d95262dU,0xbe8391233c0fa238U,0xbe70792c3df66c2eU,0xbe51c87dbe52198fU,0xbcda24fcbe0bb6cbU,0x3bffb1023e3a6831U,0x3e3f6ff5bce36db9U,0xbc9258143da8b75eU,0x3e5fe350be5595fdU,0x3e0be2343e321a88U,0x3d3430cd3e67607bU,0x3dabad5b3cb5c437U,0x3c74712d3e01290fU,0xbe08ea85bd87b533U,0xbcc7bd29bdf9f6feU,0x3e3d81f63e031a4fU,0xbe1cdf37be0c7810U,0x3ccbb9e63e150956U,0xbe81179fbb86e69cU,0x3df17fcebe4fefe0U,0x3d5804453c3527b4U,0xbd198572bd11949cU,0xbddaed17bdf07696U,0xbe2c5630bd9d0a2aU,0xbd43012f3db359a2U,0xbe0880b13e06c31dU,0x3e62d3b93ce3c132U,0xbd102cd23d4c672dU,0x3c8507fa3d2dee06U,0x3d7412b2bb696e55U,0x3d9d623d3d765563U,0x3e3e2a6a3e6aee7dU,0xbd6bb0fd3db27e20U,0x3db1a6323e46eb75U,0xbecab5b2be0f2673U,0x3e134730bce1431bU,0x3d8e0476bdee1fd6U,0x3e4a0d003e58830dU,0xbd2085e13df01f9eU,0x3dd277033e8c8a93U,0xbe0ec379bd81c3d1U,0x3d42f6eb3e167c8dU,0xbe2f8c823e045a6aU,0xbd6402f83c35bbb4U,0x3e323e1b3db58695U,0x3e38f5263e06194cU,0x3b33f3f93d86c3c9U,0xbe65f99c3db334adU,0xbdbdbab7bc40bf71U,0xbe4295743e1b59eaU,0xbe2854ccbdbf0884U,0x3a5581ecbd5d06f8U,0xbd98b448be6fdb00U,0x3c17f836bdeac2f6U,0x3e4e879b3d979a09U,0xbe8b25b93ddb9e1fU,0xbcf9163f3e11aad7U,0xbd5ecba93e22b8b9U,0x3d192fb2bcf7e9d9U,0xbc960702bdded26fU,0x3dcefc853cc358eeU,0xbceb4431bcf71973U,0x3e5d42183e00eab3U,0xbe1c18363d2d945aU,0xbd97a70f3c888ca2U,0xbd3f003cbdb5d1e7U,0xbe4e6cf13bc25010U,0xbe3a10d8bd09189cU,0x3d149b91bd029561U,0x3e6d42df3e74f6f8U,0xbc6d23dd3de445b6U,0x3d0f97bc3c8abe43U,0x3da8c351bd556168U,0x3dcaabbfbe30c9caU,0xbcbb806a3e0c27acU,0xbe820e20bda1ee63U,0x3d19d8fe3da10a3eU,0x3e22ebca3e15511cU,0xbd81209f39c6f14aU,0x3de82c963d774753U,0x3e1545e33e6db264U,0xbe2b7dad3d723176U,0xbe690b583e332c65U,0xbe30e9733e306e24U,0x3ca1cc94bdbb6913U,0xbd2e408b3dab283dU,0x3dbc50f33c9bb24cU,0x3d796dea3d4a89b3U,0x3ea1e5d63b137c4aU,0xbd2a233b3ea35281U,0xbd9c121c3d207b15U,0xbcddb1d83cb090baU,0x3dfcd53fbc2971daU,0x3da35b27be080429U,0x3dde93653d95b42dU,0xbcd0049e3e197006U,0x3e4f7f983e35aebaU,0xbdb11ab63e131aa2U,0x3ca76747bd67f42fU,0xbe960ac73dcd545eU,0x3d098e75bdf5f0cfU,0xbda01a6f3e991b19U,0xbe1c705b3e6b6430U,0xbd47e5353c0ac8ffU,0x3e3ee55eba4a880cU,0xbda8582cbd1b0a9dU,0xbe7052c53da46368U,0xbd423d7b3e56dd05U,0x3c885d83be0efc17U,0x3e2155c43e751c03U,0xbd960f113d7061e3U,0xbd713db6bdc51223U,0x3e09810f3ddb8f8fU,0xbe2cf6cebdd607cbU,0xbe8c5a5d3d8fbe32U,0xbe5a8e05bd8124c4U,0xbe0000f7bd20b45aU,0x3e4a0c843e89e8e0U,0x3d07e618bdb71596U,0x3e07a3c0bdf32c93U,0xbd45cb723e3af212U,0xbdeb345f3b9dcecbU,0x3df768033e36a0d9U,0x3e2b13033cf9958dU,0x3e231d603e4eaa6eU,0xbdebe3fa3d514eccU,0x3e1cebacbdd83ae0U,0x3ceeae153c96374fU,0xbe44d8483e435216U,0xbdbeef1f3e094040U,0x3dbe60393e222d38U,0x3d55346c3d5930a9U,0xbe26d2eb3dba7beaU,0x3e609bd33dc2109bU,0x3e3c7c993e098946U,0xbe4076f03db2e9cfU,0xbd7aabf93e11cba5U,0x3d8bb00abe3e0a75U,0xbe3621c0be4826f1U,0xbe11879d3e399453U,0x3e0e85e63e1b30ebU,0x3e701fe4bdf70d7cU,0x3db681c53e2ec31fU,0xbe49181a3d058d5dU,0x3c01e8313cde0a9dU,0xbda0bf8f3dd5d9acU,0xbe21af113e2b000fU,0xbe2c8bce3d9c9cd8U,0xba8d455cbe203f2bU,0x3cc963243e51017eU,0xbe1e47913dc06562U,0x3d4966b13e57d43aU,0x3e5c78ab3d34910dU,0xbe07a452bced37f4U,0x3d7046cebc53333eU,0xbdbe65dc3e43d2f4U,0x3d94165dbcf0714eU,0xbcab088dbc1a3fbfU,0x3e89e78fbe0c0d91U,0xbd05086ebe184e87U,0x3ea0b9ddbdeecc3cU,0xbd85d2693ca2c5c4U,0xbe6931ca3d024b04U,0xbdb4d4d63e50145aU,0xbddb949dbea2215dU,0x3dbeac85bdb806a2U,0xbe0dfbbabdc95b8cU,0xbdc24461bde168aaU,0xbd944f503e092d94U,0xbe8e5e4c3c6d5308U,0x3dbd67a03d59ae49U,0x3d2558233e6a4da9U,0x3e16fdbabd324ea1U,0xbda0425c3e047173U,0xbea038473d6e8746U,0x3d9ee6d33e7f06b2U,0x3e0534b0bea53742U,0xbe3f914f3e65d69fU,0x3e0d8bfd3e6a1936U,0x3e3262253e14796eU,0x3dacfbf4bd85b7f9U,0x3d3c97223d87d6fdU,0xbd36ada8bdd74a79U,0x3e499c083e94d593U,0x3d0f23303d72cc77U,0xbe2429793e7bbc10U,0xbe0e7f8a3e581590U,0x39d06adf3dcab781U,0x3e95243cbe2bf05eU,0x3c59fc3c3dc23569U,0xbe68057dbe1c8203U,0xbe2975a3bc3f45eaU,0x3e1a90203cb7ab79U,0x3de687d9bbc431beU,0xbcec54a53e82625bU,0xbe84a9853dcfbf07U,0x3dad3c94be4ba8dcU,0xbe2b34893e8dd111U,0x3e24139a3e41c266U,0xbe46b35d3e41f5f9U,0x3cf17a8abe1aeb0bU,0xbd9ccf033e8de24dU,0xbe3f2112bdae6ebaU,0xbe03f6bc3e7f50d1U,0x3da2d35bbce41979U,0x3d7c4d0cbde7a069U,0x3d1a38283e6661e3U,0xbdbabd2dbd2f0c54U,0xbe6a01f93e1c5980U,0xbe251e933e3defbcU,0x3e0077773d3d1474U,0xbbd4e7b63d17508eU,0x3ca4cf313bc3287aU,0x3e2cd572bd5a0324U,0xbdbcf42bbda77437U,0xbe0bd3cf3df7eb07U,0xbe10efe53e1973edU,0x3d11cf3e3e2ec3ecU,0x3d2c67033bb89f6eU,0xbd6f45623ca918feU,0x3e4879f2be50d94fU,0x3dc0dc883e24b213U,0x3e73cf533db316ecU,0x3dafbb783b4b4108U,0x3dbf5e0c3d870b40U,0xbd9a54c73e315f2bU,0xbe41fd3bbdf32323U,0x3cd985cb3dfa939fU,0xbca09169be6dfbfdU,0xbd100d7d3e91e37cU,0x3e405a6dba701152U,0xbdb517833cfecabbU,0x3df961cdbb712d54U,0x3d60e79d3d4a868aU,0xbdd0c6673e0269e5U,0xbd198c00be1571ccU,0xbe3575d7be1a0b9cU,0x3c24073b3d3a0f41U,0x3ca0588ebdfe64f5U,0x3cfc53663e4f0f4dU,0x3e06a88d3dc587e8U,0x3d1b428b3e7cc36cU,0xbe87568bbdc20a4eU,0xbe4898cabbb2413cU,0x3e4b81c5bec445c8U,0x3da4562bbd8ad1d1U,0xbbb331973d037705U,0xbdf48b6f3e207c27U,0xbc03e9173e1f8e44U,0xbd849a7d3e18afdcU,0xbeace28d3c7d1c8bU,0xbdc681583e375de0U,0x3bab3814be282086U,0x3e42f7673ded952cU,0x3d06d089bd3f189cU,0xbd96f7e33d7b0c54U,0x3cd10c123cb3c998U,0xbe6b16e63dfff877U,0xbe42840b3dcdcc26U,0xbe348b87bcb5ce60U,0x3d067f36be92c5d2U,0x3bc619483d2f6fb2U,0x3da732cc3d0db9e9U,0xbe09657b3d7c8bcbU,0x3cd84c113debb3f6U,0xbcd94da1bc6a9dc7U,0xbe4dd2ed3d225977U,0xbcf074ec3c50357fU,0xbc2944c5be9115efU,0x3e135ee33dbdd101U,0x3dfa1ead3e0a0b92U,0xbe456beb3dac23ceU,0x3dc7b77e3defd106U,0x3e74f797bd35c48aU,0xbeb36126be08f834U,0xbde4c5763e328860U,0x3db6d2b4bddc3c27U,0x3e1d43583ebb5c3aU,0xbdfa861a3e10c7d7U,0x3d84942abd2e841cU,0x3e2b7b6c3d89a4f5U,0x3db8abd43dcde60fU,0x3d1e8150bd934ac1U,0xbc1dadc23e529e03U,0x3ddbcdaabd093b4dU,0x3d984d3dbc54c98bU,0xbd3c77c13e1f457dU,0xbcff6341bda77c45U,0x3de794773e3266cbU,0xbdc03601bda63a5aU,0xbda0f1d9be1b81d1U,0x3c073f4d3d8d496cU,0xbda110d1be21187fU,0xbdeadde13e0c49ddU,0x3e184b68be0706c7U,0xbe16c049bd9ee433U,0x3befa949bd70cb40U,0xbe6137bd3e104be8U,0x3ca019aabd716a86U,0xbda29cf7bd8b2ff2U,0x3e852e9cbe0cfcfcU,0xbd2e846f3deb8528U,0xbd037dc5bd9393acU,0xbe76e1213db53e7dU,0xbd929297be0e19bfU,0xbdbf23e3bd36df04U,0xbc1695df3e0377ddU,0xbc830d623e74e3adU,0x3d765232be69be64U,0x3e2ef1bbbd2ac201U,0xbe2b449abd480040U,0x3ced5478bd01fbbcU,0x3d212d303e469ea1U,0x3df01f803cb22e7aU,0xbd9065edbe074fa2U,0xbda23490bcf2d2afU,0xbb6f790abdf81aaeU,0x3d84c6763e172a22U,0x3d8032c53dc60123U,0xbd7a22ce3e0edf8fU,0xbc792f263e0725e2U,0xbe5b9c82bc7e4288U,0xbb4826333e626f65U,0x3ca913d9bd1369bbU,0x3e5f4dcebe145935U,0xbd4d5eeabca988b0U,0xbe1ee3643e15bc30U,0x3d8d9cdfbd700850U,0xbdea41953ddac40eU,0x3d6a8a2fbe276822U,0xbd6646203d0444c9U,0xbe53cf9f3d7ab6aeU,0x3e10db6bbe1c8aa2U,0x3de6ac4d38ff326cU,0xbd7307903d8aff9eU,0xbdb34b683cdf196fU,0x3d4dd5223e029984U,0x3cad30533db4f0dbU,0xbe273a90bdc22386U,0xbe2f221aba7d51beU,0x3e3dada83c02727bU,0x3a803a72bd8c399eU,0x3e5fc1413ddb122aU,0x3c8cab98be3e99b4U,0xbd9e859d3e0964e4U,0xbd3fd75b3e16cdc1U,0x3d483700be0b4e33U,0x3d26878e3e2c86f3U,0xbd803350be55d21aU,0xbcb61c123caf2eeaU,0xbdd8ab063e0a99acU,0x3e339d5a3d7a56d2U,0xba188a9c3d893fcaU,0x3e6335953d9445c3U,0x3d6167e7bd7bf931U,0xbe6cf5263e078961U,0x3d91dd403df1698eU,0xbdbdc099bd882dc0U,0xbdd83dd93df2c257U,0xbe466360bde1a897U,0x3e86f9923e2e15d8U,0xbde64cb6bcdd283aU,0xbe4f2edb3d073c46U,0x3bb489d5bd50d7feU,0x3cdcfa90bc4310abU,0x3e3f946c3be477caU,0xbc1c16b23d1f2e50U,0xbe8625fbbcfaa4efU,0xbce658973e7964c0U,0xbd7dd36e3e3622ccU,0xbe130de13d9736e1U,0x3d1c2c913b1222daU,0xbd5db631be028536U,0xbcc6a23abda4f603U,0xbe1f4320bcd11798U,0xbe18e8153e2efba8U,0x3e4704a0bc8716c3U,0xbdc1ebc0be2aec49U,0xbd6375653e3aac69U,0x3d347cb03d2dfc3eU,0x3e06b239bcecb5f1U,0x3db10fc13ca194b5U,0xbe58a10d3ccfdffaU,0x3cd0d6333e0a820dU,0xbddb8d2c3cb01c2dU,0xbd350f243dc6866dU,0xbd05207cbd9c821cU,0xbe5f4ff43d8113e1U,0x3d7f875f3e3a8211U,0x3e8818f2be100a49U,0x3d4f3b5cbcc3943bU,0x3d65bcd03df8f746U,0xbbc101773dc7c383U,0xbe76766f3e3429acU,0xbd2f9015bd68fd8dU,0xbd5348d63da5fea5U,0x3df5ab0cbe122685U,0xbc01fc59be0151cfU,0xbe08892dbcf2d61cU,0xbc805ad3bd20881bU,0xbdb43422bdee5ce0U,0xbe444daabd8653ccU,0xbe991f823e2e7471U,0xbe80fd123e8ec651U,0xbc540532be3f7764U,0x3d060e913e493872U,0xbda5442b3e6790f8U,0xbea4d0b8bd12f46fU,0xbe3f33443de179e1U,0xbd0e01503e647bf3U,0xbd776d81bc9549bfU,0xbe6a971c3d100621U,0x3e3ddfb63d3fcddfU,0x3e75cf943e342a76U,0xbd9a3fa43caa4931U,0x3c0283bc3da0865dU,0x3d1410fc3c56500cU,0x3c7bd8a53e4376acU,0xbd625a873e235190U,0xbcbf2a4b3e0b0487U,0x3d4320aabdabebbeU,0x3e6c3fbd3e9a2042U,0xbd96193dbddd82e9U,0xbe1f54973e99f5adU,0x3e6965d63e7cb4cbU,0xbc093b433d523ddaU,0x3c9de6dabc9e8527U,0x3d41fd273dc7fc5bU,0xbd936b2dbdc1394bU,0x3e0433c93e938082U,0xbd0789eebda606d9U,0xbebdd87e3e982e53U,0x3e80eb8f3d684568U,0xbe247e4f3e2875e4U,0xbe2f5b18be3c560fU,0x3de1c3163d922bf3U,0xbdde08b2be0ec07fU,0x3e0487953d4d8e6bU,0xbe924787be3d78fbU,0xbe90d896be43b29dU,0xbddfd89fbe37fae7U,0xbe97f790be1fe1faU,0xbe3d13d6bda8c80cU,0xbec77b00bdc1fac1U,0x3ca54e36be444ae6U,0xbec9d7abbead6aacU,0x3f1337d63e28ee24U,0x3f004d053e400f55U,0x3ec1f2a03eaaf39fU,0x3e9f5a823c2b7a4aU,0x3e4c44da3dea4004U,0x3f09a50e3df33480U,0x3d0faa7a3eb36d0aU,0x3e70e925bc2611a2U,0xbe3b55d2bf46e1a0U,0xbe7120aebf021b32U,0xbf8c8323bed9a12fU,0xbec44a94bf1307f4U,0xbf2bcd41bf3bb6b8U,0xba936933bede2311U,0xbcb666fdbee6e96fU,0xbea01e5cbef0d75eU,0xbdcf07bd3e0d4352U,0xbe23a8583e3ef9adU,0x3ea1e1b5be626f8dU,0xbe9ad437bec48e2dU,0x3e54a9c7bef9eee1U,0x3d576a89be734e49U,0x3db898b3be93d611U,0xbe6cd2b8bd0ad68cU,0xbe39cb863e249611U,0xbe392afc3e334077U,0x3eb4e4583e29347bU,0xbeac49933d925e3cU,0x3e26363cbc52193fU,0x3bbf499a3e23dd2bU,0xbe8931453e589b16U,0xbe9e280bbee8ba4bU,0xbfea2223bee84296U,0x3f28216b3efec8eaU
};


ai_handle g_network_weights_table[1 + 2] = {
  AI_HANDLE_PTR(AI_MAGIC_MARKER),
  AI_HANDLE_PTR(s_network_weights_array_u64),
  AI_HANDLE_PTR(AI_MAGIC_MARKER),
};

