/**
  ******************************************************************************
  * @file    har_adaptive_clipper_data.c
  * @author  AST Embedded Analytics Research Platform
  * @date    2026-03-05T11:44:56+0100
  * @brief   AI Tool Automatic Code Generator for Embedded NN computing
  ******************************************************************************
  * Copyright (c) 2026 STMicroelectronics.
  * All rights reserved.
  *
  * This software is licensed under terms that can be found in the LICENSE file
  * in the root directory of this software component.
  * If no LICENSE file comes with this software, it is provided AS-IS.
  ******************************************************************************
  */

#include "har_adaptive_clipper_data.h"
STAI_ALIGNED(8)
const uint64_t g_har_adaptive_clipper_weights_array[730] = {
  0x3d7ec0563d850289U, 0xbdb5b75c3d583f10U, 0xbbc44025bd6b54edU, 0x3d94b4ba3d902209U,
  0x3e1b1faebcdf6001U, 0xbd924c5c3c9fdd02U, 0xbd436265bd665fbeU, 0x3d66f1a4bd998dacU,
  0xbe10d05c3b9ba4cdU, 0x3e04933a3da10ceeU, 0xbaaf1bd1bde5956aU, 0xbbf46f33bd1bd2dcU,
  0xbd1e00f03ddf4b49U, 0xbd7fc927bdf18436U, 0xbdfbc0493dc79dfcU, 0xbd82852b3e290bcbU,
  0xbce06787bc2cee6aU, 0xb94106d63df1686eU, 0xbc7786263d8bc96eU, 0xbe2059bf3e02a5acU,
  0x3d8aeb6f3d838ad7U, 0x3c0b7e1c3d147c84U, 0xbced8436bdd91791U, 0xbb8751b53e057581U,
  0x3d7d6b623d9e9b4bU, 0xbe0a896f3d5e01f9U, 0x3cb9a748bd41339aU, 0xbd80f2703d46e76eU,
  0x3d6401323d041cf0U, 0x3ce29fc33dd92913U, 0xbdb0b3ac3c06bdccU, 0xbd9e41c7bd6008a8U,
  0xbdc11fddbd0edaa1U, 0x3dffdf4abc020a83U, 0xbd1016083d26906dU, 0xbe1e03ae3d06ccf4U,
  0xbdfc5c8e3e2d799bU, 0x3cf37b803dae3cbaU, 0x3d2ee83e3dea06deU, 0xbd4ad639bd1b4082U,
  0xbf076e72bef7875eU, 0xbef602f23d890770U, 0xbf07d074bdbbc57aU, 0x3ee0d2e1beff6636U,
  0x3f06181d3ed49306U, 0x3eacab4f3edd8598U, 0x3e5ff99a3f2f348eU, 0x3e50c784bebbdf27U,
  0x3d60ba2c3eb8886dU, 0x3e4f0f3dbd3d6173U, 0xbe1fa61bbdec4339U, 0xbe6b26a33e5d09a5U,
  0xbdc5d03f3e065282U, 0xbe3fa279bdbe9a5bU, 0xbb5c00bfbd9aa2e4U, 0xbd2431a5bd8c6cb8U,
  0x3da59d363d9c9f5bU, 0x3d500ca2bddab266U, 0x3e2c74eb3ca220e9U, 0xbdf05dc83d2b5e37U,
  0xbcdeab73bd6049ffU, 0x3d80da2cbe25d37eU, 0xbd98c624be9789b9U, 0xbdaacae23e566d1dU,
  0x3e0953503d9ad02dU, 0xbb3bc71bbd580d9cU, 0x3d95fef23be3cea8U, 0xbe2fda6f3e2160c3U,
  0xbe5de527bd7d8f66U, 0xbe1f64dcbe590f1bU, 0xbda3a3a73d70b1d0U, 0xbd5228e83e3325e4U,
  0x3d8b8c793ebc558dU, 0x3e0867573e03c08fU, 0xbc495fccbd3a2dcfU, 0xbe6818363e253f69U,
  0xbe460becbe75ea59U, 0x3cbf5c13bddaafe2U, 0xb8cb996c3a89ffcbU, 0xbe133b5b3d36b69fU,
  0xbd404761bd6ffacdU, 0x3e520f7dbb86eefcU, 0x3dc5422c3e56967bU, 0xbe4354713cd058edU,
  0xbe13fbb0be6bd9a7U, 0x3cd6187e3cfaeb04U, 0xbdf48f56be0f55bcU, 0x3da9abd9bd64bce0U,
  0x3e3fe8cbbd97e676U, 0x3e429d133dc27bd7U, 0xbd09b153bda19312U, 0xbd0aa7443dbb6e92U,
  0xbcfa85af3be466dbU, 0x3dc4a22e3d77cb37U, 0xbdbba6b1be245e9dU, 0x3d8ddc1f3e06b18aU,
  0xbd3f32383dc9fcd9U, 0xbda8e6c13e18e69aU, 0x3e43485bbdb66e5aU, 0xbe101ac53e54530dU,
  0xbe1ff424bdf8ffa5U, 0xbdcf0f0bbdc2f9abU, 0xbdd7d3c8bd4df54eU, 0xbda4e27fbddb06dbU,
  0x3ce2d3743e51c411U, 0x3e1171663e206c9dU, 0x3af9002cb841dcb0U, 0xbd9deaf7bd5e29ddU,
  0xbe3ee29d3de5bdb1U, 0x3cee92e83d0d4045U, 0x3e10355b3d63c539U, 0xbe188ef23e360782U,
  0x3d4bb7d23e2a8878U, 0xbc1b62293caf49f5U, 0xbd793cccbc839d73U, 0xbd6840f0bccec243U,
  0xbe40cfa53d49a941U, 0xbea79bc53bda4f3eU, 0xbdf97ceebd717a64U, 0x3de64a75bc08261cU,
  0x3db46c15bbdc262dU, 0x3dfe4c5e3c91f07fU, 0x3e1653d13cbe91f6U, 0xbdf46896bdda42b9U,
  0xbe41f636bd67218dU, 0xbd111a67bccff830U, 0xbdae1258be545a29U, 0x3d158863be428f33U,
  0xbe2b3ec6bd953bc4U, 0xbdb8f2903ce3bfedU, 0x3ea86de03e6128f8U, 0xbd3d22e6bcef7330U,
  0x3c42b274bd820f1fU, 0xbe40405d3d55e8abU, 0xbdc166933ce80630U, 0xbd9c8be13cb4acc9U,
  0xbde1d113bda44797U, 0xbcad52ff3d89cb6aU, 0x3a26f400be13c05fU, 0xbd2fcc573e0dc8f9U,
  0xbdf9fa4cbde1a298U, 0x3dc15ac6bd1b2a11U, 0xbe38407dbe13017dU, 0x3de36c3abc40b11eU,
  0xbe1d01613e46fd24U, 0x3dd2de103e3ace8fU, 0x3d845f603e1f3450U, 0xbe2f90733e4a4885U,
  0xbdcc15f73dd4fdc7U, 0xbce37826be4b5e32U, 0x3e17b4f03da373f2U, 0x3dd899b0bd3903e9U,
  0x3d8262e1bd0a3dcaU, 0x3e22771dbe60ef7cU, 0xbdfbeb39bdd64217U, 0xbbeff02dbc8a1df9U,
  0xbd846254be56c711U, 0xbe0f5f29bc1b93b8U, 0xbcd24b3bbe51e559U, 0x3cff67cf3e0e150fU,
  0x3e3f2b193caa3094U, 0x3db1b7e43ccf4721U, 0x3e82fe023d466396U, 0xbd66388e3e3ed8c7U,
  0x3d79f7dd3cab6d58U, 0x3d99d6aa3d5b9456U, 0xbe044e65be601ff6U, 0x3d5c99b13db7c734U,
  0x3e77e24a3cef9986U, 0x3db5e34ab9a3a8a0U, 0xbd147fb2be7c7d6aU, 0xbe94a29f3cc5ba0dU,
  0x3da751693e00dc0eU, 0xbe1da269be403e75U, 0x3daad54fbe2d2a6fU, 0xbd6630de3e28d1d2U,
  0x3e07cb00be1455f9U, 0xbd8937393e0cc15dU, 0x3da30d713de23effU, 0x3d63c636bc855764U,
  0xbe1375643dd7417dU, 0x3e1444e93e2a3720U, 0x3d98c3343dfb5262U, 0xbe0ab13abcbf57e7U,
  0x3da84a2d3e215302U, 0x3d8a2dd4bc93d161U, 0x3d8c0d693bf65c87U, 0xbe3fee4a3dd9c39bU,
  0x3d5b1b89be8a78cbU, 0x3c44aef13d958b33U, 0x3db2b0bf3e1bb93bU, 0x3af9770f3e8bc972U,
  0xbe3ecb5cbe30878fU, 0xbb16b540bd869656U, 0x3e884b4c3e173e93U, 0xbd356a26bd7b0823U,
  0xbe2bf194bc3fc636U, 0x3e1020bcbce53d75U, 0x3b92a3eb3cf52b34U, 0xbe3c3957be48e516U,
  0xbd5ed2cf3e0be8dcU, 0xbd3b841f3d32c35eU, 0xbd3969aebe80ff74U, 0xbd9859d3bce5b21fU,
  0xbe68213bbe1c7723U, 0x3cd80dfbbdbf7965U, 0xbd9ea1083e0879d4U, 0xbd9524e03e953a5fU,
  0xbd06f7773e2ac90eU, 0xbd3099a53caf4062U, 0x3dc8c99ebc1480f5U, 0x3e242878bd0815a9U,
  0x3b6cafeabe5bd30cU, 0x3de74961be0730c1U, 0x3d53098cbe248fd3U, 0xbe2e4d0a3dd87f49U,
  0xbd4fa1e63dbd0a67U, 0x3e00f4b3bdb56c45U, 0x3dcb910dbccd3152U, 0x3ccb4a2b3e80f9dcU,
  0xbe0f259ebe8abea8U, 0x3dd4f7f4bdcd211bU, 0x3d2af3cc3d6e673aU, 0xbe36aec5bca21f23U,
  0xbc3413113e0d06fbU, 0x3e5abb71be6999e6U, 0x3e1097303dec5fedU, 0xbdcd0b0a3ac12c37U,
  0xbe2d8413be7d896fU, 0xbde9895cbe2edbd4U, 0x3da0334ebdb51a3dU, 0xbe4cf8c8bc9a18a4U,
  0x3df94698bd3b4324U, 0xbe93d2dc3db73403U, 0xbd031a113e21efc0U, 0x3cb4439a3d9ac44cU,
  0xbb3a9f15be66062cU, 0xbe36b6753d95dba2U, 0xbc370bd93d634d01U, 0x3d99a1f93e13e01bU,
  0x3e15e5723e4e84eeU, 0x3dfb381abd42e0b8U, 0x3c682494bde6f259U, 0x3d9e5d70bde66467U,
  0x3d686976bca2199aU, 0xbe09e237be6936e5U, 0xbe0ff9ebbdacc599U, 0x3ceca3573d045bbaU,
  0x3ddba4553dfff974U, 0x3e06e067bd2f7818U, 0x3e2e68e6bd211394U, 0x3dd161133e1781fdU,
  0xbe0cd4223db91880U, 0xbe0c1bba3dd9810fU, 0xbe2f4bafbc8a6d58U, 0x3ca734e3bb933dadU,
  0xbd59e3713e52bf52U, 0x3de4c923bd3681fbU, 0x3d7efcf93e46b829U, 0x3d20f8443e802e64U,
  0xbe91b646bd75761cU, 0x3d8f859cbc36890cU, 0x3b26a3ab3d976cf4U, 0xbe4a0f243cf8cccdU,
  0x3e454d7b3e2110b0U, 0x3e5b5236be44f10cU, 0x3ca69f39bdb32da5U, 0xbe48ae523dd29885U,
  0x3d8ccc7bbd3f812fU, 0xbd896890bd8fb992U, 0xbdaf5820be3821daU, 0xbe2092d4bd72d53bU,
  0x3e23006cbc12c27eU, 0xbb5ca1de3d5dfc57U, 0x3d74295a3e431ba6U, 0xbe971d6c3dccfca4U,
  0x3db16a35bdea4260U, 0xbdabaf5dbd850192U, 0x3e274264be8b7984U, 0xbe0891003e4ad4c0U,
  0xbdff9c5f3e53c8efU, 0x3ddc17c23dd06787U, 0x3e298aa33d42ca7bU, 0xbc82c7f53d1b1cccU,
  0xbe1ad3c0bd375f79U, 0xbe1fd1ebbdfb90dbU, 0xbdfcbe59bdcf5f43U, 0xbc41f0debdbb1469U,
  0x3e5b1b6f3dc1cb76U, 0x3db5ada9bba98d93U, 0x3de2c53c3ca98319U, 0x3cce032fbe5422dfU,
  0xbe6dab353d9c0f92U, 0x3dec7bcbbdc6cbd6U, 0x3ea73109be354cfcU, 0x3d9ac908bdaf4591U,
  0x3e440dbf3e1f389eU, 0x3ded17febd0c7439U, 0xbd54aac83d0f7361U, 0xbe6227f53d7d71acU,
  0xbda53a563c0547c1U, 0x3b1b617ebe394ae7U, 0xbd8e77a4bcb4d0aeU, 0xbde23aa13e470ee3U,
  0xbdb996b43e700e6dU, 0xbd1529273dbf16f6U, 0x3e3adb563d0154e8U, 0xbe0a141abe412159U,
  0xbe30f381bd832679U, 0xbde9ad05bdc4ddc0U, 0x3db4596cbe6efc9aU, 0xbdc716413d920c75U,
  0x3e59bad83e523455U, 0x3e62bf1dbda150b7U, 0x3e692d7dbe53ce5cU, 0xbe2ee3be3d7bf761U,
  0xbd910ea4bdafa1baU, 0xbc9ceeddbd59a16cU, 0xbdec3097be65cc7cU, 0x3dbc365ebd5c4860U,
  0x3e95039ebdabb402U, 0x3eab2d8fbe09ea5fU, 0x3e9501db3bf8f467U, 0xbe28850dbc2abf36U,
  0x3d9b25f9bdfd5943U, 0xbe49eb9abda6d01dU, 0xbd4465acbc60f3baU, 0xbe8a053e3e2a83cbU,
  0x3db821b8bd8cbf9fU, 0x3d0f6b87bdc006d2U, 0x3e099102bae782edU, 0x3d70e052bdc0fc0cU,
  0x3d9edbb8bdeb51dbU, 0xbd137d433bf6c771U, 0xbd7ea8d839f6dadcU, 0xbdbd243b3c3f1f59U,
  0x3e2de99abd13ef19U, 0x3cfbf5eb3e374309U, 0xbe1c66ef3dedb879U, 0xbc8631173b9dd088U,
  0xbe793a98bd8fdf64U, 0xbe874f53bdfd0101U, 0xbb251812be258dc8U, 0x3e1685613ce60993U,
  0x3e38bd0e3e0d8bcfU, 0xbe14c86b3e2ba24bU, 0x3e4f2fd93d8fd6a4U, 0xbe2d96aa3e506246U,
  0xbdee44dd3dafe2f0U, 0x3d3fd2ee3d986b2cU, 0xbdfebf263e02d6faU, 0x3df84da43e06d29dU,
  0x3e427051bd6692a5U, 0xbd9be1553e1eaf8eU, 0x3e1772c0bc79ea39U, 0x3e017b2bbd107ba4U,
  0x3cd4bc2cbe0ac3aeU, 0xbe2dea5dbd3a3575U, 0x3e3410b6be4d4ab5U, 0xbd903aa63decbaafU,
  0x3e07bdbcbd5cc611U, 0xbd07b56ebdb0cccaU, 0x3ddff76c3d15a5e1U, 0xbe482e51bdf42780U,
  0xbdc8eb9abe183b54U, 0x3d87fa2b3d6dfd29U, 0xbe156f67bdc25694U, 0xbba5c27dbde89133U,
  0xbd91155a3e51611eU, 0x3e5b9e1ebe026705U, 0x3cd6f574bda4199dU, 0xbe0a4b103ea4cacfU,
  0xbd7f5cc2be504a33U, 0xbbbb72203e0600baU, 0x3d119aabbe563f85U, 0xbe5005db3e294113U,
  0x3e0ef9343d9dba7fU, 0x3df305583e331e8eU, 0x3cad44623e34bb5aU, 0xbe885be0bd02cd05U,
  0xbe143bacbd3cfbbeU, 0xbde447bbbc1728feU, 0xbe01498a3e23cd50U, 0xbe2f6a463da935e5U,
  0x3e08df67bcfa00c2U, 0xbda07d75bd25f4b7U, 0x3e7b0f813d198d3fU, 0xbdd6db513de37b95U,
  0xbe015166be4e93ceU, 0x3c8170cfbe55e21cU, 0xbdb955ebbde6d0cbU, 0x3d70f185bbeef80cU,
  0x3e8b378f3e52a650U, 0x3dbe08d9be4b7625U, 0x3e8999db3e433f13U, 0xbdab95cbbbf1ee6fU,
  0xbe6ec99bbe8634e5U, 0xbe44669abe652021U, 0xbcea2e5bbdf47f91U, 0xbe5e88fb3c1ac4d0U,
  0xbe171a203e0853beU, 0xbe27bd1dbcbd444cU, 0x3ed019b83c944302U, 0xbc82b1d6bdf53070U,
  0xbe83162bbe03c6a5U, 0xbd4ef351be820d6eU, 0x3e051663be326efaU, 0xbd4c7797bda820bbU,
  0x3e69c9f73b9b4aceU, 0x3e78d8a33df69563U, 0xbb1e3900be494d31U, 0x3d97fcb13e274262U,
  0x3d2282fc3de7aa64U, 0x3daffa643dd0af27U, 0xbe8027483bb58b2dU, 0x3e73ebadbe819116U,
  0xbd861dbe3e2ebf66U, 0xbda809103e025e63U, 0x3e8c35693d5c3408U, 0x3c440039bd682d9cU,
  0x3bbe05923daf60fdU, 0xbe96e82b3e3e5949U, 0x3c971c64bd8ff4afU, 0xbe0882f33d2608f9U,
  0xbe0f3fe83e44d75bU, 0xbd50afc43e939ba4U, 0x3e4ae7013de1b2deU, 0x3e4762a03d65694dU,
  0xbe7174723e00803dU, 0xbe5f1d36be381092U, 0x3e7309d0bc398650U, 0x3da49fa03e6ce5d2U,
  0xbd826b233e9d196aU, 0xbd936f36bc73c4d9U, 0xbe3523283df99f31U, 0x3d4bf4fd3d1170cbU,
  0xbe31811abd5335e2U, 0xba9402b3be3eb7c4U, 0x3cdd873bbcb4cedbU, 0xbdab076dbe174aa6U,
  0xbe1e6d1c3d9abb2bU, 0x3ebfe832bd4e64a0U, 0x3e8898f53df8449aU, 0x3dccce653e7dee7dU,
  0xbc951caabe6709f1U, 0xbe65ca60bcaf737aU, 0xbdbd54d73e1d6338U, 0xbd84c4dabdf66458U,
  0x3e03860bbe139dbfU, 0x3dc082ff3e0e9537U, 0x3bf56724bc06bec4U, 0x3dc4e6b9be02dbc9U,
  0xbda9c455be8058d9U, 0x3e1b51133dab8f01U, 0x3d6207363c7d3160U, 0xbdd8cc4b3e0d3f94U,
  0x3e30f7cd3bfc8715U, 0x3dba2492bdd80dd5U, 0x3dc0c2b6be037f22U, 0x3d4f4938bd62a33fU,
  0xbe5512c93c207d14U, 0xbd074eda3de0fab7U, 0x3d3ce80dbdbf3408U, 0x3dea7ca13db66cecU,
  0x3dacc8f2bdc5459bU, 0xbc480aca39d7d292U, 0x3de5ef803e36e22eU, 0x3de5cc193d350963U,
  0xbdb2c912be3571ebU, 0xbe39a3bfbe6394dfU, 0xbe153595be0284ddU, 0xbcc809163dd192d9U,
  0x3cc7ee56bd655203U, 0x3c9a1deabd969d68U, 0xbc945a923e268d75U, 0xbe4753813cbe024dU,
  0xbe10524ebe860365U, 0x3d9c825f3d100c35U, 0xbd429ae33db3cb9fU, 0xbd812d72bc40cdb7U,
  0xbcd31457bd153e1cU, 0x3e4038343d20aeeeU, 0x3d831e7bbe1b832eU, 0xbd878a113d025ad2U,
  0x3beb573cbde06ad2U, 0x3d9288a0be4564abU, 0x3d8cc489be8e5271U, 0xbe267cc53e08f494U,
  0x3e74b7723ea1e387U, 0xbd904ba7be838a88U, 0x3e701672be18219dU, 0xbd9675633e94787aU,
  0xbe9f74ef3d0d5016U, 0x3caac598be58a32bU, 0x3c1ce551be98b07cU, 0x3e03177e3e5ddcccU,
  0x3d6321ed3ea4fae1U, 0xbd4389493cf365d9U, 0xbdd8a6b03ce3580dU, 0xbc8827793e815940U,
  0xbd4a8728be2d4a3bU, 0x3c44d993bda82503U, 0x3de9f330be7dd2e2U, 0xbcb14073bba62ae3U,
  0x3e36b62b3eabdacdU, 0x3ea64b133d781e5fU, 0x3e0e94e4bd2a9510U, 0x3de1e9e2bd40d04aU,
  0x3be2f1bebe2d004cU, 0x3d5c36063d8f4c76U, 0x3d035686be63310bU, 0xbde2c9ac3d9b4833U,
  0x3c2ce960bdc71941U, 0x3e0f927abcd6262eU, 0x3ea63df93e4b0912U, 0xbe85f9a03dba3870U,
  0xbd508b25be737863U, 0xbcaf13f4bd041e4dU, 0x3e666c66be27c9c4U, 0xbdb9dc54bcd7e348U,
  0x3e19eb803da92994U, 0x3eb4bf93bd6674ceU, 0x3de18ced3c142cccU, 0xbde8bdd03eb1324aU,
  0xbe09930cbdbd7bb0U, 0xbc8a29f33ca913f6U, 0xbd8cab3bbe891ae3U, 0xbd5bf2b13e32c04eU,
  0xbd32cc633e4c5371U, 0xbe8b79683de3a408U, 0x3ebc2f52bdebc0f9U, 0xbe0afc133e00899dU,
  0xbd51f842be1de93aU, 0x3caa2c19bda9600dU, 0xbd68fa82bcec867cU, 0xbe06b99e3d5f72b8U,
  0xbe5fa047bd2b3645U, 0xbdf346a53e0986c1U, 0x3d86b945be0615b2U, 0xbdde6b7c3c34834bU,
  0x3b1e0bcabdf4bda3U, 0xbe848ef8bddc86c8U, 0xbc5ed1de3e6eabf0U, 0x3e2299d83d8a5895U,
  0xbd62b7e83de912b6U, 0x3e602f79bd13e287U, 0x3ddf89683db3ad37U, 0xbc2a79aa3c7943fcU,
  0xbcb47a4e3d93240eU, 0xbe6a134d3e37d175U, 0xbeb3060cbd4295c8U, 0x3d88bdd1be1b5c8bU,
  0xbe028f2fbdb78cf9U, 0x3e8d93603dcb0ab6U, 0x3ec42ccebd73e56aU, 0xbe0859b43ded530eU,
  0xbe917b183d650db3U, 0xbdf60049bbcce7c0U, 0x3991cd67bd929090U, 0xbe6925e8bd63c0c0U,
  0x3e47d791bdb512a1U, 0x3dcb452dbe44e081U, 0xbd9861dd3d3a9b86U, 0xbe3200873db3d2e9U,
  0xbe667598bdf178aaU, 0x3e16dd3c3da02943U, 0x3d9cb7583e047fd3U, 0xbe22f1d63e29dad0U,
  0x3e04ec83be2b31eaU, 0x3dff6bd1bd4025e2U, 0x3d8fd5c23dcd42feU, 0xbd514d963ddeca8bU,
  0xbe949de9be624d64U, 0xbd98dbf53e803870U, 0x3d5e925d3da8b540U, 0xbdebc0853ef84d33U,
  0x3d553985be1f5e30U, 0xbbd1e925be272cdcU, 0x3e9efba93dda0070U, 0x3d48a127be1338fdU,
  0x3d8ec4d4bd4d71c3U, 0x3d82169e3e13fc59U, 0x3e45c6cd3e34fa6eU, 0xbdd5da07be60517eU,
  0xbc2170b6bd9c2059U, 0xbd99113b3e534d08U, 0x3e3c3cbbbbeb7f63U, 0xbdd7ba3abdd2e679U,
  0xbc400b8f3e3bebeeU, 0x3d465514bd11613aU, 0xbdfeec4d3e3fbe1eU, 0xbe06c0273ec1cac1U,
  0x3eab5dc63df96d79U, 0x3dee318dbc13e2d8U, 0xbdddc3903e9fb613U, 0xbe9edfeebdb11363U,
  0x3d96ab77be654fafU, 0xbdb802d7bc241fdaU, 0x3d8164dabe4b85b7U, 0x3c5f0ac33e78ecc3U,
  0x3e8362a93d587987U, 0x3ebb4dacbcc1717aU, 0x3e0d078cbe24d8c1U, 0x3e8b4f483d365a5aU,
  0xbbaddf113c1a2855U, 0x3d89cfa9bc974350U, 0xbdceecb83d5cae8eU, 0xbe825743bd789bbfU,
  0x3e6a46bf3df39a4eU, 0xb7162160bde004f5U, 0x3d8125613d22e435U, 0xbe580804bd8a74f2U,
  0xbdd2cc14be0a8d8aU, 0x3e5a4747be6b9e46U, 0x3e46ff243b26d3a0U, 0x3e045ad6bdc21749U,
  0x3e800d443dd37f44U, 0x3d1e22603e0c59bcU, 0x3de69c89be1af0c1U, 0xbdf1600a3e8b1080U,
  0xbe5ba2653d9dbf87U, 0x3dbda5a53e38cd11U, 0xbdc73259bb332ac3U, 0x3dc267a0bd2d5e02U,
  0x3e549cf23ddfbe04U, 0x3ccb83b6bdbd364dU, 0x3e13bd6c3e1c4deeU, 0xbe740ecc3d58b9a6U,
  0xbe2b07bcbd1674e5U, 0xbe4305f73d8d241dU, 0xbe195addbdfd908bU, 0x3d46b787bc5cd43fU,
  0x3d767d443e41192fU, 0x3e07b48fbe1f1a20U, 0x3d2a6179be0e32e7U, 0xbe003c1e3d9f8d6dU,
  0x3d9510ddbe1c536fU, 0xbe5bbeb0be2c379dU, 0xbc3aabc13d423debU, 0x3d904f2abcb5104aU,
  0x3d6bb13abdc2ce06U, 0xbd98028c3df7325eU, 0xbdf0a4ba3e67dc36U, 0xbe8f21353d405e68U,
  0xbe46dfe4be261772U, 0xbe652b52bdd7a157U, 0xbde229f83e01d7f3U, 0x3cc43f89bc534bb2U,
  0x3e40a3d1bd4128daU, 0x3e2305443c783046U, 0xbe48615bbe7b9faeU, 0x3e7621363e2d8ff9U,
  0x3e99a4503e03995bU, 0xbdd0099f3b2dbc31U, 0x3dba6e09bd848570U, 0x3dcce891be478d6aU,
  0xbd37a4743a92b109U, 0xbd07c14bbe719ee0U, 0x3da63b3fbea94359U, 0xb9828ef73e6fda17U,
  0xbe5d03f43e4e6e2dU, 0xba143ff6be3e1f23U, 0xbe0d5dd13d6b98ffU, 0x3e3c99853e2d35cdU,
  0x3e9f83063e7d6fdcU, 0xbd7e4593bc7b617fU, 0xbe8b0a933e26e675U, 0x3da2c3a03dbd3c15U,
  0x3db9340bbd56b02eU, 0xbe0c1289bdbcc19dU, 0x39a2a966bd182e64U, 0x3e1d9569be1e6056U,
  0x3b4192dd3db8c845U, 0x3e847094bdb22985U, 0x3e63cfaabdfc43c2U, 0x3e9e4ebebdaede17U,
  0xbd234db8bdcbab91U, 0xbd219129bd8dfa6aU, 0xbc431e9ebd506f04U, 0x3c6f37a2be821011U,
  0x3ec9a1e33e5e0ff0U, 0x3e453eaabe280c51U, 0xbe79ee123d3825bbU, 0xbeeff7463e19da00U,
  0x3e2060b2be4708f6U, 0xbe39d9debd06a7aeU, 0x3e23c334be0a103dU, 0xbe81b85a3e96c84bU,
  0xbe83cdeabe8a65c5U, 0xbdfd1148be0ade90U, 0xbe8f1e4fbcbed4b8U, 0xbd9e664dbe8caec2U,
  0xbde4f111be8c1176U, 0xbeb7271dbdd39834U, 0xbe457662bd0a1d1cU, 0xbe5da778be6ac672U,
  0x3e87d5073f026b85U, 0x3e79e81f3e36c5a7U, 0x3f425a863db4c3a4U, 0x3ec1f3f93f08a589U,
  0xbd2d71e53d0a968bU, 0x3e85de9e3e1a9594U, 0x3e66ddcdbdd064e5U, 0xbdcfcb463de2fcd8U,
  0xbe66db2ebe29f0ebU, 0xbf4f6e33beeeda44U, 0xbcba1c13be85a5bfU, 0xbe35d95ebe601dcdU,
  0xbf891492beff4b46U, 0xbe8089e7befa1935U, 0xbf37ef7ebf7c11b5U, 0xbf800896bed86a3aU,
  0x3dc5ac02bddd6645U, 0x3e332d72be9339b0U, 0x3d8160ccbea6629eU, 0x3e6529bbbe2fba90U,
  0xbcfb5659bed01caaU, 0xbe4f54fbbea1c65bU, 0x3e399edabdd637d4U, 0xbe0893c6beb8197dU,
  0xbe5f27afbd9fe698U, 0x3e67fa9d3e81cd6cU, 0x3cf888eb3cf06165U, 0xbe09ded9be2b678aU,
  0xbdae34c3bef79e00U, 0xbe5bb9643e635ab6U, 0x3e5327efbe0c6024U, 0xbdd7400a3cd108aaU,
  0xbfd24c6abeb42480U, 0x3f2466a43ebe23f0U,
};
