/**
  ******************************************************************************
  * @file    network_data_params.c
  * @author  AST Embedded Analytics Research Platform
  * @date    2026-03-31T11:02:16+0200
  * @brief   AI Tool Automatic Code Generator for Embedded NN computing
  ******************************************************************************
  * Copyright (c) 2026 STMicroelectronics.
  * All rights reserved.
  *
  * This software is licensed under terms that can be found in the LICENSE file
  * in the root directory of this software component.
  * If no LICENSE file comes with this software, it is provided AS-IS.
  ******************************************************************************
  */

#include "network_data_params.h"


/**  Activations Section  ****************************************************/
ai_handle g_network_activations_table[1 + 2] = {
  AI_HANDLE_PTR(AI_MAGIC_MARKER),
  AI_HANDLE_PTR(NULL),
  AI_HANDLE_PTR(AI_MAGIC_MARKER),
};




/**  Weights Section  ********************************************************/
AI_ALIGNED(32)
const ai_u64 s_network_weights_array_u64[1376] = {
  0xc08f9fa9bc3aa99fU, 0xc02b2ceebc8f2036U, 0x4087e9c7bf3d7a4fU, 0x3ef81bb83d198b9bU,
  0xbf12ed13bd7f1b08U, 0x3e6bb2443c922248U, 0x40a775f8bf060592U, 0xc06d53c8bc9d7c7dU,
  0xc0a64219bc127d2eU, 0x408761dabe96e66dU, 0x3fd6de2abe6a513cU, 0x3e8737f5bddf7129U,
  0xc07f50cd3c93a1c3U, 0xc0b052bf3e0a5e27U, 0xc0839911be3ab739U, 0x3cf3b7ef3b4018a1U,
  0xbea5e2193db32250U, 0x4091d94abeb33973U, 0xc0ad98943b07a6f0U, 0x3f3b5329be334fa4U,
  0xbf2c5753bd965f35U, 0xc03edce3be96ef07U, 0xbf03e1943d91d74cU, 0xbff938d33d12e498U,
  0x4068f5fdc108737bU, 0xbff853003c593f3bU, 0xc01d8e503d22a628U, 0xbf06a76b3b9b399bU,
  0xc0241ce83ca2ec9dU, 0xc08f77b1bb418522U, 0x409f05e6bfc27eddU, 0x3f83f4ddbef6090bU,
  0x406956d2bea66e38U, 0xc0253df2bb9dd096U, 0xc109a8d0bcc88eaaU, 0x3fe48e93bd1e8ce7U,
  0xbf1bae5abcdc3b64U, 0x40d3f884bf2712d2U, 0xbea861c1bcb43173U, 0xc081634b3d03f721U,
  0xc0c332df3c1d5a44U, 0xc0a3ed2d3bab6921U, 0x402f2b7ebece8a2aU, 0x4020896ebdc615f5U,
  0x4038477dbe9bcc9cU, 0xbff3c1d5bcc48c56U, 0x40d0dd45bf09b56eU, 0xc05339bfbcdb952bU,
  0xc0d5ef97bd5a6a6eU, 0xc0f49387becd7c05U, 0xc0b5817ebcc3db68U, 0x3d532c3d3c4589ceU,
  0x40a96824c084a911U, 0x3f51fe253baef419U, 0xc01ff7fbbd67c099U, 0xc034633e3c96bca0U,
  0xc0219609bd0470ebU, 0x3f14af38bd379abdU, 0xbed07d6ebd757f23U, 0xbf83aae4bce8ab54U,
  0x4047e47bbe23c2f7U, 0xbfa27c8f3c237d9eU, 0x40b0cb63bdb1a333U, 0xbe8852c23cdc5bb1U,
  0xbf67e2b9b8547228U, 0xbff41630bedf2b58U, 0xbfc2fc5cbd0a2a0bU, 0x3fe1bcbabdd0e9c9U,
  0x3ff8d5293d104395U, 0xc043678ebcfb6c09U, 0xbed710b3bfcf3a5aU, 0xbe523ac4c0881709U,
  0x3f3b6767bf968130U, 0xbfba5cefc07c17c6U, 0xc06fd25a3f4b0398U, 0xbefc797c3e3cc0b8U,
  0xbff6c485bff81b85U, 0xbfb2e2ecc04eec75U, 0xbeea3045c06fe9a0U, 0xbebbf0e7c04c7395U,
  0xc0b3371d3f942d6eU, 0xbd4d227cbf000c16U, 0xbfaa18d0bf8206deU, 0xbc0381be3d89c7cdU,
  0xc08f14df3fce7c36U, 0x3ef36284bd6215c4U, 0xbf9b54e1bed2480fU, 0xbd2037d03c16a904U,
  0xbfad35553e1a8681U, 0xbffce943bf28ab9bU, 0xbe14234e3f3e4c62U, 0xbece4803beaf91ddU,
  0xc02e6d123f9c0f84U, 0xbedf2f463f10f59bU, 0x3e70d4e9be01bdbeU, 0x3ead56bc3d9fdb37U,
  0xbff2e5243f33f9cdU, 0x3e9291253f077159U, 0x3ed523acbefadd48U, 0x3ecc40803f23c9beU,
  0xbffd01453ea02a55U, 0xc007fac73e8fd0d0U, 0xbecbd17a3f335495U, 0x3ef950ccbe9964e3U,
  0xc08136d63f581421U, 0xbf74b6833e8ffa0bU, 0xbee9320a3cce8a91U, 0x3e8f6a373ee8befdU,
  0xbf0956f23e5dc3e4U, 0x3e257ee93d8040c0U, 0xbf0d2cb5bf4a5caaU, 0x3f39460dbe0ffb8cU,
  0x3fa6d159bf69d3a3U, 0x3f134265bef3e67cU, 0xc01458e0bfc5b47fU, 0xbf6cecc4bf83181cU,
  0xbf8381d3bf2cbad1U, 0x3ea2bd58bfa30e74U, 0xbfc6c5f3c00e57ecU, 0xbf4c5833c009fafeU,
  0xbf2d94f0be76bd9fU, 0xbf86916cbf56529dU, 0xc028f5e5c030c7fdU, 0xbfa92921bfc06445U,
  0xbf130641bf278968U, 0xc0326912bd85ffa8U, 0xbf866cd8c07881f6U, 0xbfa98635c00453f4U,
  0xbfd017eabc91e845U, 0xc01d925bbf40a445U, 0xbf1fa545c09f9f59U, 0xbfa42799bf66b62eU,
  0xbfbaa96ec07ac269U, 0xc013d12ebf0e0f0cU, 0xc026e9533fa672f1U, 0xbf9a4dc4bf8f2c9bU,
  0xbe4dab71be80e062U, 0xbf0956813f1d7a40U, 0xbeb9002dbd81eeb2U, 0x3dd9a09cbeb86540U,
  0xbf103834bddf0f3eU, 0xbecddfdc3f003adcU, 0x3fcd59b23f4f15b6U, 0x3e425877bd580176U,
  0xbfe43ad0be97bbd1U, 0xbf2614e63f346f09U, 0x3f9251973f3cad33U, 0xbda17517bcd0b01cU,
  0x3f86a670be57d85aU, 0x3f6e998e3e85df08U, 0xc002b10fc05471d2U, 0xbf92081a3e58fdc2U,
  0x3fa1533bc0253a23U, 0xbfbdab153d15261eU, 0xc009f49bc0079355U, 0xbf458128c03b2c7bU,
  0xc0160bafbf9f2806U, 0xbfd781e8bf81c0e7U, 0xbfd430403df9ad05U, 0x3ec81eeabf1ae248U,
  0xbff8c9eebf9b44daU, 0xbf1e15b53ede6178U, 0xbe3694d33ead2278U, 0xbf0a9ed8bf443923U,
  0xbfec22de3f2cfa31U, 0xc08688e5bf1e656dU, 0xbe6ac1be3d3c5f05U, 0x3efa9a3bbff8b976U,
  0xc0717b853e9ced90U, 0xbd5c0ec4bf09153cU, 0x3ece7659bf0c1187U, 0xbe2b9e3dbfe06fbaU,
  0xbfca95f53f0e0823U, 0x3e839d1d3f6f7dbaU, 0xbef25cfebe1b9720U, 0xbebb969b3ec82420U,
  0xbebed1603eb4a8fdU, 0xbe3b25f9bfaec998U, 0x3e999876be41a0f3U, 0xc001213c3f2cf68bU,
  0x3ec4b5d9bf9caea5U, 0x3f28e760bf0227c9U, 0xbf14778fbe528c0bU, 0xbca7cadc3f4d9b11U,
  0xbfbe1cb2bfa5caf3U, 0xbfc9d5d9bfbb1713U, 0xbfc1c9e1c02d7bb3U, 0xc062ac60bfe746ddU,
  0xbf4b8ae4bfe1e2bcU, 0xbfb3816cc02ee08dU, 0xbf679200c02ed736U, 0xbe29109fbe340bc5U,
  0xc02d2df13f5f6235U, 0xc00c848c3f41edb2U, 0x4032bf513f776de7U, 0xbd83fb4f3dbcb12bU,
  0xbef21dcabfcb83deU, 0xbe2357afbfc5e768U, 0xc00aab66bfdb5970U, 0xbe52cf47bf9054e9U,
  0xbfccbc013efdf399U, 0xbfd59705bf99314dU, 0xbf609c58bf8e0877U, 0xbdafc7683d038d07U,
  0xbfca5464be19715bU, 0xbfe82af93f4ce077U, 0x3fb18d003f7a3567U, 0x3ed66dfcbe895066U,
  0xbe086b38becb4b76U, 0x3e47974ebf1a1429U, 0xc03b36eebf87f14cU, 0xbeda79143db66555U,
  0xbf5a48e43e679decU, 0xbeb1c674beac59e1U, 0xbf824e52bf956d11U, 0x3cf474a5bee7b0c1U,
  0xbe1a46313ed5467aU, 0x3f4077f6bd60e572U, 0x3f57537e3e0f5bc4U, 0x3f06cd29bf083060U,
  0xbfad16023e7b9783U, 0xbfcd230ebf1f46aeU, 0xbf5fec53bf0ed33dU, 0xbe962a24bfba0af0U,
  0xbf70b1383f408620U, 0xbf5e022fbfc6b346U, 0xbf937ed1bfc98815U, 0xbfae1cfcc00e8f29U,
  0xbe5b7b013fa6391fU, 0xbff2611bbfef31baU, 0xbee573b7bf069ae1U, 0xbf7541d0bfbb26d9U,
  0xc006c4b7bfece4f4U, 0x3efcaaddbec10ba6U, 0xbeb75f033d9f18fbU, 0xbee5e5173f1150b2U,
  0x3f69d001c03867d6U, 0xbe5851e5bf229bb8U, 0xbee8ae04bfb53498U, 0xbf6ceb423f1b13a6U,
  0xbeabac83bf016b0eU, 0x3e153e12bf15f755U, 0xbf46d008bf4a7612U, 0xbea975553eb3998eU,
  0xc02fbaadbd96e792U, 0x3f82d9edbd92a5ebU, 0x3f541cabc05b759aU, 0xbf78c0d6c0423098U,
  0x3df2babcbed10308U, 0x3eb4bb1cbe2fa20dU, 0x3f9f59fbc081150dU, 0xbf951a9fc0126bf4U,
  0xbe6545183eec617fU, 0x3f1b359a3efaad67U, 0x3f9fffeec09cc78fU, 0xbf7266a7c05435d1U,
  0xbe21275f3f9407cfU, 0x3fbbfe1bbf533443U, 0xbdf3d7d7bf519b55U, 0xbf2ab7d9becd7c3fU,
  0xbf31aae53f443b73U, 0x3fcb027fbf5608a5U, 0xbfa0d5003eba8a99U, 0xbf4619633d92493aU,
  0xbe9b0f573f30e0f0U, 0x3faba526bf09b57fU, 0xbe8c6e85bf8269e5U, 0xbfa5dacebde3c6b1U,
  0x3e2d00e33eebdd43U, 0xbf68d4dd3f41f5bbU, 0x3f20d9653f29a8a6U, 0xbf8e27afbec25252U,
  0x3f4bf31b3f32aeacU, 0x3d92c6f13ea18171U, 0x3eed5d943f29a1d0U, 0xbfc3ca48be8d6142U,
  0x3e5369ae3ecc57d6U, 0xbeff734dbf294986U, 0x3f1318a33f244a15U, 0xbf6575a5bf08053dU,
  0x3e3703513f459975U, 0xbfcd2524bd56b6a9U, 0x3f6605ff3fd99a80U, 0xbf240aa33f84e4beU,
  0x3e1fd1863ef9e2f9U, 0xbf847959be862625U, 0xbb1855d13f3f0a0aU, 0xbf86baf63f329936U,
  0x3ecb193dbf694fb4U, 0x3afe3f28bf8f8d1eU, 0x3f0a90ba3fd86aa4U, 0xbf4069d13fa330dfU,
  0x3f13695e3f07699dU, 0x3e5f47fe3d27541dU, 0xbf29bb84bf0a5eccU, 0x3d836b79be2b413bU,
  0x3f2e33d33ecb2bceU, 0x3f16638cbe24bf4bU, 0x3e7218fcbedc0b24U, 0xbba9fc2abdbd4a37U,
  0x3f821dba3f2e9bb5U, 0x3f232739be8de1aeU, 0xbf124ebfbf1f172cU, 0xbe384d033d2a86feU,
  0xbbf3108f3e09d757U, 0x3e8348f8bd7cd99dU, 0x3eeef4eabe37c9adU, 0xbd80d74dbe8ff99bU,
  0xbd66540a3e297219U, 0xbd742c863f33ab64U, 0x3f056a1f3cca1e10U, 0xbede3f193d36085aU,
  0x3e525a933e255147U, 0x3f2f2317bc580be8U, 0xbcee918ebc9a6c92U, 0xbea746883eaba666U,
  0xbef9fb7cbf4a296cU, 0xbf0debbac05672a6U, 0xbebb4ac5c0d09a9aU, 0xc07dd81ec0c36d52U,
  0xbed21021bf394288U, 0xbeda64a1bfdf8718U, 0xbf92f1a9c0cf0c27U, 0xc023612ec0ee47d7U,
  0xbef3fb78bf2f23b8U, 0xbe693f49bfb47d26U, 0xbec81ef6c0efc68dU, 0xc0b27fa0c1082af7U,
  0xbed588e4c0099eccU, 0xbed12804c004e5cdU, 0xbfd6f1ccbfbf1e9cU, 0xbf499ad3bf7c54ecU,
  0xbed07e0abfa53a89U, 0xbf21cb42bf67b1e9U, 0xbf981783bffe264cU, 0xbf73c0d3bfd2a02fU,
  0xbf4ebe75bf934a2bU, 0xc00665b7bf3c933eU, 0xc0271c1bbfef704eU, 0xbfdc9ad8c013d5e2U,
  0xbfbdbe2ebfbb2487U, 0xc00149a9bf81151fU, 0xc0dd5040bec04eedU, 0xc0cca956bf7313cfU,
  0xc04eae06c073ff4bU, 0xc03f35fcbe090b51U, 0xbfade5a3c06dc642U, 0xc091e1b1bf39d377U,
  0xc025a114c08df03eU, 0xbfaf20e2bd3a35baU, 0xc0a20795bedc7a19U, 0xc0d30647be9f9686U,
  0xbe07ffb4be3cf241U, 0x3e7945c6bdf8c02aU, 0x3e92a579bf416981U, 0x3f0b852c3f555483U,
  0xbf9340e13e0a50beU, 0x3d83d9ae3e1cdf71U, 0xbe0f208ebed9ce63U, 0x3dcd61213eec297eU,
  0xbeaacd623d95798cU, 0x3e92ab203e6b9b57U, 0xbdf3f60dbc2b201aU, 0x3ef235703f606702U,
  0xbda81fa73fc30a14U, 0x3f21c890be873d52U, 0xc0696739bf04179fU, 0xbf0708103eb490ccU,
  0x3f1f3b0f3ed5f9ccU, 0x3f3a0a26bef888cfU, 0xc09e3121c00564f0U, 0xbf0c0859be0e3d06U,
  0x3f57845abee7f804U, 0x3f6e6227bf0def23U, 0xbff68d68bf9ff897U, 0x3e1346c03e85c0c3U,
  0xbc133c543f43a57bU, 0x3f08691dbda1b4f7U, 0xc046fb2d3f478565U, 0xbeedce2a3e751686U,
  0x3f3819d73e80fa1cU, 0x3f2ac2683bfe284eU, 0xc053d8d13ef6f386U, 0xbe851297bd52f14fU,
  0x3f080c913df301e9U, 0x3ea326b4be58b726U, 0xc0677b4fbe685d28U, 0x3eb9b31ebd80d1edU,
  0x3e9cb2cb3ecae5ceU, 0x3f8d33c2be78e5a6U, 0xc06b2cb2400707bcU, 0xbf6729ee3cd55e12U,
  0xba6f17403dab65d6U, 0x3f5f3b5bbd56a67fU, 0xc04850203fb1a58bU, 0xbf541326bd9ebb4cU,
  0xbd0a6fae3ecce487U, 0x3f2563c1bc0f7a8bU, 0xc05c43923f91af1aU, 0xbed05eef3dd81f77U,
  0xbfc955ccbfa55c49U, 0xc00f949bbe2f69a5U, 0x3f920951c0008f04U, 0xbfe2c109bfbfc660U,
  0xbd75f205bf008948U, 0xc015bd4abf57f568U, 0xbf84ac43bfb6f28dU, 0xbe88f932c00fc200U,
  0xbf0fb7d2bff3364aU, 0xc01a25d3c04109b2U, 0x3fc04393bf5e6958U, 0x3e90d39bc014f785U,
  0x3f051fa2c1032e1dU, 0xbfacac8fbf850a76U, 0xbfb10cb7c0a3a892U, 0xc0fffe5abf0b7651U,
  0xc0a562a7be2ce905U, 0xbf96f3bec01b3266U, 0xc0cfc3efc0d401f3U, 0xc0f8fd443ce7815cU,
  0xbfc1726bc0ad9533U, 0xbfc6830bbf93e05aU, 0x3e52fc04c0eb5ed4U, 0xc0e5c302bf3a63f5U,
  0x3f38800b3e412183U, 0xba49a9babec2ff27U, 0xbeca222a3ee4013aU, 0xbf45cdbabdced967U,
  0x3f1b22673e8e49c3U, 0x3e4109cf3f52e129U, 0xbe9207dd3ef7436dU, 0xbf2d84da3f266bbdU,
  0x3e8d9f1c3dc4508eU, 0x3e6183183f0addb3U, 0xbf00f2353ea51dd6U, 0xbfbceddf3d99ee75U,
  0xbf3968f4bfe44751U, 0xbfa150fabca0a194U, 0x3eb2c658bf8e60feU, 0xc009e3bebfb2268dU,
  0xbfbba0d5c0258cbbU, 0xc0106c1bc0245d95U, 0xbfbf6340c02581d5U, 0xc01ebdecc00a4dddU,
  0xbfdef0383df017b7U, 0xbf568cc9bf746f10U, 0xbf2e84613fd4fbd8U, 0xbfa1665abf8d5bccU,
  0x3f916c7cc060f3e5U, 0xbf6ed377befdf4f6U, 0x3df3d9143f30948aU, 0xbfbafe7abf7aa93fU,
  0xbf81d879c044593eU, 0xbbfa5ee0bf124cccU, 0x3fad2c29bf556216U, 0xbf6d05c9bfc1f5acU,
  0x3b7d18873dfdc2ddU, 0xbfab06c8bfc2cff6U, 0x3ce181c5bfead303U, 0x3f1c035fbfffe9ffU,
  0xbf1e4056be919575U, 0x39c525fd3f1084dfU, 0x3fb2751d3f39946dU, 0x3ec3c917bcd00885U,
  0xbff89683bee19b7eU, 0xbe9212393e7d2493U, 0xbf4c5110bee7d1adU, 0xbfedf2ce3ecb6a44U,
  0xc03eb01ebf132afeU, 0xc004cb16bd989d54U, 0xbf0ccd7abe93eb12U, 0x3f587ed6bf6c2b12U,
  0xc021b20d3fd518dcU, 0x3ea93127bd591bfbU, 0xbfb622c83e328280U, 0x3f687ba2be4008c9U,
  0x3e8f426c3dff2e33U, 0x3f2c29683e91a534U, 0x3f3b8c63be460cbeU, 0x3ec38414be83aaf7U,
  0x3fc099dec09f9063U, 0x3f234dacbeb62f40U, 0xbf92f5adbee2a1ddU, 0xbd80f7e3bf179f6eU,
  0xbf925ed73f44de7aU, 0xc0033c9d3e689447U, 0x3e6d85423f3bb5d1U, 0xbcce6338bffc6a6dU,
  0x3eecb933be7bd590U, 0x3dc0906fbf301b0eU, 0x3ea24466bf66ee85U, 0x3e71acb5c039bf02U,
  0x3f8c1de3c07325b3U, 0x3f0db613bf9fe3caU, 0x3f8989a0be97b634U, 0x3ee373733e81bbe8U,
  0xbf5b17d33efe5fb0U, 0xbef84ad9be21600eU, 0x3f10bf393e625fa9U, 0xbf32f697bf2f3394U,
  0xbebe0440bf557613U, 0xc0585e5bbfbdada5U, 0xc04dc6c0c0053a63U, 0xbefd078dc0020c94U,
  0x3e6848eebfe47412U, 0x3f1642bbc0835457U, 0x3efe50aa3e8183e8U, 0x3ee1aa15bf5d0986U,
  0xbdd4d405c05fece1U, 0x3f2cf3f43e5f111cU, 0xbea30339bfac3e79U, 0x3dd24cd33f0c8ce0U,
  0xbec2c152c08a7eecU, 0x3e7b58773ee38993U, 0xbf1ddfd0bf16b6c3U, 0xbef50ebaba3a8528U,
  0xbf8a9be5bfe57484U, 0x3cec2b163e563b48U, 0xc027605cbe9501b6U, 0xbf6bf93d3e98da5aU,
  0x3f947515c09f5c79U, 0x3f593faabf8773d8U, 0xbebe0f1cbeb69968U, 0xbe9612f23e832424U,
  0x3f7990c2c0760f06U, 0x3f3464263cde3734U, 0x3ec8e081bd6d3926U, 0x3e3e1f233e3c9ed7U,
  0xbe666643c0493e55U, 0xbdbf72e53efbad6fU, 0xbe9521753de54332U, 0xbae70dadbc0fc5a5U,
  0x3f097541c0ac475cU, 0x3eaffc89c0d8c613U, 0xbfae62e4c0a320acU, 0xbe7c686cc093d707U,
  0x3f258045c04fa3eaU, 0x3f50356ebf78a4beU, 0xbe9b9b2bbea6356eU, 0x3e6a8dd13f534fe1U,
  0x3f55428fc09612aaU, 0x3f194d33bef978e0U, 0x3db0131f3f42df42U, 0x3eae887cbd82977eU,
  0xc0298f4dbfbf02a3U, 0xbeef00263d27200eU, 0x3f0573e6be93f702U, 0x3e2aaf1a3d664f49U,
  0xbf7a8d85c01ea3acU, 0x3e92b2893eed31aeU, 0x3f07af37bf038f78U, 0xbea528543e647ec7U,
  0xc00f2677c00bf79eU, 0xc0065307be62c60aU, 0xc0487a69bfc1222fU, 0xc0082200beb63364U,
  0x3e5e7220bedbc47cU, 0x3efe4566be10d4bfU, 0x3ec564fabf6b267bU, 0x3df501dd3e862da4U,
  0xbe3aafecbe24ac7aU, 0x3e42a3fdbeb5b2e2U, 0x3ed6f36abee8ae0eU, 0xbe8cadc83f1d2a10U,
  0x3e4109c6bf5e18b5U, 0x3e839550bee55f8dU, 0xc01a395f3e211fb5U, 0xbfaa2ae2be70bf4cU,
  0x3f9cc483bf007656U, 0x3f18d038bf253393U, 0x3f2ce3d6c102aa5eU, 0xbedcd0dac08ecb87U,
  0xbf85409b3eb21a03U, 0xbe1ff05b3fc351f3U, 0x3f33719bc0d28d9aU, 0xc01e94acbfe80fecU,
  0x3ebde2afbef446deU, 0x3f8dd12ebfe8dab4U, 0xbf2a10b1c0bd949aU, 0x3e5d8c473f61e2c2U,
  0xbe06217e3f3ce7edU, 0xc02999fd3f3b6e96U, 0x3e3b22a53d42c185U, 0x3f61efd0bedb7fbcU,
  0xbfb6acb03f8272eeU, 0xc050ea4a3ec207e5U, 0x3ea756a6be9f7db1U, 0xbf3dd1c3bf01ebf4U,
  0xbf0f8125bf8d041eU, 0xbff546b5be8ec088U, 0xbfcb27afc015b9fbU, 0xbfb4b0ffc026573eU,
  0xbcb50e9f3ebe185aU, 0x3f602a2e3f3aef7bU, 0xbf705c913e2a49aaU, 0x3f375e5abf0ec01dU,
  0xbeaf135fbf09a4caU, 0x3fc22b4bbe604dbcU, 0xbca9e5593efbb597U, 0xbee3d4cabf4cd3e0U,
  0x3f8f4b26c0091818U, 0x3e0b3766bf9aaa82U, 0xbfd58e0cc0670810U, 0xc00734f6bf912154U,
  0x3cde32acbeab0962U, 0x3cdebd47bfb00de4U, 0xbdc72c5fbe893763U, 0xc020602cbfd97840U,
  0x3ea3db79c081d157U, 0x3f3e584dc06e2d9bU, 0xc0487e8abfa00ccfU, 0xc0010ba6be089ba5U,
  0xbd932149bfe1fc27U, 0xbd13aaedbf43c5ccU, 0xbfb1150cc04f84a2U, 0x3fb03c9d3e3bc03eU,
  0xc0b97322beeac263U, 0xbf999e9f3f395605U, 0x40325e9b3f09f071U, 0xbcac19d63d8c147eU,
  0xc021096cbf875655U, 0xc0b476b23ddf1836U, 0x3fcec70cbf364795U, 0xc098724e3e19bb2cU,
  0xbfa9890abf380bfbU, 0xc00bd2ddbd81ad7cU, 0xbfe4d1dbc04843a9U, 0xbf906707bf929a20U,
  0xc06ebfd0bf78b6c8U, 0xbf1d64453f4ae3e0U, 0x3fc4eb68bf05457dU, 0x3f1ec2673e64b766U,
  0xc06f1b8fbfb599a2U, 0xbfb0ebf53dd7fb5dU, 0x3f438907bec4e83aU, 0xbf85df153ecab350U,
  0xc02f7380bcf1620bU, 0xbf218f6f3dbaaac0U, 0xbfe94eb7bff1e132U, 0xbe4c8128bed49a57U,
  0xbed7219f3d33b23cU, 0x3f6854e6be4d1389U, 0xbf5f94febf565bc2U, 0x3f6d52a4bf89c3f3U,
  0x3ee7673cbfd6be1aU, 0x3e8f2f9a3d3bdfe3U, 0xbf4f3057bf0dabd0U, 0xbe9ca7d0be84eaf2U,
  0x3db8219abe1ebddfU, 0x3f1cadebbe06e911U, 0xbf8e3c133dbf7167U, 0xbe7510debe2981c9U,
  0xc0484a81befbf724U, 0xc058c12bbbb7549fU, 0xc047be8e3ee935b7U, 0xc04ce56abf6e39edU,
  0x3b734d563eadb655U, 0xbfc6baef3e4e3cd7U, 0xbfc5d596c068bac7U, 0xc026c680bfc7c994U,
  0x3fad21653f83122cU, 0x3f391130bf1916f1U, 0xc00e05a7c060be75U, 0xbfbf846bc082aa9fU,
  0xc0c5e5bc3e015d26U, 0xc01f73e63e509388U, 0x3fb01e8a3f84aebdU, 0x3dd063c2bee25d2eU,
  0xc0d02293bfceb2c1U, 0xc06b1edfbd080c30U, 0x3f34f4853f4342e9U, 0x3ebebf94bebd7afeU,
  0xbf31469abfc91b14U, 0xc03b72513e135645U, 0x3f830a533f3d04afU, 0xc0a7bae9bf34b4e7U,
  0x3d0d7d653f4e05d3U, 0x3e6ac32fbf0e4576U, 0x3e6719d7bdb9d495U, 0xbe6a6d08be5ab7b4U,
  0x3eed93ed3ce8c4d0U, 0x3f000fca3f28dabbU, 0x3f0a713b3efd3329U, 0x3ed2b1c43e13b041U,
  0x3ece321dbbad8be0U, 0x3da2edb03e3a5d28U, 0x3d39d7f23e489b1bU, 0xbe98ede43f4cf956U,
  0xc047de6cbecea034U, 0x3ec939a63eef4523U, 0xbfb56df0bf5c8e41U, 0x3ebd884a3f258a4bU,
  0xc0441b0cbe4b4c96U, 0x3f4113cb3e9740ceU, 0xc02f1a85bf609c26U, 0x3d8acff63f10d25dU,
  0xc022b6f4bf525a5aU, 0x3f7a4b233edc56ccU, 0xbf75635dbf53d4dcU, 0x3eaa4e0e3f37d0f1U,
  0x3dc67b353ef05149U, 0x3f9556c0bdbc02c8U, 0xbe3efd5dbe8d6a72U, 0x3e8f428bbf0055f2U,
  0x3dc9e4d53e793485U, 0x3f6fdf00be04c169U, 0xbe87ef093dd8eb93U, 0x3eaaea9ebf667ad9U,
  0xbd040b5f3f2f0c74U, 0x3f8627c7bedba364U, 0x3d19e704be9f6280U, 0x3eb58874bf628de5U,
  0x3cf15fbcbe048076U, 0xbf1519d3be47ff3eU, 0x3f4fc5213d883e63U, 0xbe5fa644bfff4ba4U,
  0x3d888452bd13708eU, 0xbea8a4863e3ca755U, 0x3fa877bcbe27982bU, 0xbdd831e9c01cf559U,
  0xbe8bd3183e7f28e2U, 0xbefbd2fa3daece54U, 0x3f42b49ebf131f48U, 0xbf1a2264bfeb3ecaU,
  0x3e830aee3ea40848U, 0x3f562bba3e8e523eU, 0x3f742b6b3de20dd8U, 0x3e8d0021bf1051b8U,
  0x3d7bfaf13ea41584U, 0x3f30bc023d9be752U, 0x3f7e96c3bf70eb36U, 0x3d1c3af3bea3c0e4U,
  0x3ed14ce23e3ecd62U, 0x3ca4cade3dd8fb21U, 0x3fad0943be9a0538U, 0x3f216844bf77e91cU,
  0x3e933f1abd817e08U, 0xbf240f2e3ce8c344U, 0x3f57bd21c05d115aU, 0xbeffc0e7bf64c090U,
  0x3f46d2a03f066103U, 0x3c27d2a1bf333968U, 0x3f609273bf745249U, 0xbf9eb683be3e2805U,
  0xbd058eb7be26753cU, 0xbff5ace93e47fbbaU, 0x3f9ca14cc06a9367U, 0xbfa9ba37c07c323bU,
  0xbfb6a1b1c063cf0fU, 0xbfa8c6dfc0791d89U, 0xc0a99b77c02d978cU, 0xc042eb5dc0080c0bU,
  0xbf8fcffdbfb0edbeU, 0xc02c2afec0791805U, 0xc004d4bebfc9f0b6U, 0xc07d2f13bfe0c90fU,
  0xc0041dd8bf34bdc6U, 0xbf3f2a4fc02785b1U, 0xc0878a1dbfdc2dfaU, 0xc02c6adbc024c888U,
  0xbf9186d83f2c21daU, 0x3f90aa333f3cec81U, 0xbf95c96fbf8f4d46U, 0xbf25f801bd49f386U,
  0xbff34522bf3cc30eU, 0x3f48fbc1bf81d688U, 0x3f182d54c08319acU, 0xbe3d212cbf845f39U,
  0x3f80e3d83fc50bd6U, 0xbe6ca1fc3f2cdc3bU, 0xbf128acdbfb877f7U, 0x3f730120bfd2f702U,
  0xbf546e39bf45e405U, 0x3d67ccbf3f79df83U, 0xbfc0cc7dbfe7df2bU, 0xbfa547a4bf4f117fU,
  0xbf1f8d3dbfc8ce55U, 0xbfec5679beda35e2U, 0xbef6ad09bfe3380dU, 0xc0097875bfb94ca3U,
  0x3e363a2dbfaa3a24U, 0xbe2ee61ebf0fa6cfU, 0xbf93e545bfea480bU, 0x3bc47e66bfffd13aU,
  0x3f6b7379bf890519U, 0xbf33c16abffce835U, 0xbd6ac31ec02f73e1U, 0xbfcf2b3dc0637631U,
  0xbfecb602be99724eU, 0xbfb4cd88c047bf21U, 0xc042d830bfd6f0ceU, 0xbf47f21ac0066770U,
  0xbf26cad5bfe74919U, 0xbf8c9a39c007131dU, 0xbf4bc8febf993d62U, 0x3ec463153e1a3640U,
  0xc0a968d9c02b1ee4U, 0xbffd2c9ebf4b4ed4U, 0xc0924d0cc04d6afcU, 0xc05b30fbbe9852acU,
  0xc055abd8c01ddf69U, 0xbfcb1a4ebd2290f8U, 0xc0666874c059bdc1U, 0xc087a060bde06c95U,
  0xc03a6c6abfb56e95U, 0xbf22dd24be1a5110U, 0xbfe47c67c0639929U, 0xc05806393c8de507U,
  0xbfc19e3dbe9621a7U, 0x3f157a383ec5b566U, 0xbf801d23bf6613f5U, 0x3e7658343f541db8U,
  0xbfa40625bf081c87U, 0x3f65f6dc3e22708bU, 0xbf3accd2bf3c43a0U, 0x3e3e76003f53f838U,
  0xbfb1d1b5bc8c1adbU, 0x3f6204aa3eff54b1U, 0xbf84fa70beda129aU, 0x3e19ea1c3f13e988U,
  0xbc9cc19a3ed3f528U, 0x3ec6e11cbbc67b3eU, 0xbeca7535bf09f41aU, 0xbc0aadf6bea4b1acU,
  0x3da428b03d25e69fU, 0x3f16c3febec1cf66U, 0xbe054b4dbefa0140U, 0x3d21d40ebf52edb3U,
  0xbd0a013cbb15ea97U, 0x3f1f22b9be3f72dfU, 0x3d8a7e3bbf0e4113U, 0xbe8e39d4bef683a5U,
  0xc08e3d58c0bd5538U, 0xbf4802bebfeb04b2U, 0xbff3cf5bc10f0b3eU, 0xc0703dacbea2c36aU,
  0xc0219997c0043550U, 0xbf383348c01c032eU, 0xc08ed35cc116579fU, 0xc05478bdbf143d1eU,
  0xc01df719c09c7e90U, 0xbf7a1ba2bf3df64fU, 0xbf0a2d37c0d2f529U, 0xc073fb39bebd6aecU,
  0x3f4efb283f62c0c1U, 0x3f6b85953f3fdf1eU, 0x3ea034f5bfc02de7U, 0xbf4362e23e3833c3U,
  0x3f5038d83f8abf4fU, 0x3f6854af3ec9d30cU, 0x3eeb32f8bef27aa7U, 0xbf2e81f5be4bf2eaU,
  0x3f3dcfa33f875c53U, 0x3f2a6af43ea4c1fbU, 0x3e6826bfbfa038fdU, 0xbd3d9e603ddc6b2fU,
  0x3ed895143d0f7479U, 0x3ecaea6bbe0087f4U, 0x3ee937ee3ed05d65U, 0x3dda248ebf6e63b9U,
  0x3e80a2303ebbdcfbU, 0xbe1df8f83f7525b7U, 0x3f7979803d4f517bU, 0x3e01df92be8012eeU,
  0x3d61b0653f3b10ddU, 0x3eacee923f4c89faU, 0x3d85f09f3f535c8cU, 0x3d338c0c3e3543bdU,
  0xbfc177893f403a05U, 0x3e5122dabf1a0492U, 0x3f8300543f0408bbU, 0x3eb7010fc04eb702U,
  0x3f3e5dec3f4369ddU, 0x3f8e64f73f94c1a3U, 0x3fc4b76bc04691b5U, 0x3cc3b978c01c184dU,
  0xbce65a4c3f145213U, 0x3d72ce02bfb13e9cU, 0xbfb8c9cdc00e6a9dU, 0x3f91ab51bf086086U,
  0x3e9835a4bfc9ea8aU, 0xbf57aab6c0227091U, 0x3e2ee724bf23cb0dU, 0xbfc07a8ebfbd3cddU,
  0xc0112f67bfd55fa3U, 0xbfcd4ad2bfbb9229U, 0x3f191a87bf5d4804U, 0xbfb705f5bf9f5433U,
  0xbc9d3760be5a85f4U, 0xc00ea9173ea7ee59U, 0x3ee172b9c0393e37U, 0xbde5431dbf8d0eb6U,
  0xbf87844bbe278335U, 0xbf327602bf128f98U, 0xc00e4668bf19c41fU, 0xbf990d51c004f2f3U,
  0xbf959baa3edcfd74U, 0x3eb3d7993e02ef19U, 0xbe4758e13edafbd2U, 0xbdd56d143ef105abU,
  0xbfd1d348bedff6ccU, 0xbf96c56f3e2c5c4dU, 0xbdeefc163e1a881cU, 0xbfcf759f3fe2884bU,
  0xc03bf2373d71e085U, 0xbfab2a3bbfdef6c1U, 0x3f57a1a8bea5196aU, 0x3e8d8028bec0bdb9U,
  0xbfd6ce79becf56e0U, 0xbf42e6ca3e82cc90U, 0x3fae8220bfc01928U, 0x3eacc290bd7c1e7aU,
  0xbfd12164bf84f0b3U, 0xbf12645e3ed4286bU, 0x3dbab70dbee4873aU, 0x3ee950f8be1e3807U,
  0x3e3a7d663f5901beU, 0xbda3725cc0071fa8U, 0xbfbb64ebbf633853U, 0xbeb414fc3dd64bcdU,
  0x3f3f02323f3df232U, 0x3d9634fcbe9436d2U, 0x3f307cd9bfbf6605U, 0x3ebad518bf012549U,
  0xbc4ccbfa3f7b5651U, 0xbd8e64263e355fb6U, 0x3f12be16bf5770bfU, 0x3f2355d6be951e58U,
  0x3e74d8c43e56bd4eU, 0xbe2bbeadbf38b830U, 0xbf596057c02eda4fU, 0xbfb36a42befceba4U,
  0x3f10175bbd834f85U, 0xbe3f4f57bc6afe02U, 0x3f0c3882c0752797U, 0xbf3f6353c03bbf03U,
  0x3e6438893d9d496dU, 0xbef4bc8b3fbaf777U, 0xbdd605ecbfe0cb7aU, 0xbf4ed2a3bfb8bba9U,
  0x3e84d01bbf7f405eU, 0x3ec139f9bf4ccde4U, 0xbf40b521be7c953cU, 0xbdc570c23f173d78U,
  0xbd2b42ff3f442bfcU, 0x3ed3cbd33f0429ddU, 0x3f9e1efc3f1c0cd3U, 0x3c1ef02a3f583b27U,
  0xbecc5cc63f8bdcdcU, 0xbf141f2e3ea5341aU, 0x3fc5380bbdb88963U, 0xbf3066de3ee2a4e6U,
  0xbf98e4423f04903fU, 0xbd5080afbfa2eaffU, 0xbf0271013f2e17f1U, 0x3f0e477f3d422058U,
  0xbec09df63df7e7bfU, 0x3ee0cada3e94c104U, 0x3e5e045fbe303990U, 0x3ec586b93ef2647cU,
  0xbf4e9e37bf146d9bU, 0xbf161a793eb3ae3fU, 0x3d8094b53ee35c0dU, 0xbe040594bedfb764U,
  0xbfcd8cac3f65d75bU, 0xbf3fe76c3e4dab39U, 0xbe8ce3103ec76d64U, 0x3d03e00138a7abb6U,
  0xbefe75663eb5b07aU, 0x3ef787e4bf827a42U, 0xc09576dabfc2f6f1U, 0x3e5e42d6bf5b4ea3U,
  0x3d17e354c01b71baU, 0x3e5be978bf909da7U, 0xbf727af0bedc1431U, 0x3d7195d13d9d36f4U,
  0x3f2ce7e43f288289U, 0x3f9b438e3f0fb028U, 0xbe1f64ddbf7af009U, 0xbe0e86bb3e04b5abU,
  0x3e610ddc3f85065bU, 0x3f55ff703e5bbc90U, 0xbe867ca5beebd8f1U, 0xbea728723e560616U,
  0xbb5bc0ed3f9dad4aU, 0x3f5e35873e3aee72U, 0xbe7a51dfbf78eec6U, 0xbd71750b3e063cc1U,
  0x3e81b8a23f260f6aU, 0x3fc5e0ce3e0b2c3eU, 0x3dba1be9be9c8a16U, 0x3e390490be0564c5U,
  0x3f2802583f13133eU, 0x3f4b2b353e0c3985U, 0x3f012a56beb7f836U, 0x3d2bcc623d0c5816U,
  0x3f2c65f93f81769eU, 0x3f9bb3533e1a22aeU, 0xbeecf39bbe3570b2U, 0x3ed7994dbda8b153U,
  0x3e58c8573f3d31dfU, 0x3f1780c13f3ae9a9U, 0x3ec50c953eaa826cU, 0x3d9e4cbb3f0f8982U,
  0x3ec77da73f011584U, 0x3f0717953e2500a8U, 0x3e88ceafbf13cf92U, 0xbd0e83943ed53ab3U,
  0x3f0a9a723df8f018U, 0x3f6a3486bd89ebbbU, 0x3eefb5713edcb7ffU, 0x3f5aa1703f5a02e5U,
  0xbf797624c0523879U, 0xc04ce706c087a6a5U, 0xbf8062f8c0308a43U, 0x3eb526aebf8bd17bU,
  0xc0af9525c0a10894U, 0xc05c2faa3f4da280U, 0x4017fdb13fc2c45fU, 0x3f0cf8b6bf38d4bcU,
  0xbf9ff79bbfaed953U, 0xc005682e3e901dd3U, 0xbe91e8dcbee4b410U, 0xc0e21569bdb64686U,
  0x3e72ecedbe49039cU, 0xbfbb8c93c048a177U, 0xbd967a03c039c61bU, 0xbebe692dbf2eb495U,
  0xbe79c442bee0d2d7U, 0xbf5db4533f8175f1U, 0x400ff2223fa3ee6aU, 0x3e8853f3be9da983U,
  0xbff1f501bfe17d59U, 0xbf8fcdd3bc10aa80U, 0x3f560646bf71582aU, 0xbca5ab3e3d9f3f13U,
  0xbe3371bebc1fb3caU, 0xbfd302df3caa1042U, 0xbed23e1abf7076acU, 0x3da96a323ea98814U,
  0xbcf70fb63e57f895U, 0x3d90246e3f5f912eU, 0x3fc923cdbecc204aU, 0x3ed25ac3be5634a9U,
  0xbe6eb6aabc5299fdU, 0x3e835f0f3ecd447fU, 0xbf8fc6bcbf212185U, 0xbfc0f8d73dc7c700U,
  0x3f3f41643faa0248U, 0x3ece31513bf83b84U, 0xbf8563a7bd1cd594U, 0x3e1c652cbe35e1ccU,
  0x3fd411fa3f3e68abU, 0x3f5f41e2be5edc24U, 0x3f20cbdcbe3dbd5aU, 0x3ca4107abef8eb10U,
  0x3fabf9863f21c944U, 0x3f9458ec3e5a342fU, 0xbdc55b873db9723dU, 0x3df69b883d2795f5U,
  0x3efc84503ec60c82U, 0x3f1c88e33f0043e4U, 0x3f505c55bfcba8a5U, 0xbe7a5ccabe593010U,
  0x3e42aaddbb66ac6fU, 0x3d9986c53f8b040eU, 0x3fe8dc23be0bd840U, 0x3dfc8309bfe70744U,
  0x3e9dcc733ec07746U, 0x3f31f4f43f96f46cU, 0x3f9f27dabf2682a8U, 0xbe7e8091bfce11faU,
  0xbea2548fbf558184U, 0xbfcd3dd5bf4dbbcfU, 0x3e79f2aabe7da7c4U, 0x3c8dde00bf8c59eeU,
  0xbd83b42cbecdd2a3U, 0xbfe916c63ebc5d10U, 0x3fb8b86abe93b3c7U, 0x3e870cddc0251d6aU,
  0xbf7b6748beed434bU, 0xbff74f8a3f4c138bU, 0x3f89b81abf0eac61U, 0x3f6a67a1bddb3d1dU,
  0x3e088522c023dd3bU, 0xc09db409bf4b7dd8U, 0x3fd48c17be8778f3U, 0x3dc4745bc068888dU,
  0x3dc4fd22bef0ca09U, 0x3f20297dbe5b9617U, 0x3f17b593be6052a2U, 0x3f2f4832be175204U,
  0x3f37ae5b3f520262U, 0x3ea7beb63f7e33ebU, 0xbf13ab73bcf31b2eU, 0x3f251d493f041fa6U,
  0xc00ea1153c33520cU, 0xbfe662953f949de8U, 0x3f072d56bfc39c6cU, 0xbe8b3cbe3e4a8818U,
  0xbe8f579a3f1789ffU, 0xbe714139beb0d82aU, 0xbf3fc3d1bd979431U, 0x3e7e1cb0bfb1dbe1U,
  0xbd8ddf7a3cda22b0U, 0x3f25c387bfa683e8U, 0xbf0026d4becf445cU, 0x3f2899ffbfb69865U,
  0xc01ce213bee49261U, 0xbe6bc7b83e9cdc73U, 0xbf2f7557c01a7422U, 0xc018619cbe306139U,
  0xbcdc0607bdef9f1cU, 0xbf77b93cbedf9a7aU, 0xbebf8fabc00f2a2aU, 0xc07809d6bf1b2f1eU,
  0xbf005e8ac03d5cdeU, 0xbe693170c0b56eb7U, 0x3ea8ae3dbf35e47dU, 0xc00d4cbabf5387a2U,
  0x3f2571cabf4c135cU, 0x3f80bfbc3f2862bbU, 0x3f7b856fbec6fa3eU, 0xbe286af83e429e7fU,
  0xbf1fba3cbf33845dU, 0x3e8b0d013e422513U, 0xc065ef16bff84909U, 0x3ebef9d6be5a1ad6U,
  0x3f365407bec25d6fU, 0x3e04db30bf553ed1U, 0xc03786fcc02f8f2fU, 0xbe823e5dbd0def1cU,
  0x3f0a4208bf3d2563U, 0x3db2b0263f099fabU, 0x3fc62d0b3e937997U, 0x3ea85406bf4d232fU,
  0x3ebdba3dbeb324b5U, 0x3f1c22063f25b4b1U, 0xbf4550b3bf3dd69aU, 0xbf9249a1beaaa2c1U,
  0x3e4403843eace1bdU, 0x3f8041bebf2d862fU, 0x3eb8bfe3c034bfb0U, 0x3fb2a87e3f86f419U,
  0x3e12a7983ddc30a5U, 0xc02ee11e3fcdc2c9U, 0x3f1a3ed3beb18248U, 0x3f19d615bf53faacU,
  0x3c42d7f23e993ccbU, 0xc01da009bd8b1bf3U, 0x3f4e82bcbf351b49U, 0xc00839aebfe90b8fU,
  0x3dfe601b3d2cd596U, 0xbfa42491be88fc11U, 0x3f379530c0b61d67U, 0xc00b832ec0625953U,
  0xbf91831cbfa67511U, 0x3ef461663eaac04eU, 0x3e8411bfbebde38dU, 0xbe269360be633135U,
  0xbf8e81b9c0536e39U, 0x3cb18da9be8652b9U, 0x3ee31a41bf10779cU, 0xbecbfbbfbeff1c70U,
  0xbfca4f10bf4a6ee1U, 0xbed84bb7be356de2U, 0x3d3edb1cbdd2c0e6U, 0x3e8e7a193d66882aU,
  0x3da961a8bfc0ac0dU, 0xbdd608593e894c9dU, 0x3f4ef4ba3f764f59U, 0xbe125fa83dd9b74eU,
  0xbf12c463bef4227aU, 0x3e7a72493e87a00aU, 0x3f2788393f0d311bU, 0xbe06f46d3e50a9fcU,
  0xbf2f34623fd62b6fU, 0xbf0e775d3e9774deU, 0x3f3495143f0fc95eU, 0x3e466c97bedfdd16U,
  0x3dc3e3dc3e59bc86U, 0xbf008407bf561cc2U, 0xbe58d28c3fd5430bU, 0x3f578d9cbf2a430fU,
  0xbe12b1f03ef4e3d4U, 0x3de7825bbe08a26dU, 0xbcf4c2ef3f937662U, 0x3ed372e1be66b647U,
  0xbed896b13f14bc76U, 0xbe0064a23f43f45fU, 0xbc871eb93fa37675U, 0xbe893ff8bcbfd757U,
  0xbf8509ca3f7c4796U, 0x3f83e9403bb2d0e2U, 0xbff3fc0dbe7d697dU, 0xbececebb3e2bd355U,
  0xbfffba6b3f196190U, 0xbec4e78abeb51ee4U, 0x3e135955be37961bU, 0xbfb9048ebeb5d15cU,
  0xc03d1251bdfa12cfU, 0xbf97bb99bebd512cU, 0x3f4fc953bf8ad31cU, 0xbfc655b6bfd83912U,
  0x3d49c71dbe244b13U, 0x3f874c983f59484cU, 0xbf06ad54beb96f33U, 0x3e56b91c3f645e4dU,
  0xbf31a7543f0103abU, 0xbf0a6f483f73511cU, 0x3ec7e9573dea47beU, 0xbf5d2584bed7bea3U,
  0xbfdd80c93ce238e2U, 0xbf219f1dbe2947cfU, 0x3f8ad6a3bfb307c2U, 0xc06c4642c0311729U,
  0x3e9887df3e7ce250U, 0x3ed4f3b13e7ddef2U, 0xbe8d2b633e1d5f48U, 0x3e8ae31e3e03916aU,
  0xbe71d6c5bf6fa77bU, 0xbe5a6383bdbdb6a5U, 0xbe7cc3cc3dc4b0e4U, 0x3f081e813f18196bU,
  0xbfc5cab5bed20f3aU, 0xbec78e203ed4e2e0U, 0xbd4e0c963e49ca15U, 0xc018c84fbd8db642U,
  0x3febdd0a3eb5c12eU, 0xbe07e5053fb2f1eeU, 0xbf9c274ebed59af7U, 0x400d6272407adea7U,
  0x3fe22328c0219955U, 0x3f67b0163f366ed5U, 0x3e9ad7023d627638U, 0xbec234b3bff86e93U,
  0x4003a1e8be6358e4U, 0x3de041b83e3bb056U, 0xc071e161402475eeU, 0x3fafd488c02d6875U,
  0xc0c76704bf95b8d9U, 0xbff8ec73bf8576d1U, 0xc040ab573f456211U, 0xbf46b3d5bf1f4b92U,
  0x3e2819893e822257U, 0xbf9cd9343d417c7bU, 0x3f5c4641c01d23e0U, 0xbf39a967bf118964U,
  0xbf2eb9ad3e485b33U, 0xbf2e612bbfceb0a4U, 0xbea33bf3be241fddU, 0xbf925095bfc3e213U,
  0xbf3c635fbeb637f8U, 0xc09f8ba9c01bb555U, 0xbeadf55ebfdbb064U, 0xbf36adc5bec8775dU,
  0xbf009903beb1f2a9U, 0xbf7d5be6bf560622U, 0xbe91ae2dc043e30cU, 0xbead1adabe80fcf3U,
  0x3f004c12be8348eaU, 0x3d855183bf0930b4U, 0x3d565206bdf896edU, 0xbf0c74f3bf1b70c1U,
  0xbf84aa2fbdda4dd6U, 0xbecb88a83dcb4fe5U, 0xbdfe7854be920cd5U, 0x3d0fc913be12056cU,
  0xbecb5b18bec41544U, 0xbec60c25c02678fcU, 0xbeba70acbf8eaf9eU, 0xbe3c92b5bfdbe532U,
  0xbeab0592bdf4beffU, 0xbee1860a3c99e7e7U, 0xbebd1487be3eb04fU, 0xbd2ae81b3eeb0252U,
  0x3f0e8f1f3e9d50f7U, 0x3f0aca393eae7ef6U, 0xbd0c013bbf5fd78dU, 0x3eb0eec7bcf04749U,
  0xbf045ba0be141209U, 0x3df1e2153ee1d7cbU, 0xbe6ffb853e12f5a1U, 0x3f1597c43f071e9aU,
  0x3d65b90a3e578885U, 0xbf1a4c8bbeeef92bU, 0xbe7376babe4150c9U, 0x3d6a8299be723ff0U,
  0xbea5199a3e2e6a8dU, 0xbeb57fae3ebaf928U, 0x3cc42efa3ed5939dU, 0x3ec8a6f03e6ea1c2U,
  0xbf9db3263d019b2cU, 0xbf79909b3ef4d866U, 0x3e2022b6be180b4dU, 0x3e6540833f3c1638U,
  0x3ec6c1513ee6fa08U, 0xbe8b4b90c0a0ec80U, 0xbe08938cbe974be7U, 0xbeff2073bdcadda6U,
  0x3e387ff73e3e4c22U, 0xbf716a8abf3428a9U, 0x3ee4edc33de6437aU, 0xbed44a1cbd28c110U,
  0x3ee0ac58becb3bacU, 0xbe17692cbf45054bU, 0xbe95e3c0bef4d96bU, 0xbf96aa05be56a3d2U,
  0xbe6a1143be968d78U, 0x3ed65b633e83bd1aU, 0xbd5ee751bdc25833U, 0xbf61eced3eb5ff0bU,
  0xbf59b16cbcc30c5dU, 0xbe5545c53e4ce033U, 0x3e96c7d6beec1394U, 0x3e87a920be4df670U,
  0x3ef50b66be9d7eeeU, 0x3ea8d7873e8221d4U, 0xbeac292a3ecb438eU, 0x3e866e603db3c430U,
  0x3e4d1882becd177cU, 0x3dcb86843ec1fbccU, 0x3ebae6e6bd2ba5a0U, 0xbe3534d5be6f74f7U,
  0xbf6fd610bde2e0fdU, 0x3c065b42be19e337U, 0x3ec130563f0f046aU, 0x3ed3c0e7be4ab733U,
  0x3f665e3ebbdc78b1U, 0xbd52f442bf6ba881U, 0x3e22d08abf013c79U, 0xbe1ed1033db8cac4U,
  0x3ebecf863d24737eU, 0x3abff59ebe9bfff3U, 0x3f0035533eac144eU, 0xbd8b11aabd9d8253U,
  0x3e9d598cbebf6e6aU, 0x3eccebd23d1a72a6U, 0x3ea89a16bd98c947U, 0xbe320968be526646U,
  0x3dc1066ebdacfd4bU, 0xbe8639e8be7b758fU, 0x3e490a08be816e94U, 0xbd246ec1be262c07U,
  0x3f2ac493be3b0ca4U, 0x3db7ef4ebf26167aU, 0xbea7db88be965a07U, 0xbe6ab7623f0c1283U,
  0xbddcba22bdead872U, 0xbf3fde8ebf22aabbU, 0x3f04cf8bbe45077fU, 0xbe8f59b2bf1b23e9U,
  0x3f0341bd3c0c35cfU, 0xbe8a746e3e10e65fU, 0xbe5f58ba3f2c0810U, 0x3e3ec00f3ee91aa4U,
  0xbf3501e33e9c7798U, 0xbdadbe8abd7a293fU, 0x3db5b1f0bef111cdU, 0x3f2e5b0ebd1836fbU,
  0xbd472b69be55d618U, 0x3ea9f4b3bf772a5dU, 0xbe5671dd3e6e7139U, 0x3e81f773be42e72cU,
  0x3eea61b9be8f9e5fU, 0xbf7223b53edb3dc9U, 0xbe1064e33e1be395U, 0xbeb19bb8bf7494c9U,
  0xbe9a63d83d87e47dU, 0xbe9d37babe22c46fU, 0xbe7f98753ebdef0fU, 0x3eda71b33e9bdef3U,
  0x40d5a0803fe81a7eU, 0xc075ae49bf84d741U, 0xc09b7bafbda38e9cU, 0x3f18c6cbc0041f64U,
};


ai_handle g_network_weights_table[1 + 2] = {
  AI_HANDLE_PTR(AI_MAGIC_MARKER),
  AI_HANDLE_PTR(s_network_weights_array_u64),
  AI_HANDLE_PTR(AI_MAGIC_MARKER),
};

