/**
  ******************************************************************************
  * @file    network_data_params.c
  * @author  AST Embedded Analytics Research Platform
  * @date    2026-03-11T11:30:21+0100
  * @brief   AI Tool Automatic Code Generator for Embedded NN computing
  ******************************************************************************
  * Copyright (c) 2026 STMicroelectronics.
  * All rights reserved.
  *
  * This software is licensed under terms that can be found in the LICENSE file
  * in the root directory of this software component.
  * If no LICENSE file comes with this software, it is provided AS-IS.
  ******************************************************************************
  */

#include "network_data_params.h"


/**  Activations Section  ****************************************************/
ai_handle g_network_activations_table[1 + 2] = {
  AI_HANDLE_PTR(AI_MAGIC_MARKER),
  AI_HANDLE_PTR(NULL),
  AI_HANDLE_PTR(AI_MAGIC_MARKER),
};




/**  Weights Section  ********************************************************/
AI_ALIGNED(32)
const ai_u64 s_network_weights_array_u64[1532] = {
  0xbbe021d3bcb4048dU, 0xbd0a529dbd026176U, 0xbd0cdf193bcd77ceU, 0xbd3db2793b80734aU,
  0x3dc20fff3d6b8621U, 0xbcdca39abc3ed3f2U, 0xbc676ffbbd302e3dU, 0x3d0dfb21bb84ab0bU,
  0x3ce316683c81f03eU, 0xbd1275463c4a9098U, 0xbc30128e39e75057U, 0xbd01cf2dbd9e9d2fU,
  0x3cf3cf003db3a285U, 0x3bd1cadf3cb57273U, 0x3c7f17723c93c7cfU, 0xbd3f463b3d3efac3U,
  0x3d265f43bc1aa7beU, 0xbe046f01bbf5fec5U, 0xbce42c8cbd958e6bU, 0x3c0d1dc13c27eee5U,
  0x3d6fab193d82cb79U, 0x3cc609d33d0b7c82U, 0x3c8b85b63d108b2fU, 0x3ca005cb3c78c0e6U,
  0x3b4c38ffbd2de8cdU, 0xbc868cfd3c3393e5U, 0x3d5fad90bc265504U, 0xbc951240bd8063deU,
  0xbcf5f60ebd0b4816U, 0xbd228e97bda01393U, 0xbd108998bd257abfU, 0xbd7be3f0bcb173e0U,
  0x3cc2b616bc9f6506U, 0xbc886d1f3bc65cd6U, 0xbcb9af64bce166d9U, 0xbe0c1019bd13608cU,
  0xbd9e952bbe12fb73U, 0xbe05a878be07ecfbU, 0xbe181b2c3d91567aU, 0xbd0cf3833ac9cebfU,
  0x3bf18f3dbcb46910U, 0xbc84e1513c1afcf1U, 0xbd0fe6de3cc6beddU, 0x3c86f906bc5321f3U,
  0xbd3e0fa63c0449b3U, 0x3c28d7c7bc7fa3afU, 0xbc4fc590bc06fa06U, 0xbb81b3203b90efe5U,
  0xbd773b6abd32a951U, 0x3c00f4c6bdeb6f95U, 0xbd6e1d3abd90bad4U, 0x3d08457ebd922d3dU,
  0x3cd8ad583c94bdf5U, 0xbcb14598bb5f8c55U, 0xbd214526bccd9d79U, 0xbce8a331bd038712U,
  0xba4c27bdbaffef73U, 0x3bca7deb3c4faa13U, 0x3c8eaabbbcd8dba4U, 0x3d0d02003d95cbf7U,
  0xbd4042693d25d258U, 0x3d7b27753c8b9c10U, 0xbe3d18bbbdc25180U, 0x3d2e5feabda2431bU,
  0xbc1c17893bb7cd18U, 0xb5cc8bfe3c0098acU, 0x3c1bc4e63b589fc7U, 0x3cfc57cebca05013U,
  0x3aa86344bc62faeeU, 0x3b8fb70d3bef7b4aU, 0x3afd89913c330f5cU, 0x3d812580bc72042fU,
  0x3b67567ebd6d7f30U, 0x3d2d56dd3cb510cfU, 0xbd176bed3c926a5fU, 0x3d1b19bdbd101a61U,
  0x3bdb0c733c0be8a9U, 0x3bd919a3bd1ac4e8U, 0x3e0e9051bc895798U, 0x3ce3c7a63d5ea63bU,
  0xbe0bd930bd482a04U, 0xbdf0338ebdddffc3U, 0xbdcd3117bd91cc55U, 0xbcdf061ebddbe2acU,
  0x3cba2abf3cb6c25cU, 0xbd01de41bb8fa0e8U, 0xbd80acaebdb6195aU, 0xbbb27f83bd32fc85U,
  0x3e3d471fbe570ce2U, 0x3dda6169ba1704e9U, 0x3cf0354d3c765003U, 0x3b993d393d420781U,
  0x3da942423ce1c37eU, 0x3b97beb33cf6447fU, 0x3c22a33d3c634886U, 0xbe031738bd119823U,
  0x3de7965bbd6b3bc1U, 0x3dcac947bc519e7aU, 0xbd0473163cb6c972U, 0xbd0be87dbd00e118U,
  0x3dbf7d873d8e1b1cU, 0x3cc1b152bd0bf6d1U, 0xbd4439efbc05e1d5U, 0xbe29c218bdba2494U,
  0xbcd09444bc0515cfU, 0x3c7dec96bc908d6eU, 0xbd12af923c516699U, 0xbce71066bb20c739U,
  0xbd671db1bd293a4bU, 0x3d3773cd3d4160bdU, 0x3cb5ebcf3d51ce19U, 0xbd5416313d06297fU,
  0xbbd92b27bd1ad9dfU, 0xbd70c0e03ca918faU, 0xbe239c83bdef3d95U, 0xbc36470abdec51cdU,
  0xbe43dcaf3d0673caU, 0x3be5d3ac3cc3a35bU, 0x3ca2db1ebb09d884U, 0xbc9db8c5bc91a3a7U,
  0xbca06b0ebc03d80eU, 0xbcf6f18dbd14bb49U, 0x3cf0444c3cdfdd5bU, 0xbd2dcd60bb24f017U,
  0xbd28a087bd2ad210U, 0xbc63a480bd3d22f2U, 0xbb9f7b173c91730eU, 0xbd4ca0d2bd18d725U,
  0x3d555377bccc8c0bU, 0xbcd407823c74d39aU, 0xbcd91f2a3d7741c3U, 0xbd5c7ca0bb9ec25fU,
  0xbd686976bdb76773U, 0x3cc63213bac143c1U, 0xbb23a84f3cb72243U, 0x3d829a903ccc3a1aU,
  0xbd802543bda4eb06U, 0xbc061a7dbd7be49fU, 0xbcc97f1b3e2099c5U, 0x3d6d45acbcaeec31U,
  0xbd9b2d1bbd1393dcU, 0x3d571f93bc125bb2U, 0xbc5fa28b3d009d19U, 0xbdbe15343b8a4dd2U,
  0x3c8c59b03d720a30U, 0x3b121764bc31f4c2U, 0xbc7294ab3c1837ceU, 0x3c16811bbcb26772U,
  0xbaa667873bf642f4U, 0xbd2081ddbd9ea43dU, 0xbd1d82033d1de51eU, 0xbda39a31bd6bec7aU,
  0x3d4674ccbc85f33cU, 0x3bd5a8ae3b28ee37U, 0xbd2ca299bdae9975U, 0x3ddf1a39be1c1ba4U,
  0xbd8d13f33ca7c3b2U, 0x3be64ece3cdcdc4dU, 0x3cc533bf3dd37d66U, 0xbba3159f3d0120c5U,
  0xbc2d6c4a3d2bb757U, 0xbdfda343bd13978aU, 0xbd27b6a6bda0fc33U, 0xbd2c8dcdbd2ecbd2U,
  0x3bf2bef8bc30de86U, 0x3c908cdc3cb4ca00U, 0xbd653d00bc6448e5U, 0xbdd32119bce0d126U,
  0xbc92cfcebd807825U, 0x3d0142d33bf9fba0U, 0x3dd0aaa83d14055dU, 0x3d8b67e93de786bdU,
  0xbd94fd31bbc8d5c5U, 0xbd6527c6bdb4643aU, 0xbe02a626bda0de95U, 0xbd252f4abdc7db8eU,
  0x38a3c89fbc0f1f8aU, 0xbe1237853d048bc8U, 0xbd29bc40be477b36U, 0x3b7d020cbcee2772U,
  0x3c10abf23cacdd50U, 0x3c0ee5f5bcb24241U, 0x3d4343b23cb2fe95U, 0x3cdba4563cf599b9U,
  0x3c88325d3c489c76U, 0xbcd29995bd7f06bcU, 0xbd8084f1bd7081afU, 0x3cb9a652bc1df6d1U,
  0x3d6f392e3d3f6cf2U, 0x3cc87fd13d58a88eU, 0xbd383427bd29f84dU, 0xbe27b9aebdf87ac9U,
  0x3ea3eb773eff5382U, 0xbfa5a9983d89edd6U, 0xbf984952beea5352U, 0xbf8a00da3d3674b8U,
  0x3e00667cbfa9a0d3U, 0xbe6d98d2bdf6e855U, 0x3f3abeb3bf43ee15U, 0x3f0de0673ca28610U,
  0xbf3afecebdb1520fU, 0xbf13fd343df01ab8U, 0x3ce89e89be40c41eU, 0xbf23505abf738ff7U,
  0xbdc631983e008ca8U, 0x3e83ed6e3d4b6f42U, 0xbe3e0dae3e8cfadcU, 0x3d8f8090be130461U,
  0xbddc6538be8db3f6U, 0x3e2439e7be8b901bU, 0x3d9dd9123d40c531U, 0xbe3f8de9bd8f41b2U,
  0xbb85fbc5bc06ade5U, 0x3df5a5b3be067dbaU, 0x3d83bd173cea5ba9U, 0x3e0695ca3dc36e9dU,
  0x3dd3923abd9a4a24U, 0x3ebbc47cbe908e46U, 0xbe79c551bde11e17U, 0xbe240206be91f79fU,
  0xbebca4963cf2b185U, 0xbe9cd4ec3d24f661U, 0xbb33314e3e6faf71U, 0xbdcc2e6fbddb7b61U,
  0x3e33ca043c28de1aU, 0x3f07bce7bda26dd7U, 0x3e02ac923e8f0f58U, 0x3cb2b3da3e810ca4U,
  0x3df333823db1fe7cU, 0xbebb9815beb682dcU, 0xbe09d4533eae1c08U, 0x3e975b0ebea2de95U,
  0x3db609edbecb72c1U, 0x3e756e5bbcf2bf58U, 0x3e7a0dee3e01124dU, 0x3c70a278be746403U,
  0x3c53db45bd00861fU, 0x3e88e236bbab6e4bU, 0xbdf927d3bc9a395aU, 0x3e2c8ed13e008b27U,
  0xbe199d463cbfd016U, 0xbdb509f8be058235U, 0xbec0df3a3e19cc5eU, 0x3d3e5034bda5a261U,
  0xbe81abe6be2f5fc4U, 0x3e72ec8f3dcf8112U, 0x3e17d727bd552098U, 0xbe1ab54b3d66d605U,
  0x3e27fe94be545843U, 0x3e58d2f4be753958U, 0x3b243cf0bda67607U, 0xbd9c804b3e085452U,
  0xbdeac2c33df52f5eU, 0x3ef00075be27596eU, 0xbed6090c3dcc7e6bU, 0x3d1620fa3d9f4282U,
  0xbd8dd851bf696c4dU, 0xbe3c31dbbe7330b3U, 0x3da91f9f3e15795dU, 0xbde3ef8bbd87186bU,
  0xbe1eb4eebd01c9f0U, 0x3d5c8ba7bdf30dbcU, 0xbc62957bbd4ad3bbU, 0xbdf0b6373dda095aU,
  0xbd51f9333d1f6b7aU, 0xbe679e71bd2f518bU, 0xbe65bdb4bde59d89U, 0x3eb063a7be413474U,
  0x3d243f24bf79f5a5U, 0x3e633b183d5dd1d9U, 0xbc5025fcbdd708cdU, 0x3dbef200bdb0b4f1U,
  0x3ed940713e408de9U, 0x3ee5af0c3e489453U, 0xbd7542133d34ce95U, 0xbdd4c0403c0bab4dU,
  0xbe0d94213caef7afU, 0x3ec639893db4decaU, 0xbe9080dd3e8260c3U, 0xbbc8519d3d257c82U,
  0xbd987a19bdc272eeU, 0x3e3b634f3da80db5U, 0x3e19404dbc85b49fU, 0xbda3a054be074070U,
  0xbe048239be5c70f3U, 0x3e019c22bef8e767U, 0x3bdc896b3d34582dU, 0xbe323450bd041773U,
  0x3dcb9d8f3e721684U, 0xbeeebde9bdfedfadU, 0xbe1ebb043e8dea19U, 0x3e142bd33dfebd81U,
  0xbe9539bebf5fdfb3U, 0x3ddcb462bb86c45cU, 0xbe0878fd3e3863c7U, 0xbdb3143abe64a54bU,
  0x3e1220b4be8758d9U, 0x3eb3303fbe73c257U, 0xbd10708ebe4bdb1dU, 0xbe75bae13e94762aU,
  0xbe5fe785bd9820dcU, 0x3cc251acbcdc9055U, 0xbe9d3c6dbeaf569aU, 0x3ea79c98bdec7465U,
  0xbe0482e5bf2a74d3U, 0x3e34cda1be41b4e3U, 0x3db9d427bd995ab0U, 0xbd3a6038be52ca14U,
  0xbe06c4c3bdb79b94U, 0xbdacff2abe3bf774U, 0xbe8ceeb1be03d77aU, 0x3d41e5833ed31125U,
  0x3cba9cbdbe0e17d9U, 0xbd83faa53dacc9c0U, 0x3db474c43d16c16cU, 0x3dcc9b1cbd8c5718U,
  0x3d58aaf83a443eaaU, 0x3dbcec4e3dc3f5b3U, 0xbb1d5a523d2ca9afU, 0xbe24499f3e2b3073U,
  0x3d970a383c35ab29U, 0xbda0fb2fbccf973dU, 0x3d3e52483b135b4fU, 0x3e2a18943e25b143U,
  0xbda2a5f63cc0d0ceU, 0xbe23b42e3dec6f6eU, 0x3d8c0c6d3e181765U, 0x3d9edfa0bcdc6160U,
  0x3cd308f53e6f0fedU, 0x3e4878b23d51309aU, 0xbda0098dbdc422f0U, 0xbe06ee553ded596fU,
  0xbce069a4bd25c9d8U, 0xbd4b10c23aeb24ebU, 0x3de2e062bd0da86eU, 0x3d473dc93db59cdfU,
  0x3e1c82a13d181756U, 0x3e9f7b7c3dc83d74U, 0x3eb3ec0b3e87182bU, 0x3ec3e1ba3e684d00U,
  0xbd7e115f3e58f379U, 0x3e4e2a3ebd6c0d38U, 0xbcd9425abdccf5d6U, 0xbb71ff263e12f3edU,
  0xbe0a620abd4d00a9U, 0xbdc24dd83d86e1cdU, 0x3c826fddbd09a6f1U, 0x3eab97983ec8e146U,
  0x3d08b49abd45d1c9U, 0xbe07f48c3c743b0bU, 0x3e909ca93cf5550fU, 0x3e1e5258bd0590d5U,
  0xbcaa78163e2e6cf3U, 0x3debc70a3c1d1cf6U, 0x3b93c2703dbd8a15U, 0x3ca57dcb3e14343aU,
  0x3ddd6f953c9ee949U, 0xbe0416d1bd445141U, 0x3d44de65bd8f1573U, 0xbaf3ce113e212365U,
  0xbd187377bdc68df2U, 0xbdb0f8af3de75e1bU, 0x3c39c5893dce70d4U, 0x3e6af0e23dcc22c2U,
  0xbcca1bf43c5e34e2U, 0x3e23ae283d2075e5U, 0xbc9e78f9bd39d73fU, 0xbcdb49823e199739U,
  0x3d8687d83cbe6d99U, 0xbd6fc983be007957U, 0x3dd2764d3c1b381dU, 0xbc1bdb78bd644073U,
  0x3dd2c06abc8c0cb6U, 0x3df005b73e2e8902U, 0x3ea238bb3e8f4dd0U, 0x3ec267fa3e462170U,
  0x3c1721ad3e26e9cdU, 0x3e238c56be274859U, 0xbdbed167bd328d88U, 0xbc8522e13e33515dU,
  0xbe0e70783c254677U, 0xbe09b9b23d8c9b64U, 0xbdf74b59bd9fe713U, 0x3ea6e1673ef74be5U,
  0xbd8a050e3cbfcab9U, 0xbdbdee473d9b8a8aU, 0x3e9eeb303e43d0fdU, 0x3e1a81e0bb9c8ca2U,
  0xbd0820ed3d18e295U, 0x3e0f72d63c8306efU, 0xbdb6a1843d8e81b0U, 0xbe00b3d43e3d8cd9U,
  0x3e0f8d8dbcccd4a4U, 0xbdcfe66bbccc8377U, 0xbd1bde75bd45f8c6U, 0xbb681b633e1c0fbbU,
  0xbcdfe9593dc6be1bU, 0xbde908283dfd6aebU, 0x3d4bf2ee3de759ceU, 0x3cff6b003d2ef006U,
  0x3ca8dfe5be17d1b7U, 0x3e680ed3bc02e27aU, 0xbdb56104be02a8d8U, 0xbdb58d613e22ef87U,
  0x3df38925396c381bU, 0xbd166b0dbc1211daU, 0x3e09b8ecbd326132U, 0x3de886423dc66cc0U,
  0x3e380f5f3ba2123aU, 0x3e32eedd3d7ae92bU, 0x3e898c1d3e99c0e2U, 0x3ea6dd473e0e2106U,
  0x3c2622373ed06195U, 0x3e18b293be0e6328U, 0xbe6344ddbe1eced4U, 0xbb4f5a393dbd2816U,
  0xbdc797a43b68212dU, 0xbe08c16e3dbce41eU, 0xbe303fa7bdca9862U, 0x3eedb4aa3e9f3393U,
  0xbd0923bb3e217c64U, 0x3e47c1efbe175ed6U, 0xbd5bc53e3d4bec51U, 0xbc41944dbe110b56U,
  0x3d09920ebda3af69U, 0xbe43290e3d577fa9U, 0x3dcd53e5bc59e0f6U, 0x3d598124be7188dfU,
  0x3b9bb0d9be43e08cU, 0x3b52fa4dbd877265U, 0x3d3ffe093d7cffe9U, 0x3e0c0fa3bb7e9585U,
  0xbcfb83f0bd298e68U, 0xbe1bf118bd8bd300U, 0x3d15283dbcbddd3bU, 0x3d8022e73d3874d4U,
  0xbd8b89d1bd2f0b6fU, 0xbe24a96e3c999e05U, 0x3e90e202bda8dbdeU, 0xb9f2ec28be3a5cb0U,
  0xbd4049213c7dcaefU, 0x3c5e55bb3d81e9bbU, 0x3cf90f403d6ab893U, 0xbe4a283f3d9ef030U,
  0xbe2330f63e6bf4c0U, 0xbe6ec5dfbce3987fU, 0xbdb7e20c3c5715bfU, 0x3deae145be130d9cU,
  0xbdc912b1be6b45baU, 0xbc9c58aebdf40918U, 0x3e941b39bda39bdaU, 0x3e1a8faabd511486U,
  0xbc5dddb6bdeb8875U, 0xbd86b292bd4b27f6U, 0xbccd4525bdd63cbcU, 0xbd3043033dc4a78bU,
  0xbd1bb8353dae2475U, 0x3cf266fdbdc6fc32U, 0xbd42c0e4bd68d7aeU, 0xbca13f59bc8ecf1aU,
  0xbdc49f7bbe595226U, 0xbe835fa2bd1715beU, 0x3e5632f5bd7731e3U, 0xbb375fdbbe907a58U,
  0xbcfd6bf7bd99b4dcU, 0xbdc64ad4bd692250U, 0xbda41b4c3cc9b510U, 0x3e69b4153dbde434U,
  0x3d327f07bd901484U, 0xbdba09e8bd87e2c9U, 0x3ebb4e40bd89c521U, 0x3e203e97be33bfbfU,
  0xbe08b034be086cc6U, 0xbdd61e51bd7cdf7fU, 0xbce89e77bdb20a4bU, 0x3e8f17d7be589055U,
  0xbe033242bdc6517fU, 0xbe1d1bebbd561ca7U, 0xbdbe78c9bd76663fU, 0xbd9c622b3eb1916bU,
  0xbd50653cbc256564U, 0xbed4bc643d80a435U, 0xbc6aac51bdb82bf5U, 0x3d8394d3be305279U,
  0xbe488bfebe9cfe37U, 0xbd36326dbd0c275fU, 0x3dd7a745bd9c9062U, 0x3e8ebe553d198e9bU,
  0x3cd21165bd270bb5U, 0xbe3e01b13c906ae7U, 0xbb92d57dbde9d40aU, 0x3cee07bf3e3a8998U,
  0xbd0e9032bd154494U, 0xbd4f3579bd81b918U, 0x3d3540eebe07ef48U, 0x3be95327bdefecafU,
  0xbe166d68bef5805dU, 0xbe454ad43c975c09U, 0x3e6abf003b926884U, 0xbcadd9c2be7ccbf9U,
  0xbde46969bdf217b8U, 0xbd8e869e3dc7c480U, 0xbd61cc1f3d2fab34U, 0x3ba9df9fbd10d463U,
  0xbbfa4e3eb9a23a6eU, 0x3d6deab5bd8edf25U, 0x3e7c8d083d2518b1U, 0x3cca8ae5bd6f1503U,
  0xbd8ea91abe83228fU, 0xbe08e607bcb65b62U, 0x3e9e9378bdab28f6U, 0xbcb45d48be6e9c63U,
  0xbe3ff857bd018b80U, 0xbd8dff54bd0527ccU, 0x3c51b9ae3d9c904dU, 0xbd18ed0a3e01d3a3U,
  0xbdd831683da533b2U, 0xbe60e7033e065acdU, 0x3dd658af3d5e38ecU, 0x3c6ed960be873cefU,
  0xbe4df221bec87c08U, 0xbccb62c13c4e6f5aU, 0x3e9692b1bce17e7cU, 0x3e229d2dbdc70091U,
  0x3c046ea7bcde33eaU, 0xbce00a0ebc1dd3ceU, 0x3c534de0bd99d496U, 0xbdc84b7a3deee6eaU,
  0x3c856a66bd9eaf7fU, 0xbe1ee14d3dcc42a8U, 0x3dbedae9be16737bU, 0xbd197ded3dd0cd53U,
  0xbca60c0c3d86830aU, 0x3e2c63c9bc8ec661U, 0xbe2099eebb9f6492U, 0xbdb2b1193e281e56U,
  0xbd884c8d3e0c1fecU, 0x3bddf65f3dd33250U, 0xbcedc26cbdae83b0U, 0xbd775634bd16a4f3U,
  0xbd4195173d7c3b05U, 0x3e02813b3d8d80c2U, 0xbdba0c233d2f9c19U, 0xbdb066fabd497f0aU,
  0x3d893e8c3b974498U, 0x3d375560bc918360U, 0xbe44118b3d958963U, 0xbd7c604e3e241993U,
  0x3d3eed0e3d9e0b41U, 0x3d4850753d2ad545U, 0xbd2c6c6dbaf08366U, 0x3db2cfb5bdc3ecdaU,
  0x3da28f32bdb29982U, 0x3e7d3521bcdc7092U, 0xbcdfe24fbd8f7890U, 0xbd0541253e00d544U,
  0x3d4802d73e509b05U, 0x3c8770383d5355beU, 0xbd655c483db924e2U, 0xbe8e771d3c2d391dU,
  0xbb26ced33dbc6dceU, 0x3c5616f73d9ef658U, 0x3d9161863e2a950eU, 0x3c52cdcbbe2905d9U,
  0x3e02b7dfbd1d07ceU, 0x3d1286f23ddfbff7U, 0xbd100b3a3bd9d4bdU, 0x3ce7a4673d926f15U,
  0x3d83e04e3de05800U, 0x3e4544e23c5b4b6eU, 0xbd4c2f433da1737fU, 0xbd9665d93e91e9ddU,
  0x3d2f32133dc277c3U, 0xbbb9f30f3d68df34U, 0x3d95fa78bc2204f2U, 0xbe4b748fbd8136afU,
  0xbda01038bd4392d3U, 0x3b237c6b3d2d133fU, 0xbe8ce4a13d29f64dU, 0xbe45fc0c3df1d2c7U,
  0x3e1fcfbf3df639fcU, 0x3cc3ed343d18350cU, 0xbd5273d93da40e0bU, 0xbe5fd7e13e0aba64U,
  0x3dacbd043d3952a2U, 0x3dd0df9f3db66db3U, 0x3dab6c163cc492b7U, 0x3d831b84be7a1886U,
  0xbd1578943cfebf30U, 0x3e645b36bd6bea8dU, 0xbd10eebf3c67f0c8U, 0xbe3f7fa33e54a699U,
  0x3e146b253ea025b4U, 0x3d8707d53d80da2fU, 0xbdb506103cdf3031U, 0xbe1f2697bc85f6dbU,
  0xbce9ee29bcf8986eU, 0x3dff357cbcfbd77dU, 0x3d06e4ac3dcbdd66U, 0xbd3f9e87bdcc11acU,
  0x3db8aca1bd09074cU, 0xbd17dd613d997327U, 0xbc7cff413e3182b4U, 0xbb7493c43daaf97aU,
  0x3debb4563eb8ccf3U, 0x3de0e0733d91703eU, 0xbe979dcd3c042234U, 0x3d5f470e3e2164e6U,
  0x3d27922c3e0b86baU, 0x3c53f7bebd9f30a3U, 0x3c3f37febdedebb1U, 0xbc8796623d0b3001U,
  0x3d572c25bda94bc8U, 0xbd02dda53c855e28U, 0xbe8b44e13cd0c244U, 0xbd3e78e43d54b71dU,
  0x3d9052e33e3fb5d6U, 0x3db61d1d3d16250cU, 0xbde070e33d998f4aU, 0xbe00ea9e3e3cbbaeU,
  0x3dccee16bceb43a5U, 0x3d43d40c3dadeb60U, 0x3d08527dbc4ddab2U, 0xbcd4679cbe14c045U,
  0x3d9d78acbdb125e3U, 0x3e4a4dfabdc8755cU, 0xbdd53e0dbd6de22fU, 0xbd6ce0ca3e1ab798U,
  0x3e24da1c3ea8bffdU, 0xbd5081ea3d1b6102U, 0xbe9fe3bb3d3e6d01U, 0xbdc7ca243d1be543U,
  0xbca86e463bc107a5U, 0x3db2c0e8bc858bbfU, 0xbc2ddead3d81e8eeU, 0x3df07093bdca9edeU,
  0x3d5c0bd63d5ed649U, 0xbcd1a5e23d29fdf0U, 0xbdb22408be08abc5U, 0xbdb458a53d929468U,
  0xba30677f3dfe6f30U, 0x3d621241bbeda61cU, 0xbe0aa373bd530240U, 0x3e1338043cc88e01U,
  0xbe0705083d976a79U, 0x3d9f07723dc4c503U, 0x3b8abb15bb2c44afU, 0xbcc35b2bbe3bcf80U,
  0x3d031071bd46bb38U, 0x3e48be293d7616b4U, 0xbd85840cbdd17f87U, 0xbd8e6472bc40e88fU,
  0x3d1d3ef6bd9832a4U, 0xbdb3e0d23cb13013U, 0xbd9103073dc97e17U, 0x3cc31a13bc71ffd9U,
  0x3d09f1963dadee50U, 0x3d9eb1333d8106e4U, 0xbd3799b13d1e0e6bU, 0x3d19c266be527608U,
  0xbdd74caabdd193a7U, 0xbd3d5df0bd9992e7U, 0xbeb77a61be5b16ceU, 0xbecc7e0fbd78e3e0U,
  0x3decafea3dfb1024U, 0xbe018e763d97a9b2U, 0xbcb810913e4fc161U, 0xbcea43d5bdb37be1U,
  0x3defbbbd3d9d8f63U, 0x3ddeedd33c333a87U, 0x3dcfc9233df8036aU, 0xbe2427e6beb36dbaU,
  0x3e027506be3dc8e3U, 0x3dc1ee493d07f331U, 0xbe3b390abdb15485U, 0xbe1af3b73dd8f3b8U,
  0x3e04816d3da80165U, 0x3d8e48933dc3949eU, 0xbd5ad38fbc4e2337U, 0xbd047af23d4905b6U,
  0xbd8fe03e3e021ee6U, 0x3d2e06633da0be3dU, 0x3db19d1f3db1a54eU, 0xbd63dcc8be027ce3U,
  0x3d493460bd8ba4e5U, 0x3dc3a41e3d1e0835U, 0xbe940174bdac7bceU, 0xbe7d0014bb9ad2caU,
  0x3dcd5a333e69bdc2U, 0xbdadf20f3dc2d77cU, 0x3cfae79c3de0e3daU, 0xbd4b534fbc1b0e6fU,
  0x3cda80413d2dd24bU, 0x3d953ab03e0f1a7fU, 0x3da45a223d946e09U, 0x3abf09bfbe6b8d78U,
  0xbd19d5a6bc6e9275U, 0x3e0185c0be4bff87U, 0xbecc507fbe4b6239U, 0xbef2f225bc11af42U,
  0x3e18a7fb3e6bad7dU, 0xbdf595383e7e20b2U, 0x3c93c93b3d6a06fcU, 0xbd83f912bdd40643U,
  0x3e0d7be6bc095f89U, 0x3dfcbc99bd7f3bf4U, 0x3e7e2b763dfd931bU, 0xbdaab43abe9c71bcU,
  0x3e1d110abe261c6bU, 0x3dd0b919bcd158b3U, 0xbe60399abdf90df7U, 0xbe034c2d3cbb0fcbU,
  0x3e05bdba3e6595deU, 0x3d3423793dc6cf90U, 0xbe151d8fbde918e0U, 0x3e25585c3d4ab5a6U,
  0xbda2b3e53df4aa5fU, 0xbacd7f103b38a2b7U, 0x3e079d8b3c927254U, 0x3e09f34bbdb634c8U,
  0x3d96abe4be154957U, 0x3d2c6f34bd7dd6d2U, 0xbdf43ac1be126dc3U, 0xbdf6adce3cfb3486U,
  0x3d9817b93e61e44aU, 0xbd89a53e3ddde026U, 0x3b023dac3e2a6ab0U, 0xbd829d083cda9a5aU,
  0xbd2397e13d0fcbefU, 0x3d2c80a43dfa26afU, 0x3ce662e43da0c551U, 0xbd7b0540be4689f8U,
  0xbd9ae1903da0614bU, 0x3d95cb96bdc36faaU, 0xbe8ee8a4be4d7d18U, 0xbebfad6d3d760829U,
  0x3dadd1ce3dfc1248U, 0xbdcb3c513e1e64aaU, 0x3db7c1993ddd0c69U, 0xbe27e8f5bd421f98U,
  0x3dd6135b3cf8fc47U, 0x3e198c84bd31fdc1U, 0x3e33f9a23e2eea68U, 0xbe1b44dfbe93a556U,
  0x3d40b63abc0e8dd7U, 0x3ca2e6ef3d28b248U, 0xbdf1a6b2be18e270U, 0xbd18fb4f3dc6eaa6U,
  0xbce01c3a3d81802aU, 0x3d911728bc9b6616U, 0xbb894490bd3b0f19U, 0x3dd0dcde3a8e3c13U,
  0xbe24ea963d6eaa59U, 0x3d4d33553d952575U, 0x3c94c7083d579d27U, 0xbdbca423be5adb2cU,
  0x3d3792933d17b867U, 0x3e5206113d958faaU, 0xbe0622e8bd242efeU, 0xbdda25ffbd3d0fcaU,
  0x3d5c01f3bd962a9dU, 0xbda49abb3cc3d939U, 0xbc78446f3dbc67bfU, 0x3dd756e4bce7b3aaU,
  0xbc2afae73da82a3cU, 0x3d31eaa93d8c9c1cU, 0xbc8fc116bc031917U, 0x3deedd8abdef5249U,
  0xbd741bbfbe0284eaU, 0xbc81c897bd8987d1U, 0xbec74779be4659c9U, 0xbed1f864bd820b8bU,
  0x3e03d13f3ddfb24bU, 0xbe10d4213dc6ad76U, 0x3c2bb3bf3e5d242aU, 0xbdd71ae9bde6f869U,
  0x3e0777b23d92851aU, 0x3ded5cc13cf41396U, 0x3dd5b7143e042839U, 0xbe073a6fbeca3884U,
  0x3da09d1cbd115f11U, 0x3dd6179dbb6c5bc6U, 0xbe7c0c4bbd64ad8aU, 0xbe200a9f3ddcb8a0U,
  0x3df758f03cf7c377U, 0x3d66e7693d83f322U, 0xbd6e4b22bd23ce6dU, 0xbd645e333d1d1b66U,
  0xbd97d0013e261b4eU, 0x3dc002423d97debbU, 0x3db8b2093da5aa4aU, 0xbdac5107bd88f0d4U,
  0x3ce8a144bccfa32bU, 0x3d3048873d47224eU, 0xbe7bde5fbda65b5fU, 0xbe8d2d913ca95c8fU,
  0x3e0e98d43e6be4e4U, 0xbd7ba6203d3d8d4dU, 0xbdb7323f3dbd972bU, 0xbcdf6e6dbda9e638U,
  0x3cdd76bc3d9080f8U, 0x3c1d0eb83ddf809cU, 0x3d5397333dc9ac39U, 0x3ca29438be70f709U,
  0xbd299031bce44354U, 0x3e21fa2dbe5ab5e2U, 0xbed8c1cabe565198U, 0xbee073d43cb2d9a9U,
  0x3e2e9a233e7b1d3fU, 0xbdc5df863e793de4U, 0xbc64dea83d6ce6ebU, 0xbe0d0b1cbdcfaba2U,
  0x3e29bdc1bab042d1U, 0x3e02a15dbd5fe2c8U, 0x3e694a4b3e28f6d1U, 0xbdf157afbebdde59U,
  0x3dc82d76bccf8bfdU, 0x3d97a9d8bc9d9a96U, 0xbe4b7e18bdc8d20bU, 0xbe0325713d1dcbffU,
  0x3dd5c6053e9fd582U, 0x3d1086063d10b3eeU, 0xbe33f9bfbd9f4959U, 0x3e1524ff3bef34c0U,
  0xbde8dcc83e3a14d9U, 0x3d91bcfa3bb4a07dU, 0x3dee42463d334171U, 0x3d927941bdce63feU,
  0x3bd3d513bd9f73f7U, 0x3d3d1d1ebb7378bbU, 0xbe87c4a9be26d690U, 0xbe01c639bcb03c3eU,
  0x3dbfa6d53e873dadU, 0xbda9ba673e134782U, 0xbe0495283e3dc070U, 0x3d2a7c1d3cba00d4U,
  0xbc6f7b683d5c239eU, 0x3daa704a3d9a414aU, 0xbc93173c3d0226adU, 0xbca4205dbe4638ceU,
  0xbd9dc6303d8d26fbU, 0x3d85d67fbd984284U, 0xbec4f96bbe55bea9U, 0xbebd0ac83dad01b8U,
  0x3db353603de3315eU, 0xbda81bbb3e28d0f3U, 0x3ca71a213e12264bU, 0xbe4c9322bd7c929fU,
  0x3dea098f3dab7a6bU, 0x3e049c09bd38574bU, 0x3e1869013e4fd310U, 0xbe148b74be97fb06U,
  0x3b7aebd93df50ba5U, 0x3e843801bdd8de90U, 0xbe6cb5cb3e92f9b5U, 0x3e0b0399be175ba3U,
  0xbd69fc0dbdf6ecefU, 0x3d8afc87be25d847U, 0x3db75930bd693998U, 0xbe39dec7bd9bea13U,
  0x3d6cf2bc3db82424U, 0xbba9f33cbe3906eeU, 0xbd594ccf3d422bbbU, 0x3dd5e0403e5a0ec1U,
  0x3e6a31933d13c639U, 0x3ef547eebea5d45fU, 0xbe75bcc1bdbc5763U, 0xbe19b652be102b0eU,
  0xbe49d11bbe120214U, 0xbe4c3d6bbcc8f688U, 0xbd70667c3e3ed04dU, 0xbd7e6e4cbe0a907bU,
  0x3e195d19bc445ab2U, 0x3ea59f6ebdcb4510U, 0x3df90c553e94ff14U, 0xbd9871ca3e926c60U,
  0xbcafebaa3e0c891bU, 0xbe907f6abe8a4e48U, 0x3c9db9d93e5a972aU, 0x3e93cc66be13c4aeU,
  0x3de19dd2bf080891U, 0x3d3d41e73d0d32f9U, 0x3e4fdcba3e387043U, 0xbbfda97abe82c89eU,
  0xbacd8a413d8c883fU, 0x3e90edd4bdc2f9e7U, 0xbc3632febd9409f2U, 0x3c2dee423e12c012U,
  0xbd43d23fbdda0652U, 0xbde4e28fbd2dc9fcU, 0xbe9a66d43dd30270U, 0x3e1cc840be2da2e9U,
  0xbc8470ddbb420d7eU, 0x3e3b94163d91904eU, 0xbd47b976bda96344U, 0xbd6737d4be3f88f1U,
  0x3dcff460be2f74c8U, 0x3e2b8155be07f498U, 0xbd6b364cbd943feeU, 0xbd22cf603e0b50a1U,
  0x3dacf8993e15b3e4U, 0x3e4635abbd9365cbU, 0xbebaf5963db573c6U, 0xbd1683db3d086040U,
  0xbddd311fbec076b1U, 0xbc98adb7be1fb6d5U, 0xbd3a12af3e21b915U, 0xbb9b3914bd4c955cU,
  0xbe4dc5d93c72c243U, 0x3df4c15bbdab5fb9U, 0xbd91fcb8bda34d50U, 0x3db6f5da3cdfac4cU,
  0xbe49fb7c3e141d52U, 0xbe5c66143d3dd83aU, 0xbdcfb243bdb0396cU, 0x3e69081ebe4d8201U,
  0x3d2fa98ebf34c3ffU, 0x3abdd25c3d668561U, 0x3d9145173da7be7bU, 0xbce48df03aa0548aU,
  0x3eca217e3e84a5f8U, 0x3eb4a36a3d859ffaU, 0x3d8e82e3bd612662U, 0xbdd25ae5bd4c04a3U,
  0xbe1156d23d3b10c7U, 0x3e928fa93e22c63eU, 0xbd9dc93d3e51016fU, 0xbc2fc29f3d27a74dU,
  0x3d4045b93dc2ad00U, 0x3dea88523a158d26U, 0x3c17d8623d7b1eaeU, 0xbe742b93bd311411U,
  0xbc51bbbdbd8c306bU, 0x3e8c0b9dbea32696U, 0x3d43fa823e14d9f9U, 0xbe4c7e0cbe151accU,
  0x3e376b443d846934U, 0xbe017476be1517e1U, 0xbdc5dd433dd1f239U, 0x3d84e9483d4d4349U,
  0xbe91f59cbee5e339U, 0x3d8de8ff3d7f1d52U, 0x3d01de063e4c6eacU, 0xbd52abc7be92516cU,
  0x3dbf1f62bd134db0U, 0x3e7ed402be1301f2U, 0xbd64b850be60363cU, 0xbdefcb0a3e9ce29bU,
  0xbe236d26be0cb82fU, 0x3d0012f8bdda3d20U, 0xbefb6a45be626f99U, 0x3e6dad82be92760cU,
  0xbdef145bbf22ce7fU, 0x3d1bf0973cf716f8U, 0xbb86e11a3adeaa85U, 0x3d9a4078be2bda54U,
  0xbe01a8bbbcc27ddcU, 0x3cb51d01be0ce9c3U, 0xbda50f18be4cec47U, 0xbc6efeca3e40c7a9U,
  0xbddc254c3c483bfdU, 0x3daf964abbddec4eU, 0x3e2fecbf3ce3cadaU, 0x3e212edc3d5c9aabU,
  0xbe0f2c483e733b67U, 0x3e0e3cc4bdc700ddU, 0x3e1570753d33182bU, 0xbd6bce343e180251U,
  0x3de256443d2ca594U, 0xbc8af87abd97d5d9U, 0xbd52656cbe1dc59cU, 0xbb97bbe63e1db01cU,
  0xbdcb14453cbea170U, 0x3ece1f4dbd8b7386U, 0x3e24d8663d94868aU, 0x3df00467bd13c3e2U,
  0xbdbd6c643e3c60baU, 0x3e0ff78bbd967647U, 0xbd3a96733db633bfU, 0xbd0880193dab8b53U,
  0x3e1ed758bda67ecaU, 0x3def5ea9bdff429eU, 0xbda32147bd908196U, 0x3dbeddfd3dd9e8acU,
  0xbc9a84603ccf2ba9U, 0x3eb9b58dbdc3951dU, 0x3e43eec33d84b692U, 0x3e03796d3dae6d58U,
  0xbd67e79c3ec05f9aU, 0x3a800d86bd6fd815U, 0x3d16946b3dd1d207U, 0xbdbbf5e63c98e811U,
  0x3da9792bbc8d8f9bU, 0x3e0c5423bda005b0U, 0x3b0b62333d7562a5U, 0x3d93fd333dec32e1U,
  0xbdbd930fbd3d87b9U, 0x3e434860bd94c160U, 0x3e3dfb613dff7ceeU, 0x3e7128ccbca3ab0bU,
  0xbbd311d43ea4b71aU, 0x3e648dfcbd12f62aU, 0x3e393fa73d85bd52U, 0x3d4e45df3e373259U,
  0x3d975fcbbdc1f711U, 0x3d9a016abe13ebb0U, 0xbda45508bd8841daU, 0xbd2942483e17c6d3U,
  0xbe1074713e374eb1U, 0x3e9cc820bd72a2ceU, 0xbe50c92e3da29f08U, 0x3e0c79fb3ce5f26bU,
  0xbc9d8cb33ec4cc51U, 0x3e5d81a6bda73154U, 0x3df818ce3c8fe3c4U, 0xbdd89e5f3df5066aU,
  0x3db0e222be01a0d6U, 0x3e7ccbb1be13388cU, 0xbbbbc4cfbc9d968eU, 0x3e2080363c56af16U,
  0xbda04cae3e0e6464U, 0x3ece3fb6bdc71becU, 0x3e4dc2143ddb72b6U, 0x3e147e4f3d94fadfU,
  0x3ce9349c3ef9b9d8U, 0x3d6bcc91bd0b397fU, 0x3dd004a93da3b76fU, 0xbdf1b487bc50f4b0U,
  0xbcebd043bdc5b93aU, 0x3e496a46be107c03U, 0xbe08df91bd063037U, 0x3c3217643d839305U,
  0xbd39e331bd748ad2U, 0x3d1004a0bd87b396U, 0x3e1713023e05783cU, 0x3e648808bc5a4293U,
  0x3c831b8b3f09c73dU, 0x3e3ffecbbdc473dcU, 0xbd92e6b53d8c19e6U, 0x3e0105543d95adedU,
  0x3e0baccfbba7e21dU, 0x3e265ca2be52e4b6U, 0xbdb47e25be69a996U, 0x3dc065813e26b37aU,
  0x3a222bb23dc3f27dU, 0x3dc12b75be2a95b7U, 0xbe0790023d2cb8d2U, 0x3e3838803c8d5f59U,
  0xbd3f47693eb63f13U, 0x3d86c18ebda7679fU, 0x3db1d8123d909594U, 0xbdb2bd4c3def6df6U,
  0x3e4199afbdc82194U, 0x3e129092be1734a7U, 0xbddcb260bdb68cfdU, 0x3d487cd7bd9d6224U,
  0x3d486e54bd3d4604U, 0x3e9cf476be6eaa0aU, 0x3e3adfd63d65e42bU, 0x3e41c0f83df0df9cU,
  0x3d0b19913efc4836U, 0xbcf91863bde4483dU, 0xbe45cac23d66dcdbU, 0xbd8300603c4201caU,
  0x3ca03ff0be2d8203U, 0x3da6e90abdcdaa4bU, 0xbe3c8f2cbde06686U, 0x3e2623d8bc0b29c1U,
  0x3dd841e4bb8cbc21U, 0xbcb947e53cc31bc2U, 0xbe1966c6bd9065baU, 0xbd9448433d08cfffU,
  0xbc8c3a9bbdf77b02U, 0xbded5500bce14bdaU, 0x3bf27fe9bd8ac0deU, 0x3de9c3d4bdff0b9cU,
  0xbe087f233c223e01U, 0x3d72ea333d74ba77U, 0xbd3fc9c3bd861f02U, 0xbe067b52be4d5d94U,
  0x3e0134ae3cc7da67U, 0x3da2f8d8bd507fcaU, 0xbdc21ad1be1fe46fU, 0xbdce9fdf3cc3c14fU,
  0x3d724ab9be7ec9aaU, 0xbe5c4278bd202100U, 0xbd5f5a3e3d3b95c7U, 0x3d93ba6abda68af6U,
  0xbd4ccf803d90f66cU, 0xbd0d051a3d1792b9U, 0xbd6b39823d76bc3dU, 0xbd0a8a76bdeeb761U,
  0xbdd7c11ebb9a8d6fU, 0xbe9f510dbced7f1bU, 0xbec393f5be5a9f95U, 0xbeb597c5be328dcfU,
  0x3da410f4be8f96a6U, 0xbe42be073d891491U, 0x3d214e723e011f06U, 0x3b6d7649be0c32d4U,
  0x3dc462283de589deU, 0x3d416eba3cbea470U, 0xbd0b974fbc6ef524U, 0xbe955173bec25f1fU,
  0x3d6475e2bd091276U, 0x3d4d07a1bc0f1f1cU, 0xbe96c340bdcc7e7fU, 0xbe557bf43d412f94U,
  0x3d9558b5be980cfaU, 0xbe08a4453cc19b49U, 0xbdc30b99bd96bdcbU, 0x3c2be860bdd28127U,
  0xbdebb1663dbab096U, 0x3d88f7443da9286aU, 0x3c88f7363d7dea14U, 0xbc032a69be37a4f3U,
  0x3db780633d0c85deU, 0x3b88fa51bc94dfc7U, 0xbdc0db4dbe042cdaU, 0xbe9bcf05bdc47060U,
  0x3d573edcbdba604aU, 0xbe0b324dbb762baaU, 0x3c36d9e63d2d115fU, 0x3c50aca7be09bdedU,
  0xbd6e92f93c0ac38dU, 0xbd5afaf03e0d15b1U, 0xbcc6fd27bc244b21U, 0xbd69b865bd8ba92cU,
  0xbcbec343bdab44e0U, 0xbe7107fabe17a2a0U, 0xbecf8a31be79b59cU, 0xbeceadc2be18b8adU,
  0x3d46544cbe8415b3U, 0xbe1e0f643e3aaca7U, 0x3e21eceb3b16f4b3U, 0x3d97adc4be302e88U,
  0x3dea8cbebc14c938U, 0x3cb4c4eabb145f68U, 0x3e09f7273d48207aU, 0xbe888decbeec9873U,
  0x3e284f25bd8c8cd1U, 0xbc291afdbd18d4cdU, 0xbe590895be249970U, 0xbe4214b13cc82aa2U,
  0x3d177035be242bb9U, 0xbe207fe23cc008e1U, 0x3dcdb326bd838cb2U, 0x3e0de644bde3fc76U,
  0xbe01be993d48e7d9U, 0xbd849eb73d4292c9U, 0x3d24b2db3d2551ccU, 0x3c94baa2bde08291U,
  0x3d4b0408bdf106acU, 0x3dacdc5bbc6aa46fU, 0x3b9edc9ebe1de830U, 0xbda09060bceee5bfU,
  0x3c9c9de93cda558bU, 0xbe21506b3db97cb2U, 0x3c421fc33dea1600U, 0x3d85c561bdb8e284U,
  0xbe087caf3cd4bb01U, 0xbd78a5013d6603daU, 0xbd7fa8c53d65dfdfU, 0xbdbf5d25bdb7df75U,
  0xbe0f4e7d3c9905e4U, 0xbe30184dbd142857U, 0xbea934b1be82c088U, 0xbed47938bda22470U,
  0x3cd41803bef95ca6U, 0xbe1a43aa3e1a44ceU, 0x3dc7bf2f3df5c90dU, 0x3ce2f0fabdff6dbbU,
  0x3d8802f63ded441cU, 0x3dd7017fbccb08bdU, 0x3e25bac93e047099U, 0xbedad146be9d2af6U,
  0x3e1e1febbbcb1f31U, 0xbdfb90c43de2279dU, 0x3ef59961be90bd03U, 0xbd9f41003e1ff957U,
  0x3cfb28163ec05ea7U, 0xbdcbb3ba3e4035dfU, 0xbe057902bbf4fdc1U, 0x3e5685f43d4fbd9aU,
  0xbd456ec2bd7e7705U, 0x3d40336a3ea3e186U, 0xbcb6d0ec3d545647U, 0xbe264a30bebb41a1U,
  0xbdce10a9be238d9fU, 0xbe373fc53e9c6127U, 0x3eb5423fbd16d6f7U, 0x3da27f5b3ea12a5fU,
  0x3e72018d3d403cd0U, 0x3dffac623c907f39U, 0x3e06aa3cbd40cceaU, 0x3e13b7333d44b1e0U,
  0xbe75bd45bced3615U, 0xbee309623ca98aa0U, 0xbc7a794fbea498c2U, 0xbe05bb75be8f9d79U,
  0xbe3a3e67be8f6ba6U, 0x3e6992693ea8d916U, 0xbd8eea41bebf5e95U, 0xbef2c0ee3de03b9dU,
  0xbd70f7d03eee2c7aU, 0xbe5bc35f3d234badU, 0xbe3efb28bd506d62U, 0xbd5768193e59ff89U,
  0x3bb3f3eabdbc6209U, 0xbe7e42263b63fdf8U, 0x3e3e90f23db3a09bU, 0xbde882cabe9bd102U,
  0x3ae218033cf738a7U, 0x3d67b8613e30236cU, 0x3e898623be8ec988U, 0xbdc961033e058f76U,
  0x3e7135373d555579U, 0xbe4a147bbe33d520U, 0xbd9e2eda3dec321cU, 0x3d8664303ddb94c7U,
  0xbe87ba053e81f6a2U, 0xbe5fd3d93e9bd526U, 0x3c4fab373dfe5a97U, 0x3cb8943cbe76f7aaU,
  0xbdae2e323ce265abU, 0xbdc4c1743e430ca0U, 0x3e9787b6be9cbcddU, 0x3d6821bdbd63a078U,
  0x3e454d5d3f5e8213U, 0x3e44e1d73e69b725U, 0xbd5ee6f3bdd5c1dcU, 0x3e2558c63dbbe7a1U,
  0x3d7adf1e3c80586fU, 0xbd7dc6ae3e2613abU, 0xbb98da473cc80633U, 0xbc047ee2be8af36fU,
  0x3d08a2833dd5aca7U, 0x3e8b571abe0277dbU, 0xbe3001773daa3b4aU, 0xbec57da43e6f96c6U,
  0x3c9661ef3f271b06U, 0xbdc785d33d4351e5U, 0x3d0009f53d5628a7U, 0x3d9948943cf864b0U,
  0xbe8d48b9bda3b9d3U, 0xbe4a6db4be4864f4U, 0x3d869c243dd12b69U, 0xbdb919df3cc74428U,
  0x3d5c51863d46320aU, 0xbea92a06bdb74b2eU, 0x3dd12d65be301d45U, 0xbcf2316abd41a63dU,
  0x3deeea44bd6d30b7U, 0xbe6d865d3d14ff04U, 0xbe2850e3bcfacb52U, 0x3e43d4c6bccac53eU,
  0x3d5f14b03e4ee60bU, 0xbe1ab4273ef89dc7U, 0xbd8dd66bbdbe4e7dU, 0x3e68bacc3de2ab2fU,
  0xbde129f3be47a8a6U, 0x3ecd747a3e0df157U, 0xbc08e9dabe72e964U, 0xbe2b5e57bdee352fU,
  0x3ecc82b63f40e0f8U, 0xbe4f56243e28fc67U, 0x3c427fb6bd3e2a84U, 0x3d2128b23e55eaccU,
  0xbd8cfa983ea8bab5U, 0xbe7ed1813e2af3c4U, 0x3d1742883dc03b95U, 0x3e8c980dbe6482e2U,
  0x3e1260453d9ca186U, 0x3d18fca7bca0317fU, 0x3ebcebf93e813a52U, 0xbeb4d8663e4a04feU,
  0x3dbd9ae73f150e81U, 0xbd8ad3393dc249ddU, 0xbd0472503dea7744U, 0xbe1a4bc6bd80f3e0U,
  0x3e28811c3d2e68c9U, 0x3e8077993de60836U, 0x3e7cc6363dc726d7U, 0xbe1fa067be7e02d7U,
  0xbda8291f3e1f7c99U, 0x3e28805cbd4a7ad1U, 0xbd8e6b533d74307eU, 0x3dccf1353ddd76baU,
  0xbd758b543d40c8b4U, 0x3daf4673bda5fbfaU, 0xbd4b8474bce66054U, 0x3dfe4c41be0afcf7U,
  0x3d9d103aba42c65dU, 0x3e224563bd420d54U, 0xbd47ddce3d0ecdd3U, 0xbd4730bbbc61a8e9U,
  0xbce5b740be0fc0aaU, 0x3ea394dfbd858aecU, 0x3d8eb3bfbd6af42aU, 0x3dc182d33d997df4U,
  0xbd08231bbe3d196aU, 0xbd8ea2e6bcc7aa53U, 0xbda897883e7d904dU, 0x3c81bbbebdefed68U,
  0x3e1405233dc3443cU, 0x3e439162bd25a6b2U, 0xbd2f80193d6c07e1U, 0x3d6820ba3e12fd35U,
  0xbe83f7aebcadafbeU, 0xbe580a45bde193f3U, 0xbe7fbd2abe0048afU, 0xbe0b222abe40f911U,
  0x3d28d8a7bd753bfcU, 0xbdfaafac3dc8bb3aU, 0x3b29c2873ea3b85aU, 0xbd1b2e78bdbd587aU,
  0x3eb242ac3e0db961U, 0x3e40bcd4bd4e9785U, 0x3c0ea1b13d773357U, 0xbe633526be329c4cU,
  0xbda4fc51bc30e677U, 0x3e2fca24bd60754bU, 0xbe6c5b903d134da3U, 0x3cb6b76e3d698f36U,
  0x3d025b46bd8a2023U, 0x3d8d8810bb3c5e88U, 0x3d190ec8bd43ebd7U, 0x3c916c53be17a107U,
  0x3d03e2f43d14b609U, 0x3e934c10bd0f7f87U, 0xbd89def53d667ce9U, 0x3daf646a3baebbabU,
  0xbd0338a13d48afbeU, 0x3e7c7cb5be02c9faU, 0xbcbc90bcbce9b644U, 0xbd77fd2fbdbcdefcU,
  0x3d90fbed3e2a5da1U, 0xbc96f8dbbd4ef767U, 0x3c1edbc13df2250fU, 0x3c4c6024bdffcbf1U,
  0x3d1ee6b8bda785cdU, 0x3e6b83eb3c79952dU, 0xbd584d903d0b79b7U, 0x3d5fc8593e058826U,
  0xbe45e728bd44ea79U, 0xbd3103d3be1d1d57U, 0xbeb2e359be1f3b6cU, 0xbe25a3d7be158b29U,
  0x3cf9e52bbd5d3f33U, 0xbd325aa73e8011beU, 0x3e61bca53e265be3U, 0xbd915ed6be03f891U,
  0x3eaab1c2bd384e82U, 0x3e77c675bdab23b0U, 0x3deaee333dd63f07U, 0xbe3d19e8be93c71bU,
  0x3d0be1d8be4b4ca2U, 0x3e446a17bd868f8dU, 0xbe1c9b29bde36a41U, 0x3d2f2c41bb7c1b50U,
  0x3d2e83f63cc2adabU, 0xbc2ed6a0bc928048U, 0xbcc7658d3d65b0f9U, 0x3d7ce1b1bddb33d5U,
  0x3b5284073dc5d251U, 0x3e6e49e5bcf90412U, 0x3cc38c113bf5f32bU, 0x3dab98373cd805c8U,
  0xbd2e43d4bcfa89d1U, 0x3e86256dbe0dd3f6U, 0x3c7faeafbd8e9aa3U, 0x3e3eeb8cbd2505faU,
  0x3ab4b72c3e8325fdU, 0xbdee9a9e3bd021bcU, 0x3d6793483e671574U, 0xbe09efb7bda7b5aeU,
  0xbce4586d3cedfd59U, 0x3e70f922bb287dd8U, 0xbdfe6b6c3d16f6beU, 0xbdcdad7d3d7245b7U,
  0xbe87b620bcd3711bU, 0xbd4adba0bd538dd5U, 0xbe9c0de6be3b80ffU, 0xbdf805adbd8b97eeU,
  0x3ca7d95dbe984cf8U, 0xbc85d7883e55bb92U, 0x3e0429993ea6211cU, 0xbd9f53a8bd28dffaU,
  0x3e935f053d1e28a3U, 0x3ebfd4c3bdf88d7cU, 0x3e3848bc3df162f2U, 0xbebccc41bdbb64b5U,
  0xbd23b82cbda89d81U, 0xbd86d554baddb9abU, 0x3e326bc03db84ec9U, 0x3df29b83bd3cd9dbU,
  0xbc2edf093e46e1f1U, 0x3dfb1eb93d5c3991U, 0x3e1992da3d9cdc3dU, 0xbdd37d723e04802eU,
  0x3e057e13bce11c3bU, 0xbd9d4d48bdc4dbd0U, 0x3c9330eebc7ef1beU, 0x3dce2e363e814dd2U,
  0xbdba49b33c4852e0U, 0xbd478445bc6d1ed6U, 0x3e2d50bc3dda33dfU, 0x3d38c4acbc7a023aU,
  0xbd284bfe3eaae62fU, 0x3e6e8e013d062f0cU, 0x3d630b4bbda92ddeU, 0xbd3a3b363daa2f4cU,
  0x3cee6e55bde69b9dU, 0x3c3bee3fbd8751d4U, 0x3dae55e7bc8dd2c6U, 0x3d8dc0953e11fffcU,
  0x3df99d0bbc43839aU, 0x3ed7a8753d070bebU, 0x3ed6b9853e8d887aU, 0x3f00f7a63e3b883fU,
  0xbdde69d43ea9d268U, 0x3e354718bd120f80U, 0xbd38637ebe03fc27U, 0xbc1b7c0d3dd0996cU,
  0xbdd6690fbdcf6b73U, 0xbd40b724bb4f923dU, 0xbcf10281bd6cf27aU, 0x3eaca6643ee3fd64U,
  0xbd94d3473d90531fU, 0xbd29f22cbc86a50dU, 0x3ecc5d093dcc74d9U, 0x3e88d2a3bd5cef63U,
  0xbd7ffd0b3e7d0148U, 0x3e23622abd97ce3aU, 0x3dc7db113da0f08cU, 0x3c45373f3dbee0afU,
  0x3dbe8d7abd70bb7aU, 0xbce652d4bdbbb1ceU, 0xbd159501bd9c3e31U, 0x3d097e1e3e6ffa03U,
  0xbdef6acf3d79b93dU, 0xbc883de53aea1e54U, 0x3df1ab723e43b594U, 0x3e9a99823e111936U,
  0xbdb22b593e13ac1dU, 0x3e3c3dfcbd387dcbU, 0x3df621bdbd828eccU, 0xbdb7a01c3e3faa71U,
  0x3d885c46bd28a301U, 0x3d872f89be0f2fb4U, 0x3d44c445bdb026deU, 0x3d6269d13d9fc4f6U,
  0x3cf239e13c50f48fU, 0x3e8644c13e2f38cbU, 0x3ec5fae53e9cf5eeU, 0x3f0453423e56bf2fU,
  0xbd9ecf263ea68f6aU, 0x3e38860abe4f44b7U, 0xbd831672bcf02addU, 0xbdf8d11a3e354a70U,
  0xbdf16619bd061c96U, 0xbd0e2335bbb2ca31U, 0xbe36ee36bd4b5d42U, 0x3e8ca4963f01ac92U,
  0xbdac3808bd177767U, 0xbd09aed93c2cbfafU, 0x3e803db73e665431U, 0x3e79a542bd18bdecU,
  0xbd96a0373e215a2aU, 0x3e4b3b2cbcc275b2U, 0x3d7d20b63d253d8cU, 0xbdaba4933db27c9fU,
  0x3e10be79bdcb59e9U, 0xbc49fa84bdd97d29U, 0xbdb34ddcbd44182fU, 0x3c0bbdd53e319e98U,
  0xbd4394de3da02ef6U, 0xbdafa44a3ca667ffU, 0x3cad23f63e163600U, 0x3df65c723cb678b5U,
  0xbc39171fbdcb4170U, 0x3e298486bc7f920bU, 0xbdcea703bdeac7b7U, 0xbd1d3b953dd6b514U,
  0x3e2c4cd23b2266a0U, 0x3d4905d7bdaa29c3U, 0x3d558a86bd9bdd2fU, 0x3e0430ab3d2ca7e7U,
  0x3e3fca6bbd8b8e6bU, 0x3e5e9d74bba05c2cU, 0x3ecac2893e9aa965U, 0x3ee4a8cb3df5f3c8U,
  0xbd3486ab3f102a1fU, 0x3e17907ebe5ebd64U, 0xbe1ba036be030e7fU, 0x3c1a34793dc289c2U,
  0xbdbd3b02bdf48b9aU, 0xbe1315bc3ce913f4U, 0xbe6ca874be34e76fU, 0x3efab0283eba0849U,
  0xbe556e313e87b78fU, 0xbeaf17983ed154ceU, 0xbe8b36d4be720418U, 0xbd9044f63e490c38U,
  0xbe315aa5bb4d0a91U, 0xbb82e6013e6633a8U, 0x3ea29dccbddac745U, 0x3e7fc3a3bd998470U,
  0x3f33777c3f009537U, 0x3dde61c6beb27aa2U, 0x3e7b75a7bf076ad9U, 0x3eba592fbea26c61U,
  0x3ebc4cc63f998ff9U, 0xbd5a1c0e3de05ff4U, 0xbea6d107bf0b43f1U, 0x3f02c6a83fa3c08dU,
  0xbf9fe878bf230ffdU, 0x3ef0cee33f7a8766U, 0x3e9a3e7e3d33b373U, 0xbcf887f43dd4db2bU,
  0xbe084ccdbe9da9ffU, 0xbe114294be75e1dcU, 0x3d83bf1fbf02e827U, 0x3eb7ca1dbee7f8acU,
  0xbf16e4453dd8d65cU, 0xbeb0cf1a3ed4f7f6U, 0x3e6229603d14de87U, 0xbea582b7be16d8e2U,
  0x3c9902083ecd955aU, 0xbebb3c5c3e772993U, 0xbff7e37abf1030caU, 0x3f5b55dd3ec70d40U,
};


ai_handle g_network_weights_table[1 + 2] = {
  AI_HANDLE_PTR(AI_MAGIC_MARKER),
  AI_HANDLE_PTR(s_network_weights_array_u64),
  AI_HANDLE_PTR(AI_MAGIC_MARKER),
};

