/**
  ******************************************************************************
  * @file    human_activity_recognition_data.c
  * @author  AST Embedded Analytics Research Platform
  * @date    2026-03-02T16:58:46+0100
  * @brief   AI Tool Automatic Code Generator for Embedded NN computing
  ******************************************************************************
  * Copyright (c) 2026 STMicroelectronics.
  * All rights reserved.
  *
  * This software is licensed under terms that can be found in the LICENSE file
  * in the root directory of this software component.
  * If no LICENSE file comes with this software, it is provided AS-IS.
  ******************************************************************************
  */

#include "human_activity_recognition_data.h"
STAI_ALIGNED(8)
const uint64_t g_human_activity_recognition_weights_array[688] = {
  0x3e19c662bb7c6fb4U, 0xbc9e023dbe115302U, 0x3da472f33d3a9e55U, 0xbb82191a3e15fe9dU,
  0xbd004957bc458c72U, 0xbd70bdc43c940a70U, 0xbda7010fbd8edf41U, 0x3cbf571ebce07218U,
  0x3e1495e1bc9578a3U, 0xbd25fcf6bd37f31cU, 0x3dfe85cabe4d2234U, 0xbbe2d80bbc6187a8U,
  0xbd900d3bbd77896fU, 0x3d0f57543d547c62U, 0x3c28afddbd1be601U, 0x3c9050dc3c71f871U,
  0xbe1318ec3e04bc17U, 0x3d8197a9be320ed3U, 0x3d78b0fdbcb3c4c6U, 0x3c9abc0dbe29df86U,
  0xbcf6638dbbe9dcdcU, 0xbd115357bdae4b18U, 0xbd38d913bd1c0b72U, 0xbd6f7985bdc0c351U,
  0x3dbab6a33c396ccbU, 0x3d7f0fb23c9916c3U, 0x3c89789bbd5268fdU, 0xbd0220ec3dffa565U,
  0xbce362aebdc606c4U, 0x3ca219d73a9790ceU, 0x3db36409bb3b8336U, 0x3ceb37eabd00e765U,
  0xbe051d853cd0569bU, 0xbde544cfbe13af2bU, 0x3c28d425bdc87fa6U, 0xbdf3b3a0be24c9e6U,
  0x3cc004c539a24a52U, 0xbbb9bc3e3c872bedU, 0xbdb9ce69bca49512U, 0x3c5ae12cbce579eaU,
  0x3c6b97003da2a6d5U, 0xbc4ebf8a3d42de01U, 0xbd4eaa53bbe39b56U, 0xbc1f5cd9bdae9c4dU,
  0xbd8c49ff3d9c4be6U, 0xbd2ca9e23d868a07U, 0xbd5b7c263cb07036U, 0x3e0439c23cfaa709U,
  0xbd85def63dd79c5eU, 0x3d4f2d33bd107c3eU, 0x3b98a7d0bdf7e0deU, 0xbd52cd47bdf4abc1U,
  0xbdcb3682bda27955U, 0xbde4e3d6bdcff80fU, 0xbd51bf23bda2761bU, 0xbaa5d7d1bd2d22e7U,
  0xbc0fe887bcdcf444U, 0x3c5699423bf6d6f5U, 0xbcd73fc33ba94d5fU, 0xbd8a6b08bd62e529U,
  0xbe5337c9bdc86d8fU, 0xbd8fbc8cbe525163U, 0xbcbf56c7bda16745U, 0xbd489310b9a30312U,
  0xbbec1764bc6e86daU, 0xbe23eedabe02c0d5U, 0xbd77055fbd41133eU, 0x3d2684e0bc66785cU,
  0xbcebe225bd60b55cU, 0xb88aca42bd068cccU, 0xbd37d8083c949bf1U, 0x3c96d6f7bd3a5687U,
  0x3d4e257a3d27a9d3U, 0x3d40600a3da190ebU, 0xbd8948013d1406a0U, 0xbe1d6054be1c492cU,
  0x3cfb2c2abd6543c3U, 0x3d1698edbcad590cU, 0x3e169dc13ddfe1e2U, 0x3dd85a8d3e07750fU,
  0xbc380874bcd32964U, 0x3bc0595fbc8e77f8U, 0xbd1b8139bbe5b013U, 0x3da522b23b44536cU,
  0x3d9f83ef3d942381U, 0xbc0d528c3d45b0bdU, 0x3c559a3d3ca73669U, 0xbe51d94abe0b3040U,
  0xbe245b1fbdbed11eU, 0xbe936c0c39f01994U, 0xbda8bd2abd9af219U, 0xbbbf8719be11043eU,
  0x3d02192ebdb69cd3U, 0x3d0f9e76bb5c15f7U, 0x3c3cc72a3d154040U, 0x3cc957903d07901aU,
  0xbe18513ebd9f85b9U, 0xbe10ff6abdb755d3U, 0xbcfadc40bd704f87U, 0x3d718f66bd3c2060U,
  0x3cf58aa33cdcbffdU, 0xbd8f566cbcfd62d0U, 0xbd36a874bd788693U, 0x3d049a6ebc28a060U,
  0xbd9e2baabdd0872aU, 0xbbf37a95bdd3c150U, 0xbbaa236dbc28f084U, 0xbd10c432bcfea597U,
  0x3b7a24cabd22dd82U, 0xbd81aa51bd6301ddU, 0xbdc6cb98bd5c8dcdU, 0xbe622da43d4919daU,
  0xbd50a45ebc9d153cU, 0xbd9681e4bd42b763U, 0x3a47444abcaf81c1U, 0x3c9f06a83d8f5d9bU,
  0xbd2a0f4abc533114U, 0xbdc9cfe4bd72da18U, 0x3d4f9219bcdd0447U, 0x3e0b1a0b3ded313dU,
  0xbd030925bd0c8adfU, 0x3ba46d113dbce7d3U, 0xbb4526fc3daed5bcU, 0xbdda7d22bcd35df3U,
  0xbe091dddbdda9b9dU, 0x3d3dc4903e18b64fU, 0xbd1011fabd34656bU, 0x3dc688e33d2122c4U,
  0xbdcee55cbc1551aeU, 0xbddecc4ebe096dadU, 0xbdad0342bdb96593U, 0xbdac29f6bdc02845U,
  0xbcbe7273bcb5cdddU, 0xbda623c6bca4a15eU, 0xbdfa8b17bd526175U, 0xbe36b5fdbe238d93U,
  0xb9945b14bbec7255U, 0xbcea182cbbed913eU, 0x3c69357bbcfdbafaU, 0xbd5adb7a3c968962U,
  0xb888008cbd526948U, 0xbd380db63c876011U, 0xbbcf8ff4bcf60611U, 0xbc51a2383c99ba26U,
  0xbe5f2b1e3d0bcc07U, 0xbd996743bdc9a8c9U, 0xbc8a1c68bde74657U, 0xbd6c6029bda47a3dU,
  0xbd8c35ccbdc012e8U, 0xbd935f79bd2d2520U, 0xbd8aad27bd82a5d5U, 0xbccd76ddbd471d85U,
  0x3d656e163d7301b7U, 0x3d31011e3d90e0bdU, 0x3cc117053ca3d7afU, 0xbd473ebabd31a3daU,
  0x3c19e276bda2775bU, 0x3cf2c8203d199ba9U, 0x3d7847093d33ccd7U, 0xbcc670f1bb001889U,
  0xbca6de3d3d9ceaabU, 0x3d9226333e242aebU, 0x3be16ad4bd4970f1U, 0x3d01c659bd89e6efU,
  0x3bf0b8023c8b7ee0U, 0xbd3fc6bf3da3f19dU, 0xbd9d927c3dc88b88U, 0xbe22918bbdab79d5U,
  0xbb725965b9476bf4U, 0x3d52b984bc5b02d7U, 0xbdd408be3d07fe8cU, 0xbdbcaa12bd0e51b7U,
  0xbdc899d8be0ac4deU, 0xbc4900af3beaaf3eU, 0xbe06d141be2fead1U, 0x3c9543bdbd4f2982U,
  0xbcd801763c4e0e8eU, 0xbce5abd0bc802d3dU, 0xbc3661113c8580b1U, 0x3e7e617f3dbebef3U,
  0x3c5dbe803e3ff6a3U, 0x3d260d4bbccf5d95U, 0x3e081cb0bc70b197U, 0x3d8c22c53c046d68U,
  0xbd283c3fbd1e3767U, 0xbcc00209bcecc412U, 0xbce6211a3d61a414U, 0x3e8e43053d520418U,
  0xbc4b93793e16fb6bU, 0xbcb829b9bca307f6U, 0x3d3a517dbd1e094cU, 0xbdd42247bdb7ed91U,
  0xbf56c9fbbb7f368bU, 0xbf8d726abc5faaaaU, 0xbfbcffc6bf70fad3U, 0xbf89b7dabf9a820eU,
  0xbeb88adbbfabd358U, 0xbd01cc98bfaabda6U, 0xbdf2b1353ee08a45U, 0xbf2605a1bcd052d7U,
  0x3f827123be1b9daaU, 0x3f13f5813f08d97bU, 0xbcddfc7cbeeb9be8U, 0xbe9b2cd13d1a0ed3U,
  0xbfcefe97bfd0271eU, 0xbfccad8abfcdd611U, 0xbfca5c7cbfcb8503U, 0xbfc80b6fbfc933f6U,
  0xbfc5ba61bfc6e2e8U, 0xbfc2e752bfc491dbU, 0xbfc125c8bfc240cdU, 0xbfbec739bfbfefc0U,
  0xbfbc762cbfbd9eb2U, 0xbfba251ebfbb4da5U, 0xbfb7d411bfb8fc97U, 0xbfb507f4bfb708f0U,
  0xbfb331f6bfb45a7cU, 0xbfb0e0e8bfb2096fU, 0xbfae8fdbbfafb862U, 0xbfac3ecdbfad6754U,
  0xbfa9edc0bfab1647U, 0xbfa79cb2bfa8c539U, 0xbfa54ba5bfa6742cU, 0xbfa2fa97bfa4231eU,
  0xbfa0a98abfa1d211U, 0xbf9e587dbf9f8103U, 0xbf9c076fbf9d2ff6U, 0xbf99b662bf9af97cU,
  0xbf976554bf98a74eU, 0xbf951447bf963ccdU, 0xbf92c339bf93ebc0U, 0xbf90722cbf919ab3U,
  0xbf8e211ebf8ecb30U, 0xbf8bd011bf8cf898U, 0xbf897f03bf8aa78aU, 0xbf872df6bf88567dU,
  0xbf84dce8bf860306U, 0xbf828bdbbf83b462U, 0xbf7fd61ebf816354U, 0xbf7bd380bf7e248eU,
  0xbf76a003bf7a36b3U, 0xbf728f4abf74e058U, 0xbf6ded2fbf703e3dU, 0xbf694b14bf6caa3cU,
  0xbf63e738bf66fa07U, 0xbf6096fbbf6257ecU, 0xbf5b0a02bf5df1e5U, 0xbf56c2a9bf59d148U,
  0xbf5119abbf54719bU, 0xbf4d7e73bf4fd9e0U, 0xbf48dc58bf4b2d65U, 0xbf443a3dbf46251aU,
  0xbf3f9822bf41e930U, 0xbf3af607bf3d4715U, 0xbf3653ecbf38a4faU, 0xbf31b1d1bf3402dfU,
  0xbf2d0fb6bf2f60c4U, 0xbf286d9bbf2abea9U, 0xbf23cb81bf261c8eU, 0xbf1f2966bf217a73U,
  0xbf198cecbf1cd858U, 0xbf15e530bf18363dU, 0xbf11fda6bf139422U, 0xbf0d6f86bf0ec6f4U,
  0xbf07fedfbf0a3ff9U, 0xbf03db80bf05952eU, 0xbefca909bf010bb7U, 0xbef4b6f4bef89e6fU,
  0xbee9f693bef01c25U, 0xbee0d986bee6d595U, 0xbeda1a78bede2052U, 0xbed128d3bed482a3U,
  0xbec56614beca43e0U, 0xbebc68ecbec29674U, 0xbeb3f8dcbeb8141eU, 0xbeaa8258beaef2eaU,
  0xbea18e6fbea5c6c4U, 0xbe987d50be9c933eU, 0xbe8eb7acbe9471b4U, 0xbe853888be893292U,
  0xbe77cccfbe805686U, 0xbe6396fdbe6f1eeaU, 0xbe50fd5cbe59e160U, 0xbe414fcebe4a1068U,
  0xbe2b99a5be35dad1U, 0xbe1851d5be2113f7U, 0xbe067026be102244U, 0xbde937dfbdf9b515U,
  0xbdc4f9f6bdd8970aU, 0xbd9c29b2bdaea471U, 0xbd72f147bd8c1062U, 0xbd2d620dbd4dfa76U,
  0xbcc4ce0cbd05b9f1U, 0xbbb8a7c0bc785c7bU, 0x3c3ee0ec3b05e70dU, 0x3cefecb73ca754d7U,
  0x3d42bb163d1c5b9aU, 0x3d87e45c3d6b1be2U, 0x3dae12393d9ac91eU, 0x3dd3c5983dc01649U,
  0x3df95ac13de4e0f2U, 0x3e0fab503e06bd43U, 0x3e202daa3e182f68U, 0x3e3341e43e29338bU,
  0x3e4606723e3b87d7U, 0x3e570b373e4ea3f7U, 0x3e6aa1783e5fea3cU, 0x3e7d64213e738ec0U,
  0x3e88beb23e83c18aU, 0x3e907e593e8c9c71U, 0x3e99d58e3e95c601U, 0x3ea216dd3e9ea8e1U,
  0x3ead17913ea84186U, 0x3eb5427a3eb0f767U, 0x3ec09f583ebaef71U, 0x3ec770683ec283a5U,
  0x3ed2527b3ecaea6bU, 0x3edb19eb3ed5cba5U, 0x3ee3343b3edf227aU, 0x3eedea7c3eea17bbU,
  0x3ef895003ef24befU, 0x3f0019203efc24daU, 0x3f055d933f031979U, 0x3f08bcb53f070c48U,
  0x3f0e7adc3f0bae63U, 0x3f12a18b3f105dc1U, 0x3f16f62e3f15a97bU, 0x3f1be5c13f1994b4U,
  0x3f2087dc3f1dbcc4U, 0x3f2529f73f2369b1U, 0x3f2a649d3f277b05U, 0x3f2e6e2d3f2c1d20U,
  0xa4c6d9abbbaca0beU, 0xa0b5b7bba7c3a9cdU, 0xacb7c0adc8bec7b3U, 0xc3abc5a6bdb2aab2U,
  0xaba8b9acbab6aac2U, 0xaeb8afa9bbbeb8b9U, 0xd38fd093d5c6b3acU, 0xaea9aaa1c1eaa8e0U,
  0x92cdb5a3afc0b1b1U, 0xb9b7dfa6dab19abdU, 0xacb5b6abb7cfa7d8U, 0xb0bbab9ec8c8b99bU,
  0xc099bfaebbaeb8b8U, 0xa4acb3a9c0bfabc2U, 0xb7b8b9a1ccc1aaaaU, 0xea8cd58bd8c9c0a5U,
  0xadb2a49fc2fa9cfdU, 0x96d2b1a9c6cab19cU, 0xbab8dba8cab1a2b7U, 0x9ebab3b5b8c797c9U,
  0xacbeb3a5bcc2c2a7U, 0xcea4cac4b4afb6b4U, 0xa5a3b7a5b7b8b0a1U, 0xb0c0b7acb7c6bfa3U,
  0xd2a7fa9ad5bdb49cU, 0xaab0b0a2c1ea9dffU, 0x97c7bfa5b9cbbfa3U, 0xd1d0b0ab389d9a9bU,
  0xb2c9b9b29395b5ceU, 0xcbbdacc4c1a7a2c8U, 0xe49a80d6818791b1U, 0xc1c1bdc598a3bdd7U,
  0xa5bd9cbec3b3aeb5U, 0xdea4adbbbcafa6a4U, 0xcbb0a3cd96c9b5dfU, 0xabcbb1c4afbfcb89U,
  0xa9b35aa559a053a1U, 0x95c0aebbad98c9beU, 0xcdbaadcbb4d3b4b2U, 0xdcae2ed07d98c2b6U,
  0xd9c7a8c9a5bab79bU, 0x95a490a7a9d3b6a2U, 0xbbab75b3adceb29dU, 0xa199a0a4abe3a2d7U,
  0xadc3af97b5a5cdb9U, 0xc9bca0b8b4a554a1U, 0x9da79eb5a4a7a6c5U, 0x98c8929eb8c5b9ceU,
  0xb1ef17b3acbf91bcU, 0xa794b5b393a7b0beU, 0xb69db681a9cdba9cU, 0xc5cbce9fb5b8c990U,
  0xb89999aab4f5a2c4U, 0x99b5ac82bbb6a3adU, 0xc4a196bfaba2b6a4U, 0xbcac9dc0a8a9bac1U,
  0xc4a8adb7b7c2c4b5U, 0xb39c99bbbebaaab8U, 0xaaabadce9cbaacc9U, 0xaea5ada4cdacd4aaU,
  0xafb099b49fa5a9b0U, 0x9b9f9fc0b1c6bbafU, 0xbdb3cba7c4b3e1b0U, 0xba9c94a7a2afb59bU,
  0xa9b79cbfa4b0bab7U, 0xb5abb9bbb1c3d1beU, 0x9ea895b7b9afa4bfU, 0xacb9adbeb0aeacc4U,
  0xb0a4a9b0c1b4ccadU, 0xa0ac90baa3b0a4abU, 0x99aa9ebcafb8bba5U, 0xacacccaab3b6c3b7U,
  0xada385a394adb0a6U, 0xb3b393c8919fbeb9U, 0xc0afb3b1d8c2cfc9U, 0xb1b794aec8a9bbb5U,
  0xb0aca7c999b0c0ceU, 0xb9acafabbdc1cfc6U, 0x97c686b59cae9ab9U, 0xa599b4bdbda4c6bcU,
  0xb3b2bda8bbb5dbb0U, 0xc1b094c2b29fb1aaU, 0xb5a1a6ca99a5b7caU, 0xc1adacb4c0c3d5aeU,
  0xb9a796bcc5baa2b5U, 0xb4a8abce99beaac8U, 0xa9acaea5cca9e7a3U, 0xaeac99b0aaaaa8acU,
  0x9e9e9bbbb3d4b4bcU, 0xb6b4c6a2cfbbd8a9U, 0xbb9e9faaabacb7a6U, 0xa7ba9eb8acb9b7c1U,
  0xaeb2b2afb7cbccbdU, 0xa8aa95b7c3aba4b8U, 0xafb7a7c2b2bdaacfU, 0xa8a8a5a5ccc1c4aaU,
  0xaba990b5abb7a7a9U, 0x9aac98bdb0c1b9afU, 0xadabc9a9b5b8cfb4U, 0xaeaf879fababaaa7U,
  0xb9ae9acb91a9b8bdU, 0xbab7b0add2c5d4c7U, 0xb2bd9bafc6a7bab3U, 0xaea3a9cc9bbebac5U,
  0xb1b2b0a4c9c6d0bbU, 0x95c78fad9faba1b4U, 0xa399acc3bcb4c0b5U, 0xb0b2c2a0beb5d1adU,
  0xc3d8aba82e96a8a0U, 0xbac6b9b58c7eaed0U, 0xd2b3a9bcceafb2c1U, 0xd0aa82d37688ab9eU,
  0xb6d6a0ca94a7c6cfU, 0x9dbc98c3beb8b1bcU, 0xcabcb8c7a1989fa6U, 0xdcaaa8d093c5b9c6U,
  0xb6c2b4c6a5bcc281U, 0xa0b740b3559551a9U, 0x98b0b1c7b39cd4adU, 0xc3c1a7d7b1d6aeb9U,
  0xe7b716cb789cbdc1U, 0xe4c4a1da9fb5b7a4U, 0x9ba3a0a6b4c2a6aaU, 0xbab45ebbadd2a999U,
  0xa39fa6a7a5dca7cbU, 0xacc7b28fc3b2c8b9U, 0xcfc1aed1b4a54e9bU, 0x9ca59caca0a5aecfU,
  0x9dc99ba6bed8a9beU, 0xacdd0baca9be94b9U, 0x9fa1c2ad9aa4afb9U, 0xaf9aad87adc2baa6U,
  0xbbdcc3a1a5b5cf8eU, 0xba9794bbaff1aeb6U, 0xa2ada284afaab0adU, 0xaac1d9acbcaca0bcU,
  0xa1b4b8bca9c4a9c9U, 0xb0b5beaec5bdcab0U, 0xc1a8bca8bcb0adb3U, 0xacaabaacb7b1acc4U,
  0xaeb9b1acb9bbb1b5U, 0xd192d098d7c1b2abU, 0xb0aaaca1bee5a9dcU, 0x97c8b2a8adc0adb1U,
  0xb9b6d5a7d4ae9abeU, 0xadb9b6abb4cbaad7U, 0xafb9a99fcfcac09dU, 0xc39bbdadb8afb6b6U,
  0xa2abb3abbcbfacc3U, 0xb1b8b8a4c3bdb1a9U, 0xe591d18dd8c8bca5U, 0xb0b5a19fbff19cfaU,
  0x99cfb0abbfc9b8a0U, 0xb9b7d3accfafa3b7U, 0x9ebbb5b9b5c39cc4U, 0xacbdb4a8bec2bfa3U,
  0xcea6c9c3b4b2b4b5U, 0xa7a4b8a7b8b6ada4U, 0xafc0b7acb4c2c3a7U, 0xd3a7f89bd7bcb4a0U,
  0xacafaea2bfe59ff4U, 0x98c5bca2b9c9bba6U, 0xaeacb9b6aebcc7aeU, 0xc2b7baa7caadbd9bU,
  0xb3b7abb8a5a79cb5U, 0x9ec8c0b6a4b4c3b3U, 0xb9c4b5b6b6bbbc9bU, 0xbeb0b8bdaab3b1b7U,
  0x91d2d0cf9aa3b9bfU, 0xc1c8c5bfaa7fb78eU, 0xcda2adc3b2a9a4b3U, 0xabc1c6ca91b2cdb2U,
  0xbca8b9bcb2a1bb92U, 0xbcadb6c89d9aadc6U, 0xa0d5ccbaa4b4bdafU, 0xc3b4b1bba9aabe95U,
  0xb8b7b7c3a2a9bdc0U, 0x8bd8c8d9939cb0c7U, 0xc1c1d5c0a677c57bU, 0xcfa1a8bcaba4a4c0U,
  0xaeb6c4c4a5b5c7b3U, 0xc9acc0aac4afcd91U, 0xb6aab4c5a3a4a5b9U, 0x96c1c0a1a4bcb4b5U,
  0xbdc6b4bcb8acb9b1U, 0xbba6b7beb2a09ec0U, 0xb1b6b5cc9aa9b9c8U, 0xbccfc0c3a484c17fU,
  0xcfa0a4d0aba6a7c2U, 0xc3a590c1aaa1b3a4U, 0xbcafa1bea4aeb8beU, 0xc1a8aab3c1c4c9b0U,
  0xb6a092b9c5b9a6b7U, 0xb2b7b3c0a4bbb0c1U, 0xb5a8a9a6d1aad4aaU, 0xb3a896b19ea7a9afU,
  0x9d9d9fbdb1c6b7b8U, 0xb9b3c9a5cabcd7aeU, 0xbc9995abadb4b6a1U, 0xa7c0a0b9aab2b6bfU,
  0xb8a6b4b4b2c3d2b8U, 0xaba996b9c2aea4baU, 0xadbdadbcb6b2a9c8U, 0xb2a8a4afc6b8d0b2U,
  0xa6af8ab49bb2a2a9U, 0x9da999bfacbebaadU, 0xaaaecda7b6b5cfb9U, 0xaeab8ba6a0acb1a5U,
  0xadb493be94a1b6baU, 0xbfb2b1addbcbcbc7U, 0xb0b899b7c9a8b5b1U, 0xaca3aec29cb3bec4U,
  0xb6acaaa5bcc3dcbaU, 0x9ac88bb29dad9eb5U, 0xa797afc6beb1c3b7U, 0xadb5c2a3c2b0cfafU,
  0xdbd2a3b7308da5a2U, 0xb2c2b4bf8292b6e6U, 0xcac6aeb7bdb0adc0U, 0xdcaf92c3567e9ca6U,
  0xbcceadcf9298bce5U, 0xa8bd97c9cab8b1bdU, 0xe3a8b4ce9ea0a09eU, 0xd8afa3c789d1b1c8U,
  0xb3c8bfcdadccca7fU, 0xa4bf45a6568c49a0U, 0x97b1bcbab694caafU, 0xd6b89fdaa6dbadb1U,
  0xefa90dd571a7c5b5U, 0xd0c19fd09faab9a0U, 0x8fac9aa2acc9aaa0U, 0xc3c15ac69bd8a796U,
  0x9fa1aeabaddca1d0U, 0xb1cab295c6a1cab3U, 0xd3bd95bda8a54893U, 0xa6ab9aaea4aba7caU,
  0x98cf9b9cc1d8b4cbU, 0xbdea00a9b1b489c2U, 0x9e94bbba8dafaac1U, 0xbd98ac83b8dba48cU,
  0xade2d9a3a8c0cf83U, 0xac999ab09df2a8c4U, 0xa4b6a580bcb598a9U, 0xb78a8dbba7b9b1b9U,
  0xb5bda8afb697c2abU, 0xc9a9bdbbaaaf94c4U, 0xa19c8db6b5c4a1c3U, 0xacc0bbaabea1bcacU,
  0xb8adbeb2bb93a6c9U, 0xa2a297af97b8a6c0U, 0x9bb1b2becaacc294U, 0xc6b2d1afc59fb0cbU,
  0xb29088aa9ac1aca9U, 0xa8ccabacbe95c3a4U, 0xbfafcbba9ea7adc7U, 0x9ca485aba4be9cc3U,
  0xa8cac1afc788baacU, 0xc1aec2b9b4a2a2caU, 0x93a486b791b9a0bcU, 0x9fb4b3b6bf93c98aU,
  0xb5abd5b8aea8a8c6U, 0xa58f80a690bfaeb2U, 0xa7c7a1b8a786c7adU, 0xc6adc4b6baadb1d7U,
  0xa49c9bb0b4bfb4bcU, 0xa6b2acb5c198c9baU, 0xbab4beb3aaaab5d4U, 0x92b47db791baa1cdU,
  0xa5a6bebecd97d39aU, 0xbdb2c6b5b4a5b7c0U, 0xc9ae93c4afb6d0a1U, 0xcaadabb2b5a5bea1U,
  0xbcada0b9a4b5b4a8U, 0xadc2a7cba9adc5b1U, 0xc6b5abc6a3beb7b1U, 0xbaacadbeb1bac5a1U,
  0x94ec9fe29b95bbb4U, 0xbfbab9c7978cb997U, 0xd095a8beb4b4c7acU, 0xaebb9ac591b1d6a1U,
  0xc0a9aac0aaa9baa0U, 0xbaa8b1caa1a4bac8U, 0xa1d3afc7b8b2bca8U, 0xcab8aec19cbcb4aaU,
  0xaeaaa6c3a2b3d2b0U, 0x7de9a2e69b95aebaU, 0xbeafbfcd987ec67bU, 0xce94abbda1a5bfc3U,
  0xb8bf9bc6a4b0c5a8U, 0xd3a6acb3a6b1c79dU, 0xb9a9a9c1b2a7b5bcU, 0x99d0a6a6b8b2b8aeU,
  0xcec2aecb9fb9b3c2U, 0xb7a3a9bdbaacafb7U, 0x98d989d998a1b8c1U, 0xc2b1b2c89888c37aU,
  0xcba09dc5aba5b4baU, 0xa5b9d1a5bfc7b4c2U, 0xaebec8a5c6c2b3a5U, 0x9fc7b5b9a9a99fb4U,
  0xb3c9cea59eafbcaeU, 0xb8b9bda2c3afb99eU, 0xb8c1c0c3a1c896bbU, 0xb5c2d2b7c7bfbeb6U,
  0xd0c7cea9b3a2b1b1U, 0xb1ac9fc19bb390b3U, 0xa8d5d2c3bbb5b9c3U, 0xc1b0c8adb8b1afafU,
  0xaebeadb7ab9e95aeU, 0xb9c1dab7a9bcc4aeU, 0xbeabbcafb2bdbb9cU, 0xb9c4c1bba5a893b3U,
  0xc0c3d9b0c2b1c2bfU, 0xcec2cdb4b8a6aab8U, 0xc1b69dbdb7b192acU, 0xb8c3edc7c2b8b9c1U,
  0xb4b0d1a3dabcb1a8U, 0xa8b3b8ba919d99a1U, 0xb5b4cebaa0bfb2b5U, 0xb8c0c2a1c2b5ac98U,
  0xb6b8b7c0a39c8fadU, 0xd0a1dbb2cdb8cab5U, 0xc5d3bba8a8b9a6b0U, 0xb6b7a7caa2b68fb7U,
  0x3e6b62353e6775eeU, 0x3f3b53a93f16394cU, 0x3e8cd7113e47a839U, 0x3f1632e7bedea53cU,
  0xbefb25fe3ea893b4U, 0xbf257c083eaa1e4eU, 0xbe03e0eb3ea3ba7eU, 0xbddbd385be598664U,
  0x3f046e81be6a2f2fU, 0xbc874eae3eac0e61U, 0xbee25b00bed97d9eU, 0x3e309f56befdb459U,
  0x400ad92e3eaa8419U, 0x3eb0e7643e509fb0U, 0x3f12f5a040110c93U, 0x3ed97c03bed03915U,
  0xbf456a933fd2b0e2U, 0xbe7aa0a23f46b437U, 0xbdc2e19a3e8454ddU, 0x3e7c81b33dfd2c74U,
  0x3ef077fbbe4f3021U, 0x3eaa871dbe1b744fU, 0xbd418cfebecb1b22U, 0xbe2aa424bef4b607U,
  0xbdf98a00bf07e6d4U, 0x3e76973b3e14154eU, 0xbec83f15be6052caU, 0x3eaac0813ed68f35U,
  0x3c9c4522bed545aaU, 0xbe1e31083eabaf84U, 0xc0197d58be5a6676U, 0x3f1225523effb4ebU,
};


