/**
  ******************************************************************************
  * @file    network_data_params.c
  * @author  AST Embedded Analytics Research Platform
  * @date    2026-03-26T09:01:07+0100
  * @brief   AI Tool Automatic Code Generator for Embedded NN computing
  ******************************************************************************
  * Copyright (c) 2026 STMicroelectronics.
  * All rights reserved.
  *
  * This software is licensed under terms that can be found in the LICENSE file
  * in the root directory of this software component.
  * If no LICENSE file comes with this software, it is provided AS-IS.
  ******************************************************************************
  */

#include "network_data_params.h"


/**  Activations Section  ****************************************************/
ai_handle g_network_activations_table[1 + 2] = {
  AI_HANDLE_PTR(AI_MAGIC_MARKER),
  AI_HANDLE_PTR(NULL),
  AI_HANDLE_PTR(AI_MAGIC_MARKER),
};




/**  Weights Section  ********************************************************/
AI_ALIGNED(32)
const ai_u64 s_network_weights_array_u64[754] = {
  0xbbebd9febd3f2129U,   0xbd15024d3cc34706U,   0x3b9a0e433cab67fdU,   0xbc0cdd173cb0ae3eU,
  0x3c77b0a23c283249U,   0xbc1bfb40bc84a888U,   0xbcfad3dd3c83eb39U,   0x3be4d26bbc8cf03aU,
  0x3cf9f869bb4b8809U,   0x3d444355bd25c2a3U,   0x3cad4bd83c8affe1U,   0x3cc3a3833cd572a2U,
  0x3d014d5b3d3586d7U,   0xbc4931d23d29d43fU,   0x3bd6f56a3bbf6148U,   0x3c5b1feabccfc1e3U,
  0xbd229bbabc3e3c8aU,   0xbab4238c3c1e2048U,   0xbb8fc15f3b7d1dd5U,   0x3c94d7ff3c844f1cU,
  0xbc97d8ac3b04ce90U,   0xbbdfee17bd3d1d29U,   0xbd259733bc7f1fe4U,   0xbc49d7d83cc6e3acU,
  0xbd41d2a43cb2517cU,   0x3cb4bab0bc823945U,   0x39b36164bd4e287cU,   0xbce7947bbd171949U,
  0x3d1e79223c0481bcU,   0xbb825e43bcb93c13U,   0xbc000c5fbd00a7f6U,   0x3ce2d5ea3c59dc0dU,
  0xbc644f25bce606ecU,   0xbd392ec63cc71190U,   0x3ad23eb8bd2e39a7U,   0xbd116b553cf712a1U,
  0x3c55a5363bbf4591U,   0xbcd791f23d1dec4fU,   0x3d310f6d3d07fc55U,   0x3cfc18613cd8676aU,
  0xbcef3b063cfcb1cbU,   0xbce878883d1f8fecU,   0xbd4b3a2abdb7e2b6U,   0xbcb425403d1509fdU,
  0x3d1614de3d6c6249U,   0x3bb3a0163d603d13U,   0x3d5285c63c923bedU,   0xbd950dc7bd10b76aU,
  0xbc43ff4d3c50d118U,   0xbd2f225d3cb3e8dbU,   0x3cd892ac3ccf5540U,   0xbb7fefcf3d1eed0fU,
  0xbde6bb3b3c414523U,   0xbdb3b34f3da55c00U,   0x3b7c05a33af4334fU,   0xbc9d3669bd6b17e8U,
  0xbc43fb1c3c50d549U,   0xbd2f21503cb3eaf4U,   0x3cd894c53ccf5759U,   0xbb7fdf083d1eee1cU,
  0xbde6bab53c414954U,   0xbdb3b2c93da55c86U,   0x3b7c166a3af454ddU,   0xbc9d3450bd6b16dbU,
  0xbc43f6ea3c50d97bU,   0xbd2f20443cb3ed0dU,   0x3cd896de3ccf5972U,   0xbb7fce413d1eef28U,
  0xbde6ba2e3c414d86U,   0xbdb3b2423da55d0dU,   0x3b7c27313af4766bU,   0xbc9d3237bd6b15cfU,
  0xbfe932b03f7ef183U,   0xbeaba6173fa3a604U,   0xbe888267bedacc1eU,   0x3c1530b53eca5d0dU,
  0xbeb649d53f1ef717U,   0xbeff27b0be57ff80U,   0xbe0703c1bebda6bfU,   0xbe128aaa3f893d4eU,
  0xbf5da7643ef1be01U,   0xbf35556b3c4e79cfU,   0xbf2bc951bedcfaf4U,   0xbe0a66513f4bdcd8U,
  0x3ed33eca3ed9a9f3U,   0x3f1ce3b73d1c3d9bU,   0x3eb84d2e3eccc294U,   0x3d75914abf00221cU,
  0xbefd94033cd6d3b6U,   0xbf45af383e6aa49dU,   0xbf127a76be9ccdbaU,   0xbf99adbb3f5a408aU,
  0x3e357ae1bd890aa4U,   0x3f31c12d3f0573f6U,   0x3d7794db3f3140c5U,   0xbe119e043d483181U,
  0x3fa65aeebdc804f5U,   0xbe6da1d63f045797U,   0x3e96e9c13da7cab8U,   0x3f2e79303f1f005eU,
  0xbf3e9dfd3e8c010bU,   0xbde9297d3f02a444U,   0x3f23b65cbf45c749U,   0x3f18df36bdb36654U,
  0x3f40d96d3e3866fcU,   0x3f4e5289bf814221U,   0xbcc7b6643f906228U,   0x3f6fadfebe16a6a6U,
  0xbfbf658fbbf5304cU,   0xbf9cdd5dbf52455aU,   0x3dac484cbfafeb6fU,   0x3f5058db3f40c62aU,
  0xbf7cfdebbef2680eU,   0xbf13f79c3f8aac0bU,   0x3d56da26be0c299cU,   0xbf81a39dbe8b5921U,
  0xbe9015f13f1f36edU,   0xbe49a03b3f13a236U,   0xbe6efe49bf7ccbf1U,   0x3e5bff3e3f426f9cU,
  0xbf3c51bdbe1e034aU,   0xbf2afb283f5546acU,   0x3e17699c3e987061U,   0x3f262e813e0c6b19U,
  0x3e5d83253dbb4ce9U,   0xbe7109183ed02a12U,   0xbdf0cbc4bc9f3aa2U,   0xbe6940bc3f0bc98dU,
  0xbe00904ebe9bfbf8U,   0xbf5462783efe62f9U,   0x3e0028ca3e838bb8U,   0x3e17e03b3f2e2bbfU,
  0xbf0b66c9be84df6bU,   0x3e8ccb623f2c15d2U,   0x3e80ae733e45656aU,   0x3e7af0673f4702bcU,
  0x3ebc33a93edb0d2bU,   0xbf206ee73f8af86dU,   0x3ddff0a63ecc41b2U,   0xbdb75072beb0ff31U,
  0xbf16986a3eefdaaaU,   0x3c8313d5bee5d75cU,   0xbdc137933f05d0bcU,   0x3ead5cc43d0d86e5U,
  0x3f80c8b7bd0948feU,   0xbf8048533f92df26U,   0x3e20b8973ecfa7dfU,   0xbf8f92e8bf1f722fU,
  0x3e3e9262bedf6a9cU,   0xbf41649e3f607b9bU,   0xbced16943e89f672U,   0x3f011beb3ea67e45U,
  0xbe97121c3f71dc08U,   0xbefa32ec3f60d0d3U,   0xbe9b56cdbe02133dU,   0xbf9a17b03fbb406bU,
  0xbf4d30233e05b0baU,   0x3e224eaf3f2bf3b2U,   0x3f0b3e78beddc556U,   0xbe1f8c26bea0834eU,
  0x3fde76a9bdbe325fU,   0x3d12d6a9bf2e9542U,   0x3e4482dbbf151739U,   0x3f81c6aa3f44bab0U,
  0xbf8d8ae53e036c7dU,   0xbeb4f4603f8fe265U,   0x3f6dfae3bfabd3e0U,   0xbdfb6f333f292643U,
  0xbf6b9cb53ef5b08bU,   0xbebff3a13fb24722U,   0xbf1fee663d110495U,   0x3ec39296bf197907U,
  0xbf2cd3683f84264eU,   0xbf128ceb3e890341U,   0xbea26eda3f5571cbU,   0xbe78255a3f8a0f7cU,
  0xc02e1dac3f3d818eU,   0x3f9f04c74003ea25U,   0xbf0ac89abe98d7cbU,   0x3ed4251b3f5a5263U,
  0xbe454426beb036f2U,   0x3f9fb1e03d08da65U,   0x3ef3c6ca3e3f3f99U,   0x3f31ce1d3e0b76b5U,
  0x3fcd45083d5d9f93U,   0xbebfb2eabf112503U,   0x3f464d433e9850a9U,   0x4028430abd94b59cU,
  0xbec43cb6be955aa9U,   0xbf31aa4e3e98be8eU,   0xbe8c64f7bf61dcc4U,   0x3eec54653fd5da0cU,
  0x3dffb1543eca9d98U,   0xbf21a8193eb4fc6fU,   0x3ec492243eb9f390U,   0xbf97985ebe880759U,
  0xbf1023343e7cb30eU,   0xbe364ce83f062505U,   0xbdf20c3dbeda9384U,   0x3e51b304bd69197eU,
  0x3f8a8ca03e0d4564U,   0xbef09b143f51b489U,   0x3f4bcddbbde8f711U,   0x3d8323b13ee3bceeU,
  0xbe8b9c113ef9149fU,   0x3e9038493f8824ecU,   0xbe385db4bf04b1ebU,   0x3ecdb0c13f14df6eU,
  0x3ed6ec97be1156b3U,   0x3f198fee3da3dd1bU,   0xbd9ac8b43dd5c62dU,   0x3e91cf573ebafb3dU,
  0xbf90e651be421546U,   0xbeecb9d63e41a834U,   0x3f01a8c63dbd9582U,   0xbe40863b3f833e43U,
  0x3f3a7e56be947d68U,   0x3cb3e2853f48fe5fU,   0xbdbead6a3e0fed14U,   0xbf911e493e8bd408U,
  0xbf6f63df3e165bcbU,   0xbe98c423bdc0509bU,   0xbe7e6478bed8a4b2U,   0x3eace1443e1e3622U,
  0xbf3bfbcb3edac6eaU,   0xbf0cac223e6f45d3U,   0xbdccf93e3eb218c7U,   0x3ed269623adca7b8U,
  0xbe89e546bebbd31aU,   0xbf552a513e388c17U,   0x3ea18b8dbf381cb7U,   0x3f01049f3eff8ffbU,
  0x3efe5ef03ed3df1cU,   0xbeaa15703f0102f0U,   0xbdaf5deabe111bd1U,   0xbf37daaa3f302dd1U,
  0xbda99e78be1abdf2U,   0x3dda66153d33353cU,   0xbedba1383f1b68b8U,   0x3ab3c8ae3f3358ddU,
  0x3eba3a3cbef69e89U,   0x3ea6efbcbe33f4b7U,   0xbd4756983dcb4eb1U,   0xbe7aca933f09d963U,
  0x3f2678943e951112U,   0xbec398ccbe624083U,   0xbca94a1dbf1ab6f1U,   0x3f0743a5bed8554cU,
  0x3eb9672c3e0c131cU,   0xbe389a8a3c9a117bU,   0xbe1437063e461c91U,   0xbf3850ecbf065511U,
  0xbeeea9aebe43dd9bU,   0x3e23579abc295296U,   0x3ce84879bdb7fa1dU,   0x3e91ac39bec524cbU,
  0xbf06cd163f0aa7d3U,   0xbeabc8213ee25e6eU,   0x3f20ff0fbe961db2U,   0x3f087722bea6942aU,
  0xbf4363503d1af1ddU,   0xbee839b63e8ca3c4U,   0x3e62e3c4bef15f04U,   0x3e831e593f2f9068U,
  0x3ed6b495be7e368eU,   0xbee651953f2ff3c5U,   0x3d1ae38abe2fe42cU,   0xbf57f9523f37212fU,
  0xbef3a07bbdac38abU,   0x3e9591da3f57b4e2U,   0x3ed01ff8bd189eb0U,   0x3cec851e3dcb7cecU,
  0xbe8703ffbf265d12U,   0xbd74b89a3e1bef8aU,   0x3f331be33e26e337U,   0xbfc193fa3d06dfdaU,
  0xbf557e7e3e9beb27U,   0xbf42e2c5bf16bb98U,   0xbd84d744bf0723daU,   0x3c78a9253f17d774U,
  0x3f9470e4bd9c8a82U,   0xbd7630513ead9cf5U,   0x3f298693beeefce3U,   0x3f4dd0883f273e07U,
  0x3e1ff9833f126613U,   0x3e9f7c613d8267ccU,   0x3d14dae43ef9dd23U,   0xbe8526bdbe5d164eU,
  0xbe1ae0c8beac0d8cU,   0x3f1f668c3f06e86dU,   0xbeed904dbe9d2cd2U,   0x3e15dfba3f0bf29fU,
  0xbf6537e0bc2ab60eU,   0x3ee05982bf152e5dU,   0x3e038b8f3d2f3972U,   0xbd954cc7bded2bcfU,
  0xbf29c181bea5834dU,   0xbf10f521bea198ffU,   0xbe13a7d13e48ae2eU,   0xbf48d7143efd167eU,
  0x3f4960fb3d901b5aU,   0xbe05efd03e12a54dU,   0x3d2205573e283c52U,   0x3ded5c9ebc3e255eU,
  0x3ef4124d3e298db1U,   0x3f1ff43d3f71c012U,   0xbe32768e3e47b891U,   0x3f02b0a83f3ac9fbU,
  0xbfb3f7a1beb52680U,   0x3f08d1c5bda19c59U,   0x3e2cf723bee6541fU,   0x3ec47eb93f305d3cU,
  0xbe78f0973ea54770U,   0x3eb107403f909ed2U,   0xbed832c1be1132adU,   0x3e8f6da63f0d4f33U,
  0xbf1bda893ea77cbbU,   0xbe53d1df3d0261b1U,   0x3ed915aa3eaf9538U,   0x3eb3df323eda7742U,
  0x3c8b89383e3984feU,   0xbf41705b3eb86835U,   0xbe8fa941bcd7abe6U,   0xbf8f25f23f11e09eU,
  0xbf157220be71be8dU,   0x3b46587fbe1e928dU,   0xbe39fb23bf6800c7U,   0x3c93ca77bebf3ad5U,
  0x3fa024c63e50b28fU,   0xbf6a14ff3ee1fdebU,   0xbdbc9b283ea2fddfU,   0xbea3e7103f18cc5cU,
  0x3e080001bd9cdca5U,   0xbd8b5f9cbe9fdc30U,   0x3e7c17993dbcf3baU,   0xbd64cc1bbdc947a5U,
  0x3fab906c3eb17814U,   0xbf034bbb3e329e14U,   0xbe65a8da3d18ca0eU,   0xbe8c832fbeaabb62U,
  0xbf3744273c75e4f6U,   0xbf2cda4bbdc4b702U,   0x3db4fde4bdfc9decU,   0x3ee6bcbe3f478a7fU,
  0xbdb7e1073e9d1f2dU,   0x3df18f6d3d8ec526U,   0x3e7f923abdeec20dU,   0x3f1518fcbf2601d3U,
  0xbda677253eb15c2dU,   0xbf71a39ebe685995U,   0x3dbb5fa33e9bc492U,   0x3e9e70f53ef34215U,
  0xbec8405f3a88ef10U,   0x3ec349e53e7e74a6U,   0x3ee20e563f04fbb0U,   0xbf7c51bc3e636c69U,
  0xbf4ee6093ee2bc79U,   0xbf24594f3efd2776U,   0x3d450ecfbeb54664U,   0xbda975f33e8b6b69U,
  0x3f1205573d56559dU,   0x3e51cd713e506a97U,   0x3f752cbc3ba506adU,   0xbe7a54003f995cc4U,
  0xbe8a8f923dcb14deU,   0xbdcdf3953d7d5916U,   0x3e99f6fabd23e5bdU,   0x3e1edd42bedd96f1U,
  0x3f2c95f73e4e15b7U,   0xbdaef85f3f1de417U,   0x3f1d1d9e3ecb4a49U,   0xbf024a0b3f0a2216U,
  0x3d949f40be12c387U,   0xbf8b631d3e934f78U,   0x3da78846beede396U,   0xbe1bb36f3f796e55U,
  0xbf729b303f22059aU,   0xbe2823513d0ed032U,   0x3f108b64bae29e61U,   0xbef7b093be119627U,
  0xbf555c663e5006bcU,   0xbe3472533f1a267aU,   0x3d2614e0bf0a4dbdU,   0x3e9ce6193f47a8acU,
  0xbee8b6473e25750eU,   0xbe4aea43becaca68U,   0x3ed03bc53e75ac5fU,   0xbf7e7c9dbec8fa69U,
  0xbf7936843e35e687U,   0xbf4b08d7be394dd8U,   0xbe9be5debe1b717dU,   0x3ec47e413f60ac9cU,
  0x3e52c0a6be7c0979U,   0x3ee42e5fbefa3b67U,   0xbe15c4a53ed12ddfU,   0xbf2d080e3c942f25U,
  0x3edba6353ee71bb5U,   0x3f1eecff3db30f6aU,   0x3ec6a9003f47e65eU,   0xbe65677f3e2a7ef5U,
  0x3f735a6ebe94d53cU,   0x3dc8c2cb3d9a9371U,   0xbf150c863eda8ce0U,   0xbf0c76983f00e187U,
  0x3ea904673ecd3a3fU,   0x3e4610803e1bd1cfU,   0xbecb2d773eb460ffU,   0x3eda6ec23e9e1459U,
  0x3f92272f3ebd55b0U,   0xbf21e3433eb81b2aU,   0xbe3dce5e3ea32293U,   0x3ecd86b9bf327398U,
  0xbf21b2b5befd48abU,   0xbf0731fb3f052418U,   0x3ead94c83f161c44U,   0x3ee9859bbec93de6U,
  0x3f0d842d3ef094a3U,   0xbf2925753e096daeU,   0x3cc4ba813d7872f4U,   0xbeec83693ec8cf1aU,
  0xbf0f8b503ed864b6U,   0xbf204b083e60b7f2U,   0xbb2c0e64bf1b0025U,   0x3d43d9893f2a3ffdU,
  0xbf7575f23e846d86U,   0x3e29678f3f5e17e0U,   0x3f26f04d3dca0aa2U,   0xbf4792d7bddec091U,
  0x3e5551c6bd05a1e1U,   0xbeb0e08d3f0c7da8U,   0x3e345ba9bde89229U,   0xbd26549dbcfb4b18U,
  0x3fd5dcefbec0cca2U,   0xbddfcbc4bf1cba31U,   0x3f736676be85995fU,   0xbec4e5563d98d89cU,
  0xbf4f082a3da4e155U,   0xbea7fd713f154888U,   0xbe85b723bf9cd28dU,   0x3e396e54be95e6edU,
  0xbf5c303cbe8a989eU,   0xbea36765bee7f37eU,   0xbe6098ee3e997e24U,   0xbfd1786f3d5ed9feU,
  0x3ea827b23e09bb9aU,   0x3e199a4a3f2818e4U,   0x3eb7e504be2c783dU,   0xbe1bda433ed7c4c0U,
  0xbff8783f3e242e5fU,   0x3e85a82d3f8336cbU,   0x3ec9b964bf38dd78U,   0xbf8cede83f57d274U,
  0x3efb55303f141eeaU,   0x3f25b7413ed50a86U,   0x3e52ae29be815747U,   0x3db7679c3e5d4d5aU,
  0xbe8da635be942fc3U,   0x3f29946d3f992770U,   0x3dd8c3b33e07d664U,   0xbf71893a3f6c620eU,
  0xbefd05a43f08b8feU,   0x3ac19dfb3e916f9bU,   0x3f35a457bf264f5aU,   0x3cd3fdcb3e9e3254U,
  0xbfb3e8f6bed7738eU,   0xbf0e8998bd44d31bU,   0x3eea112b3d4d8389U,   0x3f2997d0bcb83ad0U,
  0xbdd1d0f23f24fedeU,   0xbf767b9e3e950b51U,   0x3e52fcdfbf44fdfeU,   0xbea67f633f670a10U,
  0x3f7e73653f055dc1U,   0xbf2722103f479723U,   0x3db6d85fbead57baU,   0xbee6b7823f853b40U,
  0xbf29af9dbe5cbca1U,   0xbef52f713f372c14U,   0x3e464edabddca1c6U,   0x3df55d0dbebcad19U,
  0x3e6f2a063f1e92fcU,   0xbe9d125ebe3420f7U,   0xbf3130323eaef1c4U,   0xbf72f1da3f325a80U,
  0x3ee41b803def45bfU,   0xbcc5c93d3dd91ddaU,   0x3d48b95a3cbcc4dcU,   0x3ea814d5be31961aU,
  0xbf1283e6be66851eU,   0xbeeb39db3eff1d1aU,   0xbedb7d633eabb3ffU,   0x3e5688973f241b89U,
  0x3e190f693c69a1d4U,   0xbe5e47983d72a200U,   0x3ef429d9bf4a02f3U,   0x3e3b8ef13f0627faU,
  0x3fbd0cff3e7689a8U,   0x3e93d04f3c51273fU,   0x3e90e6c43e171ad6U,   0xbee312583f268e17U,
  0xbf2c39a1be99d700U,   0x3dca13603eb3c5b1U,   0xbd438ef6bf663172U,   0xbd8c17793f6dac4fU,
  0x3f9526b3bb253d99U,   0xbe9852603e0317f1U,   0x3ebcd45dbc06ee23U,   0x3ea574493e3e2cc5U,
  0xbeb95a233ea50868U,   0xbe0ea49fbed66ee6U,   0xbedd00e7bf15008fU,   0x3c9f849a3e178f02U,
  0x3df8aa4dbeaf1a10U,   0x3dd43d203f5511cbU,   0x3ecbec883e5d05fdU,   0x3e64702d3f6d595bU,
  0xbf704ef2be758cb0U,   0xbf3a5a12bc7fc5adU,   0x3ef7dabdbfbdd8d3U,   0x3e1fd15fbe62281bU,
  0xbd0af27f3db4fa13U,   0xbecdb1a03f252495U,   0xbcc7c33a3eb28825U,   0xbec31a653f0f6028U,
  0xbf997d173d20269dU,   0xbeb868a63f038db4U,   0x3c5087d1bf229f74U,   0x3ebd9aff3ec18720U,
  0x3e511236be038879U,   0xbe7df7ca3e812ad4U,   0x3d9e49d43d492b75U,   0xbfacf25f3ef05c54U,
  0xbf2cb1513e8236c2U,   0xbf27b957bd826f16U,   0x3da3ce58bf8df7b9U,   0x3c40a6d33e0ee7bcU,
  0x3f01a5653dc31a4cU,   0xbee722f03e81f021U,   0x3da3c72b3e83de1fU,   0xbe1fdcb2bd5c4f04U,
  0xbf36bb6b3dcd723dU,   0xbddf61943d156050U,   0xbcce27b3bf8c55f9U,   0x3e8f51843e9a9e6cU,
  0x3f41f18c3ebe090eU,   0xbf260ea43eb122d6U,   0x3e9739383e862b46U,   0x3fb436a3be2aaed6U,
  0xbf9f4128bead543cU,   0xbed4868d3f0015e1U,   0x3e5ea9cabed5065eU,   0x3e98f0563f989e3dU,
  0xbf4241be3ec74eb7U,   0x3e5f082dbe3394cbU,   0x3f01d8333e1a03b8U,   0x3f07db1c3ec157a1U,
  0x3e0cb8dbbe3a6445U,   0xbd127b433f171a9fU,   0x3e85d9e1be04bd2aU,   0x3e141d28bd2d5489U,
  0xbe92236e3edb417bU,   0xbdd6d073beac58b7U,   0x3eaf59993ec79e75U,   0xbf0d6712be9c1740U,
  0xbe8ee353bec4c99aU,   0x3cfb49313e4aba5bU,   0xbe442a22bf1bd25bU,   0xbe64689b3ee48cbdU,
  0x3f6c2dddbeb9e137U,   0xbefd9a41bea380caU,   0x3cb57816be06b744U,   0xbfa5af3b3f077f31U,
  0x3d8e2365be18c036U,   0xbe9710c4be47b725U,   0x3f223464bf085f5dU,   0xbda9b7f93ebfd905U,
  0xbe4bead7be4b2824U,   0xbf4fa85d3eba812aU,   0xbe5df773be9f002eU,   0xbf0c9d69be2bb816U,
  0xbd05b0e13ea65e0aU,   0xbd737de13f2fb126U,   0x3e15ffd0bf621764U,   0x3eaa2243be0b1822U,
  0xbf84cd37be09a992U,   0x3dc7a016be05c189U,   0x3df4151b3ede3ddcU,   0x3f30a6593da750c2U,
  0xbe8032a4beab3af5U,   0xbe96afc7bdae35a1U,   0xbc11d436beeffb53U,   0x3e011fd43ef644b4U,
  0x3ec6cf833e8849c4U,   0xbe5265983f130522U,   0xbd3cae033e9738a3U,   0xbfa18f62bd6ec11aU,
  0xbc31b1ad3f0f459eU,   0x3d9d1221bdd384acU,   0x3f07fb97bf0f7de7U,   0xbdc7b945bd8a18eaU,
  0xbf7667993ece20beU,   0x3e6e3ac0be76ffccU,   0xbeb1605c3e74c8aaU,   0x3eac8adabf1d32a1U,
  0xbe4c70623da7615cU,   0xbf44c50a3e33ded8U,   0x3eb06c83bf176aa9U,   0x3e60548c39cfe03aU,
  0xbebc721a3e3f5904U,   0xbe96cf5e3de5931aU,   0x3e1bdab53e9221caU,   0x3dfed13f3ea9e80fU,
  0xbf14778ebe75ac9aU,   0xbf22b24cbb35bd6bU,   0x3ee7032d3cfc5a69U,   0x3af967a4be647245U,
  0x3fad80073e96c9d5U,   0x3d6ca4dcbf4421e6U,   0xbe700ff93e99bc08U,   0xbe8d21703f0d9b73U,
  0x3e31c097beb048f9U,   0x3e1ab4293ef78dc0U,   0xbe1c2330bf4ed213U,   0xbd311a2a3d8eb2f8U,
  0xbf2801453ebeccadU,   0x3f17144b3e80cd71U,   0xbae701743e199284U,   0x3fa7264e3e8b3af9U,
  0x3e481dfabe1f6e44U,   0xbf5c216b3ec27a2bU,   0x3e31a6873ee98248U,   0xbe3888e5be5ddab2U,
  0xbf27ac9d3ea717dbU,   0xbf26dec8bee83546U,   0x3f4c673a3ec2ca19U,   0xbf296c4fbdcfab96U,
  0xbf37f0503dab2276U,   0x3ca7b7c3be15d4e4U,   0x3d86911dbd3cadd5U,   0x3eba4fdb3cba1a6bU,
  0xbd7210253ddb2193U,   0xbf61ac23be00f5a2U,   0xbdae6a6b3f0b86eeU,   0xbebabb013f2b0758U,
  0xbf028e4f3e3f5af2U,   0x3e11156d3bd1afa4U,   0xbe07035fbefc7ea5U,   0xbd412c01be865f51U,
  0xbf76fc10bd8feb80U,   0xbf009d433f340fd0U,   0x3f16b1c8bd1727b8U,   0xbf0ea91abf207fe3U,
  0xbe49f0833eec3a2bU,   0x3e27ab8d3df9a561U,   0x3ea40c79bde4f613U,   0x3e2c31623d839e77U,
  0xbfa7f9893d8f1503U,   0x3dafa8a83f0e8731U,   0xbea63dfd3d450e13U,   0xbe8532d93eba6b1cU,
  0xbdec61d8be460deeU,   0xbf4f74493e39359dU,   0x3e1b9b3c3f3466f2U,   0x3f045aeebeeaa966U,
  0x3ea0b028bd869e64U,   0x3e413d383f001891U,   0xbc9224593e5f8593U,   0xbfb550483f292d06U,
  0xbe1bddb5be136b6fU,   0xbe4447d33e6e2e37U,   0x3e959a06bf0d5da3U,   0xbc7cd2b4bed2ae05U,
  0xbf53bd8fbda72577U,   0xbd57ed15be2530e2U,   0xbe8872c9be855b12U,   0xbf9069cbbe7c456fU,
  0xbf87f1a13edcc3dcU,   0xbf6fa84a3f4cdce3U,   0xbd011c8cbf3932b7U,   0x3d825eea3f23e883U,
  0xbf0025dc3f1f6399U,   0xbf8aa18fbe173855U,   0xbf10c6603e7c4acaU,   0xbe50ef9f3f568cecU,
  0xbe5bab16bd3ceae8U,   0xbf59ee6a3dcea7c7U,   0x3ee740233e39865dU,   0x3eef0d443f12c1fdU,
  0xbeef35a13d6a6b22U,   0x3cdb8f393ea52f17U,   0x3de03a8a3cefcd13U,   0x3db9462e3f378b27U,
  0xbe48f5623eceac32U,   0xbdb197093ec778d9U,   0x3deda62ebea64ae0U,   0x3ee5c0bc3f7b17ccU,
  0xbee8c60dbe9877daU,   0xbf0604813f9e6da0U,   0x3f30b9f83f0d6161U,   0xbd49e9963e456b9fU,
  0x3d8c2fbabd4899b2U,   0x3e3436903e8f7a03U,   0xbe338b2bbebae5e3U,   0x3e8091303f704d2eU,
  0xbe5231b9be648e25U,   0xbf9faf543f9c990eU,   0x3f433bec3e01f29aU,   0xbf72060c3f1e2fefU,
  0xbf1baeaabeee54cfU,   0x3ed1bae23e51bcb2U,   0xbe87359dbf0a1418U,   0x3e80e2ae3e2770aaU,
  0xc053260ac0117677U,   0xc05cb914c03cb178U,   0xbf68171cbfe109e0U,   0xc05d1a2ec0020f06U,
  0xc01f6bd0bfbc7deaU,   0xc088c26ec00eabc3U,   0xbfa20e91bfd03758U,   0xc07a1217c0226c28U,
  0x3f1337d63e28ee24U,   0x3f004d053e400f55U,   0x3ec1f2a03eaaf39fU,   0x3e9f5a823c2b7a4aU,
  0x3e4c44da3dea4004U,   0x3f09a50e3df33480U,   0x3d0faa7a3eb36d0aU,   0x3e70e925bc2611a2U,
  0xbe3b55d2bf46e1a0U,   0xbe7120aebf021b32U,   0xbf8c8323bed9a12fU,   0xbec44a94bf1307f4U,
  0xbf2bcd41bf3bb6b8U,   0xba936933bede2311U,   0xbcb666fdbee6e96fU,   0xbea01e5cbef0d75eU,
  0xbdcf07bd3e0d4352U,   0xbe23a8583e3ef9adU,   0x3ea1e1b5be626f8dU,   0xbe9ad437bec48e2dU,
  0x3e54a9c7bef9eee1U,   0x3d576a89be734e49U,   0x3db898b3be93d611U,   0xbe6cd2b8bd0ad68cU,
  0xbe39cb863e249611U,   0xbe392afc3e334077U,   0x3eb4e4583e29347bU,   0xbeac49933d925e3cU,
  0x3e26363cbc52193fU,   0x3bbf499a3e23dd2bU,   0xbe8931453e589b16U,   0xbe9e280bbee8ba4bU,
  0xbfea2223bee84296U,   0x3f28216b3efec8eaU,
};


ai_handle g_network_weights_table[1 + 2] = {
  AI_HANDLE_PTR(AI_MAGIC_MARKER),
  AI_HANDLE_PTR(s_network_weights_array_u64),
  AI_HANDLE_PTR(AI_MAGIC_MARKER),
};

