/**
  ******************************************************************************
  * @file    network_data_params.c
  * @author  AST Embedded Analytics Research Platform
  * @date    2026-03-26T09:14:44+0100
  * @brief   AI Tool Automatic Code Generator for Embedded NN computing
  ******************************************************************************
  * Copyright (c) 2026 STMicroelectronics.
  * All rights reserved.
  *
  * This software is licensed under terms that can be found in the LICENSE file
  * in the root directory of this software component.
  * If no LICENSE file comes with this software, it is provided AS-IS.
  ******************************************************************************
  */

#include "network_data_params.h"


/**  Activations Section  ****************************************************/
ai_handle g_network_activations_table[1 + 2] = {
  AI_HANDLE_PTR(AI_MAGIC_MARKER),
  AI_HANDLE_PTR(NULL),
  AI_HANDLE_PTR(AI_MAGIC_MARKER),
};




/**  Weights Section  ********************************************************/
AI_ALIGNED(32)
const ai_u64 s_network_weights_array_u64[1532] = {
  0xbbd1e4d5bc92c783U, 0xbd01a53dbd009b37U, 0xbd032c583ba2c3c8U, 0xbd3b3b413bb864eeU,
  0x3dc2180c3d733edbU, 0xbcf61a6ebc347908U, 0xbc922befbd31f2c3U, 0x3d111e4bbb5147dcU,
  0x3d01b2f73c95659eU, 0xbd0778d03c5a93edU, 0xbc1e436d3b1ebe63U, 0xbce70267bd9ca815U,
  0x3cdfa3073db03229U, 0x3b6be1d83cb08b6bU, 0x3c938a3f3c9f2fd7U, 0xbd34f3673d47b2d1U,
  0x3d2ae90dbc1a2e2fU, 0xbe023d8abbe4918aU, 0xbd16df1bbd959080U, 0x3c1713733bf88274U,
  0x3d746be83d829b18U, 0x3ce139fe3d144b4eU, 0x3c697f503cf11002U, 0x3cbd8cdb3c828030U,
  0x37b92cf0bd2ee4c2U, 0xbc80df7a3c0bfb07U, 0x3d547be8bc2ad3e0U, 0xbc986354bd7f551aU,
  0xbce68b60bd0d8f5eU, 0xbd1f452fbd9a92c4U, 0xbd100a36bd2cd6eaU, 0xbd71a6f1bcac5334U,
  0x3ccdfff0bca77057U, 0xbc9eecbe3c1628e1U, 0xbcb1f591bcd630fbU, 0xbe11794cbd3444b8U,
  0xbd93a458be113b7eU, 0xbe00bba9be096c60U, 0xbe176fa83d8b8a1dU, 0xbcf8b5bd39e5bfdbU,
  0x3bbe7332bcb3c4deU, 0xbc65a3fa3c20522cU, 0xbd0818a43cd5da07U, 0x3c89c804bc65d486U,
  0xbd3f06483be62f5eU, 0x3c240ff8bc6e8f7aU, 0xbc620b7cbbd8f821U, 0xbb4535c03b615048U,
  0xbd7e5eeebd32b367U, 0x3c088750bdf009bcU, 0xbd562698bd8d8fe8U, 0x3d0a11adbd909153U,
  0x3cd066f33c9508f1U, 0xbcb9234ebaef88d1U, 0xbd2a715dbcbce644U, 0xbce84163bcedc165U,
  0xbad87abf39ee74e5U, 0x3bf3e0d13c1b73c8U, 0x3c9d7634bcec3175U, 0x3cffb1a33d949555U,
  0xbd4a3cae3d2bef61U, 0x3d819e1f3c84be4fU, 0xbe3ba332bdc03004U, 0x3d308726bda47a8eU,
  0xbc135ddd3bc7c8f5U, 0x38d6e8da3be5bd4aU, 0x3c2959af3b068bb6U, 0x3cff1ab2bc9931a4U,
  0x3b00a93ebc5d10e9U, 0x3b8c762f3c09d897U, 0x3af457d43c2a2fd9U, 0x3d7f7dc8bc7992b9U,
  0x3b717c7cbd6f9b08U, 0x3d39bd273cc8f077U, 0xbd1981463c87cb67U, 0x3d10ac0abd1f08bbU,
  0x3b9809523c3329abU, 0x3c0ac4b5bd1630d3U, 0x3e0ec2afbc8bf77eU, 0x3cc8854d3d624efcU,
  0xbe0b00b3bd57eff4U, 0xbdf1b9d1bdda7c58U, 0xbdcbd97abd8d5b4aU, 0xbcfd63a0bde1f02dU,
  0x3cbce80e3cc7cff5U, 0xbccdc193bbcbd265U, 0xbd7dc26ebdb1ce67U, 0xbb7b3385bd3ba434U,
  0x3e3ec28fbe54d5efU, 0x3dd2c38d3ae96efaU, 0x3cfdc60e3c8604c9U, 0x3c0a55b23d3f1e02U,
  0x3da3a15b3d040cd6U, 0x3ab10d123cd8f5a9U, 0x3c1397a43c52b9e3U, 0xbe03332ebd0f01ccU,
  0x3de9db80bd78f4b0U, 0x3dc605e7bc13d184U, 0xbd17a3b43c944131U, 0xbd045dd2bce3c605U,
  0x3dc397973d8f9929U, 0x3ca7b0c5bd0e17bfU, 0xbd49cf1ebb75440fU, 0xbe258346bdb72955U,
  0xbcb868c4bc0ecc5cU, 0x3c84988abcb007deU, 0xbd192ea33c67d513U, 0xbcfaf0e2bbc2daadU,
  0xbd67d436bd20755dU, 0x3d352e603d41e5d3U, 0x3cbabc333d43b6d2U, 0xbd49a9c13d0ee886U,
  0xbc037efebd111b50U, 0xbd7570f73cac03a5U, 0xbe2342dfbdf5997cU, 0xbc5379babdf03383U,
  0xbe41b92e3d0bded7U, 0x3c0e31be3cebbb36U, 0x3c8cc13c3b52e83eU, 0xbc8945d2bc8fa854U,
  0xbc517007bbd9548aU, 0xbd0c60aebd1b9452U, 0x3cff5e013cd88e8bU, 0xbd393ce4384223f6U,
  0xbd1c5741bd30cb63U, 0xbc4ccc94bd346cbeU, 0xbbb531df3c2e06e2U, 0xbd59ac9bbd017319U,
  0x3d65b1abbc9c1e6fU, 0xbcdae3113c5eae05U, 0xbcef59263d74888aU, 0xbd6216bcbbb8c26bU,
  0xbd6f154abdb3fc42U, 0x3ca696d33a92313dU, 0xbaa2fe3c3c8d3310U, 0x3d85c6313cbad3dbU,
  0xbd785bf8bda0d22bU, 0xbbc1c466bd8212c9U, 0xbce0f1593e1fd1f7U, 0x3d70d10dbcc5b649U,
  0xbda79890bd18e2d9U, 0x3d5bbe24bbf847aaU, 0xbc860b493cddaaf1U, 0xbdc801833b29fb86U,
  0x3c6d9b5c3d7f35cbU, 0xbac773cabc3b5e15U, 0xbc6891573ba7305eU, 0x3c0a34f9bcb09a93U,
  0x3a9167b33c1cdf76U, 0xbd354693bda20487U, 0xbd29a2f63d25b2c5U, 0xbda2102dbd6942a3U,
  0x3d34cfa7bc8c8ae7U, 0x3b79fbb93b40750fU, 0xbd38ce07bda9dec1U, 0x3de2e1f6be1f5925U,
  0xbd893b063cc3d2c7U, 0x3c0260d53d00d289U, 0x3cba3f1f3dce4699U, 0xbb2384ce3cfbc87fU,
  0xbc0bda1a3d2999b6U, 0xbe01e448bd1067f7U, 0xbd31aec8bda3f55dU, 0xbd2c9cd5bd38d5daU,
  0x3c0c9bacbc686b40U, 0x3c8488fb3cbd0bafU, 0xbd7371ddbc8d39fcU, 0xbdc9d59abceb2f5bU,
  0xbc9fcf10bd80a950U, 0x3d07547c3bdae431U, 0x3dd459703d15bfd4U, 0x3d8f61df3de1f3f4U,
  0xbd925a3abb9621e5U, 0xbd3dcfe5bdafd96dU, 0xbe070accbdaa06d4U, 0xbd1f491cbdc0767cU,
  0x3a9c51dbbc3e1114U, 0xbe1379563d0464f2U, 0xbd31517ebe472322U, 0x3bb1c54cbd09b0efU,
  0x3c4965a43cbae46dU, 0x3c68a8a9bcc62e6fU, 0x3d4be61f3cb92949U, 0x3cce989a3cf7a367U,
  0x3c8f39163c8492daU, 0xbce2d0b3bd8cc669U, 0xbd7f7e28bd6faf99U, 0x3ccbf8f2bc43f750U,
  0x3d607d643d3752faU, 0x3ce489533d482916U, 0xbd3e41eabd3efcf6U, 0xbe22168ebdfc02cbU,
  0x3ea2da8b3eff1b4fU, 0xbfa5f5c13d884b82U, 0xbf9870fcbee9c1a7U, 0xbf8a306e3d2cba7dU,
  0x3e00d2c9bfa9a2aeU, 0xbe6ef411bdf643afU, 0x3f3ab39dbf446174U, 0x3f0dcdd03c9719e7U,
  0xbf3a926cbdb6b686U, 0xbf138cdb3df09381U, 0x3cd66ae4be3e65c9U, 0xbf24c7e2bf72f3e1U,
  0xbdc2e6e23e032b81U, 0x3e844be13d4fcd0fU, 0xbe3cc26c3e8ca3a1U, 0x3d963a8ebe10f4b1U,
  0xbde61bbdbe8cf9d8U, 0x3e219b78be88ec41U, 0x3da21e543d3fdc7eU, 0xbe41d960bd91b0c8U,
  0xbbfeeaf6bbf736b3U, 0x3dedb6aabe04cdf4U, 0x3d7e1e593d0276ebU, 0x3e0615353dc7c15bU,
  0x3dd6013bbd987a23U, 0x3eb98c06be910be9U, 0xbe7ac725bde7f26aU, 0xbe214357be91d362U,
  0xbebc41673d01131bU, 0xbe9e4bbd3d12b0d8U, 0xbb4335c03e6eea0dU, 0xbdc3c6eabdd72f35U,
  0x3e3097e43c2a287bU, 0x3f08b395bd9ea657U, 0x3e02656e3e8e40e6U, 0x3cb797eb3e809609U,
  0x3df02dd13db13e84U, 0xbebc1305beb9d7a6U, 0xbe097be33eaf0279U, 0x3e94873ebea49257U,
  0x3db42135becb5c9bU, 0x3e74fec0bd111171U, 0x3e7c76e03e0072d7U, 0x3caa6e21be769cf7U,
  0x3c8c8eb0bcfc3272U, 0x3e87cf52bb960ea0U, 0xbdf2b762bc985024U, 0x3e29e3723df7da70U,
  0xbe196f2e3cba8af7U, 0xbdb18db8be054069U, 0xbec139223e1b0c8aU, 0x3d3a2559bda65d86U,
  0xbe819578be2fb9ddU, 0x3e6fc8523dcc7f1fU, 0x3e154186bd587aa0U, 0xbe18622a3d78c2b5U,
  0x3e259eb3be567a34U, 0x3e5fa731be727cf4U, 0x3b01bc65bdad8bf0U, 0xbd9c31d33e07f9ceU,
  0xbdead7643df6e843U, 0x3eee7b5ebe2687a7U, 0xbed72fc03dc9d745U, 0x3d21d8143da5e871U,
  0xbd918730bf68b8a6U, 0xbe395d8ebe726d97U, 0x3daeaa0e3e1a354bU, 0xbdd768babd8bcfffU,
  0xbe1bbe2fbd0183f8U, 0x3d56107cbdef2cb7U, 0xbc4d06d0bd468292U, 0xbde8d7fe3dcf252bU,
  0xbd47ca503d292e5dU, 0xbe68dd61bd369910U, 0xbe66c244bde0815dU, 0x3eb094c3be3e8a3aU,
  0x3d175e4abf79c326U, 0x3e6654413d633799U, 0xbc47e68dbdcb6849U, 0x3dc34b18bdb336d0U,
  0x3ed959833e4288e7U, 0x3ee6059e3e4d08f7U, 0xbd6e7b133d4c2b3fU, 0xbdcadf333b1fcbc7U,
  0xbe0ed1e43cc7cbd4U, 0x3ec5962f3db0b65aU, 0xbe9195663e819aabU, 0xbc050d3e3d234b06U,
  0xbd963601bdbf9b19U, 0x3e36038f3da88a29U, 0x3e187e9dbcbdd2c1U, 0xbda7f464be0762feU,
  0xbe0985f9be59e249U, 0x3dfbcad0befbbffdU, 0x3bcbe0df3d229ed5U, 0xbe3a3845bd07ccf4U,
  0x3dcb9e613e752b8fU, 0xbef0110ebdfc7c97U, 0xbe1ca6243e8e0fd8U, 0x3e164d3b3e034f05U,
  0xbe956811bf604940U, 0x3dd7af89bb36ef4bU, 0xbe0429083e34f8d9U, 0xbdb3245ebe63d718U,
  0x3e117f85be875c3fU, 0x3eb374a3be730b9eU, 0xbd0e6a0bbe4cdeb7U, 0xbe73f0dd3e954394U,
  0xbe5faf86bd921dc6U, 0x3cace0d1bccfffb2U, 0xbe9e4863beb062f1U, 0x3ea8c234bded52c5U,
  0xbe0099a3bf2a5f0cU, 0x3e3129f8be3df5b0U, 0x3dbc84f2bd9f072fU, 0xbd40048ebe53aaffU,
  0xbe0b1fbbbdb36f97U, 0xbdae34b4be3dcd23U, 0xbe8c029abe00cb79U, 0x3d465f9d3ed5533bU,
  0x3caeff5fbe0f16d3U, 0xbd8948463daeac65U, 0x3db1db133cfb6bb8U, 0x3dd686b7bd8b4d4dU,
  0x3d56ea9a3b451cb6U, 0x3dbafa983dc48a9aU, 0xbb9620c33d307433U, 0xbe22a1e13e272a73U,
  0x3d971a383c064896U, 0xbda2eb8abce26051U, 0x3d429ea03ac6c0eaU, 0x3e2f15183e2920d5U,
  0xbda365e43cae421eU, 0xbe2435e13df2c0b9U, 0x3d8bb5663e1a80a4U, 0x3d9e8aa3bccf09abU,
  0x3cff25b43e6ec486U, 0x3e42e5a23d5fde17U, 0xbd9dc105bdce18bdU, 0xbe06f1ea3df78b22U,
  0xbcc361f5bd1aedd0U, 0xbd37513cba8d66a8U, 0x3dda3e74bd03d1caU, 0x3d2e88f63dc20a57U,
  0x3e1e623b3d141656U, 0x3e9e64bc3dcb8cb0U, 0x3eb454ce3e88e90cU, 0x3ec2c9753e675353U,
  0xbd772ddf3e56f6e5U, 0x3e4d7b98bd6c8c9bU, 0xbcd44c5dbdcc18daU, 0xbc045bc83e15d2daU,
  0xbe0b5d63bd4c612cU, 0xbdbf9ce83d7f1bc1U, 0x3c839fd6bd0405a3U, 0x3eac7f373ec8e5f4U,
  0x3d03c0ecbd533f88U, 0xbe06525f3c4f81a1U, 0x3e908fe43cd62394U, 0x3e243926bd0d77fbU,
  0xbcb2fcbd3e2d189fU, 0x3de9d68c3beb92f0U, 0x3b8c8d293dc0ed5fU, 0x3cbdf8413e0f9858U,
  0x3de663e33c838466U, 0xbe055ad0bd39f7a2U, 0x3d4f704cbd8db17fU, 0x3b0edef63e1ad4e7U,
  0xbd0da70dbdc58fefU, 0xbdb2de573df3ddc5U, 0x3c331dd83dc6db03U, 0x3e6d3a433dd30052U,
  0xbcc6db3d3c4f6891U, 0x3e2afb203d30b523U, 0xbca0a95dbd321817U, 0xbcf3d9473e1b5409U,
  0x3d8b641e3cc7b287U, 0xbd7cd168be04931eU, 0x3dcbe51f3c44f89aU, 0xbc0f9faabd4c1151U,
  0x3dd5bcd4bc882055U, 0x3def46463e30269dU, 0x3ea38bf43e8f2b3bU, 0x3ec0c3d43e4b0a89U,
  0x3bdc3d1e3e24a7baU, 0x3e1d6fd8be25ca9fU, 0xbdbff73cbd360d9aU, 0xbc8cd4ae3e3690d8U,
  0xbe0e61b43c2c650dU, 0xbe0671443d7c6b81U, 0xbe00105cbda03148U, 0x3ea738713ef8d744U,
  0xbd8a76ba3cc16157U, 0xbdbd9c5f3d953b1dU, 0x3e9f081d3e449c79U, 0x3e189596bbdb726eU,
  0xbd0d6d383d1408feU, 0x3e135c3a3c75b063U, 0xbdb7a69f3d9b476eU, 0xbe026fe73e395b64U,
  0x3e0c741dbcde9964U, 0xbdd543b1bcbcb702U, 0xbd1050c8bd41dbcfU, 0x39e6b3c23e13a1b6U,
  0xbcdfe22e3dcae7b9U, 0xbdec5a663e01b4bbU, 0x3d49c7533de052c9U, 0x3d0c78273d374749U,
  0x3cb08139be16eb8cU, 0x3e6c4237bc11b1edU, 0xbdb8ab7cbe027bb3U, 0xbdb4b9113e23e57fU,
  0x3df43102bb4ec4e4U, 0xbd04212fbc3391bdU, 0x3e0aba7cbd36686bU, 0x3de91d773dcfd450U,
  0x3e3857fc3bdae688U, 0x3e3476bf3d813828U, 0x3e89bb703e969a2bU, 0x3ea714f63e10d0a7U,
  0x3c0b0fdb3ed03544U, 0x3e16fbd5be0cb849U, 0xbe655a4bbe1dd31fU, 0xbbadf6033dc20c8dU,
  0xbdc7a9c93afb6dfdU, 0xbe08badd3db5dc90U, 0xbe31da0bbdc4a167U, 0x3eed91d93ea19f26U,
  0xbd0778503e1fa9bdU, 0x3e4734e3be1a0b1dU, 0xbd6284c23d4d5ddfU, 0xbc46d321be0fea47U,
  0x3d07f99bbda39c10U, 0xbe44949a3d5abd26U, 0x3dd161afbc5ec223U, 0x3d599a2abe702b72U,
  0x3c427ffabe3fa6d6U, 0x3b3d9dc8bd89d9b3U, 0x3d51644a3d779a28U, 0x3e0d3672bbab22ddU,
  0xbcfacc76bd3472e6U, 0xbe1d264ebd87b194U, 0x3d141cf8bcce8befU, 0x3d8624d33d3b1723U,
  0xbd8969f2bd2d3fd1U, 0xbe25e3fb3ca43ae9U, 0x3e918342bdac9c19U, 0xba9f703ebe37e15eU,
  0xbd415ce03ca45a3dU, 0x3c88648f3d661fc1U, 0x3ced44e43d68490cU, 0xbe474e523da377d8U,
  0xbe1d89ef3e6f4c3fU, 0xbe6ef23dbcda4f1bU, 0xbdbadca93c62e474U, 0x3df0762fbe0e6a62U,
  0xbdcbef31be6a6e56U, 0xbc8527b1bdea0abdU, 0x3e93ed4bbd9d3a87U, 0x3e18795cbd582aefU,
  0xbc864e4fbde5506aU, 0xbd7fa817bd4b05f8U, 0xbcea4864bdcd58caU, 0xbd28e55e3dc3f2eaU,
  0xbd1f6f8d3dad2042U, 0x3cef5275bdc0c1f5U, 0xbd48ad3dbd5f90a3U, 0xbccc9f16bc8982f8U,
  0xbdc52783be5aeb4bU, 0xbe805a92bd124abfU, 0x3e56ad5ebd64e728U, 0xbb5a6961be907ebaU,
  0xbcf82920bd979c2dU, 0xbdbd8edfbd64a770U, 0xbda697383ce0b86eU, 0x3e6b1fa13dc10bbdU,
  0x3d3451d7bd90a701U, 0xbdaf788dbd85afa5U, 0x3ebb4094bd8f725cU, 0x3e24e380be31ca59U,
  0xbe074970be0592f5U, 0xbdd0269cbd7d4e47U, 0xbcd6f9c1bdaae427U, 0x3e8f7395be5a787fU,
  0xbdfdf5b0bdca11a8U, 0xbe192e45bd560d1aU, 0xbdbab8d9bd6db8e9U, 0xbd90deb23eafa21aU,
  0xbd568cd9bbc3a9c2U, 0xbed4b90c3d8384a0U, 0xbc74f899bdb85672U, 0x3d83b5cbbe2deb58U,
  0xbe4be63cbe9da80fU, 0xbd3b9b61bd00dc4aU, 0x3dcf9039bd9d0b55U, 0x3e8e84263d0f1bc9U,
  0x3cd69de1bd261a45U, 0xbe3dfc9d3c7b1a0aU, 0xbbfa942dbde27d86U, 0x3cece8db3e3be88aU,
  0xbd0c49c4bd07f7f5U, 0xbd5b0138bd80ed6fU, 0x3d2663aabe0a3be0U, 0x3bbe19dabde9e2d9U,
  0xbe174dfcbef4f36dU, 0xbe46b0bc3cce0739U, 0x3e6b79b63aace92fU, 0xbcbafbbcbe798036U,
  0xbdea2098bdef32d3U, 0xbd923c883dbc9dbfU, 0xbd6cb9eb3d2ba2baU, 0x3b920773bd0ca2f4U,
  0xbc1f50233b77a915U, 0x3d5ffce1bd81b023U, 0x3e7ab1af3d14c351U, 0x3cf1a9cfbd7616c1U,
  0xbd8dd907be82523dU, 0xbe08391ebcc01d56U, 0x3e9c7a3abdabd5e9U, 0xbcb7f189be70da6aU,
  0xbe47a63abcfa34e4U, 0xbd8b7250bd146874U, 0x3c9d73853d994a87U, 0xbd0237163e04e484U,
  0xbdd7505e3da8bbf7U, 0xbe626ac03e027215U, 0x3dd422b63d6a3393U, 0x3c4d2fc9be889379U,
  0xbe4c01dcbec8a264U, 0xbcb1dce63c421b3fU, 0x3e982ae1bcd6b2b7U, 0x3e228d40bdd031f0U,
  0x3c3ab343bcd20cf8U, 0xbcd4df5fbc4c912aU, 0x3c539f0abda16e43U, 0xbdcea91f3de60b28U,
  0x3c8dc469bd95e8c3U, 0xbe18ca683dd06b6dU, 0x3dc28506be168bc4U, 0xbd2881a33dcf6c91U,
  0xbca152523d81973dU, 0x3e285993bc6d1d51U, 0xbe1f76ccbc330b52U, 0xbdb941243e24c348U,
  0xbd9247b83e0b8a45U, 0x3b9f4ece3dc533b8U, 0xbcedc572bda87f6dU, 0xbd7b51debd1a43cfU,
  0xbd4258513d7d96b6U, 0x3e06de333d8bb630U, 0xbdb949fc3d32d1a1U, 0xbdae7995bd3f0d3cU,
  0x3d8ab0693b89d4acU, 0x3d3ca47dbc80f623U, 0xbe43e9643d94b151U, 0xbd7af47b3e23207dU,
  0x3d30969e3d9771f1U, 0x3d53bc783d45fb2aU, 0xbd2179343ab6c03fU, 0x3dbdbbaabdc2d30eU,
  0x3d9bd1fbbdb37bb3U, 0x3e7e60f9bccf38f9U, 0xbcc8b7c0bd8d2ee3U, 0xbcf97ab83dfd65c7U,
  0x3d49663c3e507668U, 0x3c8ab4953d483bdbU, 0xbd6d633f3db924beU, 0xbe8d6d6b3c68abf3U,
  0xbaf1d1523db4273fU, 0x3c7408883da29cb4U, 0x3d97868c3e27caaeU, 0x3c346eb7be277269U,
  0x3e03f879bd20064eU, 0x3d1998d13de7edfeU, 0xbd0f07df3bf6b330U, 0x3caf31f13d8ef17fU,
  0x3d887eca3de00af9U, 0x3e43201d3c524a70U, 0xbd48f61d3da23650U, 0xbd95e1593e926572U,
  0x3d2ced743dbf0704U, 0xbc15ad453d64d2b2U, 0x3d9bf522bbe1ccebU, 0xbe4d02e5bd81ff75U,
  0xbda57bbbbd357e7eU, 0x3bba592e3d22d445U, 0xbe8c58133d31ccb3U, 0xbe41eb083df222a3U,
  0x3e1be84d3def45e4U, 0x3c8d50f83d1946baU, 0xbd5923ae3da1ecd1U, 0xbe5e502e3e0c80d5U,
  0x3db0b9263d428cdfU, 0x3dc4ec4e3dbd06eeU, 0x3db328e03cda9079U, 0x3d87781fbe7e785eU,
  0xbd1931603cf73588U, 0x3e637c20bd7328b0U, 0xbd13b5f03c7980c5U, 0xbe45b4773e518685U,
  0x3e17435a3ea0d1f2U, 0x3d78c4103d6cb38eU, 0xbdb2e9313ccbf99fU, 0xbe1b516bbc9a4ab5U,
  0xbd04f318bcf2ea13U, 0x3df9e72bbd018ff1U, 0x3d1bdebe3dc6de54U, 0xbd4a0ef8bdd1f2d4U,
  0x3db4c06abd0cb95eU, 0xbd285df93d9d89eaU, 0xbc93e28b3e31dc0eU, 0xbac0bcc63dac8f49U,
  0x3deb61e93eb75421U, 0x3de0661a3d92a022U, 0xbe96991d3c313aeeU, 0x3d5a102f3e1d2b0cU,
  0x3d2dac3c3e0abaa4U, 0x3c31aeddbda58ff8U, 0x3c7a3180bdee9fbbU, 0xbc89ee063d0ea8acU,
  0x3d63d5e0bda99f46U, 0xbcf29c5a3c4159dfU, 0xbe8a39c73cf26046U, 0xbd48c1823d5d7459U,
  0x3d9be4993e3bfd78U, 0x3db17f5a3d209dd0U, 0xbdd939903d9ab05bU, 0xbdfc884d3e3ecc93U,
  0x3dc49432bcd1d227U, 0x3d4cac383db267e4U, 0x3d09e7a9bc6c1edaU, 0xbd130aa6be17175cU,
  0x3d9c0164bdb57b4aU, 0x3e4a3136bdbf2eb2U, 0xbdda548ebd7810bcU, 0xbd77ed163e1e1429U,
  0x3e256c3e3ea9f2b1U, 0xbd69e6873d13113cU, 0xbe9e68ef3d27027aU, 0xbdc2e3d73d3e9426U,
  0xbcb8e28f3c1becd3U, 0x3db3d2eebc7240cbU, 0xbc17001a3d8f0a1cU, 0x3df6e084bdbd0f58U,
  0x3d4de04a3d6c8e9eU, 0xbcd326953d1826acU, 0xbdb36d39be05e3f8U, 0xbdb5fcf03d91b7b1U,
  0xbace122c3e01830fU, 0x3d57b9ffbc077dfaU, 0xbe0a5c4ebd52410fU, 0x3e165f9e3cc51d71U,
  0xbe0811553d966d22U, 0x3da271923dca208eU, 0x3bb7846fbb8a6651U, 0xbcd59c8cbe3e75bdU,
  0x3d14e085bd3be734U, 0x3e4946413d8653caU, 0xbd82b11fbdd65acdU, 0xbd8599debc17e888U,
  0x3d1d18abbd9843c2U, 0xbdacd1023cd9789fU, 0xbd8ff6a53dcd0509U, 0x3cb650cebc65b448U,
  0x3d11ca893daa1c25U, 0x3dadd1203d8183f0U, 0xbd4162623d33f09fU, 0x3d1fea3abe4d049aU,
  0xbdd7e872bdd0e876U, 0xbd34a404bd95bcc7U, 0xbeb61992be5b1927U, 0xbecd85f5bd7dc065U,
  0x3deb44f43dfec98cU, 0xbe02747d3d94a90aU, 0xbca65be23e5021a0U, 0xbcf8f2e1bda750c6U,
  0x3de722263da45426U, 0x3de529163c2630f7U, 0x3dc7552c3dfa7245U, 0xbe22e53ebeb2ffe2U,
  0x3e0435f5be3da9f6U, 0x3dcb1b4b3d03e922U, 0xbe37ee73bda671e1U, 0xbe1f3b543dd514a9U,
  0x3e0348573da7a595U, 0x3d8737893dc52bdeU, 0xbd5e801ebc6863d3U, 0xbcf264b93d44571bU,
  0xbd950b1a3e07a3fbU, 0x3d155a213da05667U, 0x3db70af23db2f3b9U, 0xbd68e954be001a81U,
  0x3d496507bd85086fU, 0x3dce52633d1fc532U, 0xbe924b68bdb3ee40U, 0xbe80799dbbad8925U,
  0x3dc1d3e93e65f51dU, 0xbda7eb7e3dc9d86aU, 0x3d04bc703dd4d8b4U, 0xbd486b20bc5b76f9U,
  0x3d06b2813d23e0dbU, 0x3d8d7e4a3e0f00a3U, 0x3da6743f3d97cd07U, 0xbbb66a98be6e8157U,
  0xbd1d74cbbc5e64b1U, 0x3dff63abbe49a808U, 0xbecbf562be4d9731U, 0xbef231fdbb9b0d9eU,
  0x3e186a213e6d9faeU, 0xbdff1dc03e7ea015U, 0x3ca42cea3d6269cdU, 0xbd873972bdceefa6U,
  0x3e0e72a8bc1430c9U, 0x3e0252f0bd81d30fU, 0x3e7d1f2b3e0068d5U, 0xbda471cdbe9c2f86U,
  0x3e1aaad3be258504U, 0x3dcf562ebcaea2f4U, 0xbe635236bdfac106U, 0xbe07ad583cb4d434U,
  0x3e0866743e636957U, 0x3d3ebb213dc9c2d3U, 0xbe14078bbde5896dU, 0x3e27f8553d5aa2e2U,
  0xbda5f88f3dec8331U, 0xba09e3f63b289ac4U, 0x3e02ca803c9fbd70U, 0x3e0b9a5dbdac2a38U,
  0x3d974066be13924dU, 0x3d1a5600bd83fc81U, 0xbdf7d7eabe1677a5U, 0xbdfc71153ce4f992U,
  0x3d8f1c0e3e604f5cU, 0xbd87fb383dd9eb1bU, 0x3a1241e13e2b659bU, 0xbd7f4d8a3cd56428U,
  0xbd1d53903d064639U, 0x3d1d1b143e019270U, 0x3cf4a2323d9f09ddU, 0xbd838986be49e297U,
  0xbd9a263e3da00fecU, 0x3d90eb26bdbe5503U, 0xbe8f2ff4be4d0797U, 0xbec05ecc3d7bbd71U,
  0x3daca8cc3dfde586U, 0xbdccb2473e213909U, 0x3dbd9ea23ddebddeU, 0xbe26b99fbd2f3eadU,
  0x3dd02c693d003cd6U, 0x3e16a78bbd35dba7U, 0x3e36957d3e30eeb7U, 0xbe1b1806be92282dU,
  0x3d489338bba81532U, 0x3cb7f75e3d321252U, 0xbdf1252ebe167a0fU, 0xbd12f87d3dc98a89U,
  0xbcdcc8f83d792781U, 0x3d90f596bc835671U, 0xbbf1dec0bd2705adU, 0x3dd004da3a86a64fU,
  0xbe2322f23d7be33eU, 0x3d52e5753d9e1508U, 0x3cb460993d5d7b49U, 0xbdaeefbebe5db3f9U,
  0x3d33e7db3d1b872aU, 0x3e534ba53d9079dcU, 0xbe0717b3bd1b976fU, 0xbdda8dedbd334a02U,
  0x3d73af57bd90f5b3U, 0xbda320713cc021b1U, 0xbc83acf93dbccf27U, 0x3dd3ec70bcfb7c95U,
  0xbb55f3543da41ba9U, 0x3d3b364f3d90e94fU, 0xbc57ad3cbc23688cU, 0x3df5f7eabde9dbb5U,
  0xbd81caedbe06abddU, 0xbc86840abd85d3c6U, 0xbec6b812be43655aU, 0xbecf7984bd81631aU,
  0x3e055f0e3dddf614U, 0xbe11dd8d3dc5c6c5U, 0x3c379c6c3e5bf427U, 0xbdcc8b4fbde19818U,
  0x3e05ab713d914599U, 0x3decd6c43d0662c4U, 0x3dd46f713e04bafeU, 0xbe07726fbec98a10U,
  0x3d9d0f19bd211df1U, 0x3dd6b283bb985a70U, 0xbe7d0f46bd47e247U, 0xbe1f9ce03ddaee49U,
  0x3dfbed603ce85936U, 0x3d65cd773d82124aU, 0xbd6caee8bd218f63U, 0xbd527c6f3d29600eU,
  0xbd8f41763e26e9cbU, 0x3dbe0ad83d9dec46U, 0x3dbd869c3dabbd80U, 0xbda7e7d2bd85ff4dU,
  0x3ce651a1bcd2477dU, 0x3d2aaa4f3d48653eU, 0xbe79de3cbda55d31U, 0xbe8a88e23ca6bde4U,
  0x3e120ee63e68efe6U, 0xbd7448053d369d94U, 0xbdb8647d3dc5b6e8U, 0xbcfdbbddbdaf8946U,
  0x3cc118233d9791a4U, 0x3bff4fc03de46adfU, 0x3d447d3c3dcd03baU, 0x3ca4b9febe744a77U,
  0xbd2830bfbcbecd9aU, 0x3e21631ebe5987c1U, 0xbed80e1ebe55ff79U, 0xbeddde2d3cc93a2eU,
  0x3e2955203e7cd68dU, 0xbdca90933e7c7555U, 0xbc8467453d6fc1c7U, 0xbe10bb3cbdd14fc4U,
  0x3e2869dab9e4c16eU, 0x3dfc19f3bd553ef6U, 0x3e6a480b3e2b53dcU, 0xbde93d04bebf7400U,
  0x3dc7d9dbbcbe397bU, 0x3d9fb899bc912f11U, 0xbe482849bdc3eee1U, 0xbe02b0b33d3339e6U,
  0x3dd44eb43ea08566U, 0x3d1747953d219640U, 0xbe31913dbd9393bfU, 0x3e143c5a3c2cce68U,
  0xbde0f4093e3bc744U, 0x3d9509c63baea844U, 0x3df54f1c3d48b838U, 0x3d9e3450bdc8404fU,
  0x3c146b43bda0f5d3U, 0x3d46035cbb07b7bcU, 0xbe86d80ebe25a237U, 0xbe02e65fbcad1b89U,
  0x3dc136963e86ca4fU, 0xbda959f63e13cdaeU, 0xbe0356f83e4141cfU, 0x3d2699383cd9ad33U,
  0xbc8e0eb43d61abbfU, 0x3db3c2413da693c2U, 0xbca5065f3d19aec9U, 0xbc4da411be43692cU,
  0xbd9e708e3d834b12U, 0x3d82d0b1bd9286c1U, 0xbec3e101be53696eU, 0xbebe49183db21626U,
  0x3db7ee093de19af6U, 0xbdac533f3e274ab3U, 0x3c8127593e0e1c46U, 0xbe4da9b4bd6d26c0U,
  0x3de7a9553da709c3U, 0x3e07da4cbd1f501eU, 0x3e1ca5aa3e4e908bU, 0xbe13ffdcbe955b14U,
  0x3b9427153df5bb46U, 0x3e83aa23bdda03faU, 0xbe6cdb643e9290bcU, 0x3e0c0dbcbe18af76U,
  0xbd811167bdf6a2e2U, 0x3d8f2e49be27fe1cU, 0x3db5faf0bd60db3fU, 0xbe3a40bdbd9b784cU,
  0x3d68e3ef3db69760U, 0xbbd2a484be385944U, 0xbd52f8eb3d392e6cU, 0x3dd8f7ac3e5cc32eU,
  0x3e69828f3d1758f5U, 0x3ef33e1fbea5f266U, 0xbe771437bdc50b0cU, 0xbe1c8f8cbe0c795dU,
  0xbe4ddf2cbe12a1f8U, 0xbe4e1990bcbf5c5aU, 0xbd6e74043e4161a7U, 0xbd6c419ebe0ecccaU,
  0x3e1ac91fbc5cb168U, 0x3ea2c5b0bdc86defU, 0x3dfa50d13e9602f2U, 0xbd95883a3e90b849U,
  0xbca4e6f43e0ccf2bU, 0xbe907937be89a367U, 0x3c904a193e5b140dU, 0x3e941feebe16abe1U,
  0x3de59aaebf08307bU, 0x3d427b203cfde1aaU, 0x3e4d3adb3e393443U, 0xbc16cb47be83b80aU,
  0xbb796bba3d9082a2U, 0x3e90e2ebbdbdebe2U, 0xbc27e18ebd8ec741U, 0x3c26b8ad3e1284fcU,
  0xbd3e0c71bddea2bbU, 0xbde59c06bd34791eU, 0xbe9a194c3dd02626U, 0x3e1c78edbe2f89aeU,
  0xbc8e0608bb2a3c56U, 0x3e37a0113d92b131U, 0xbd42b20fbdab971dU, 0xbd5d0528be3f5f31U,
  0x3dd0eaaabe305a98U, 0x3e2cf904be04923fU, 0xbd70fc9bbd9d5e5aU, 0xbd36f8bf3e0b941bU,
  0x3dad6f273e15d1ebU, 0x3e42c88bbd968269U, 0xbebc9b733db69b91U, 0xbd0e131c3ce5858cU,
  0xbde04bf8bec020d7U, 0xbc9a1d06be21ab47U, 0xbd43c2723e262dc7U, 0xbb929923bd55a06eU,
  0xbe5220433c6828c8U, 0x3df2a884bdab76cfU, 0xbd8a7e50bda687a0U, 0x3dbddc033cbe59dcU,
  0xbe4a03ba3e14ae78U, 0xbe5ea7ef3d4286cdU, 0xbdd462dbbdb0296eU, 0x3e6a9948be4dc43bU,
  0x3d25918cbf34705dU, 0xb9d72a283d6bc677U, 0x3d95d1713da7cb10U, 0xbcee94f4b996a6b6U,
  0x3ec91ec33e85c970U, 0x3eb45bc03d822164U, 0x3d837c8ebd570325U, 0xbdd50b07bd45618dU,
  0xbe1287203d3e5be0U, 0x3e91da613e21a11fU, 0xbd9d78ef3e52a94fU, 0xbb9663bf3d1cd8a7U,
  0x3d44bcb93dbe8f03U, 0x3de679763b289ac7U, 0x3c65e17d3d752091U, 0xbe72f833bd2fc186U,
  0xbc349b47bd8868b4U, 0x3e8ae0a4bea21e12U, 0x3d3d02f13e17a9c4U, 0xbe4aa62ebe16ff47U,
  0x3e35e98c3d811727U, 0xbe00d980be14f77cU, 0xbdc39fdb3dd5baedU, 0x3d8822873d3bc22bU,
  0xbe9051bcbee56477U, 0x3d82e6453d64d6e7U, 0x3d175e743e4794e9U, 0xbd47abacbe92d70aU,
  0x3dc46e3abd02d4feU, 0x3e802b78be14e6a8U, 0xbd6b367dbe62ae71U, 0xbdf6e84f3e9e233aU,
  0xbe2218c3be0c4206U, 0x3d0e55afbdd8d9ffU, 0xbefbb82bbe6362bdU, 0x3e6e438bbe93bb3cU,
  0xbdef593abf22a1f0U, 0x3d1737123d068dffU, 0xbb5c3bb23b000397U, 0x3d959da8be2996d9U,
  0xbe025bc1bcce98dcU, 0x3cb88f83be0da0ffU, 0xbda705a4be4d77dbU, 0xbc75a0523e3eddf8U,
  0xbdda96843c29ecbcU, 0x3db05862bc195c88U, 0x3e2fd4da3cdefed7U, 0x3e1de1183d507b8cU,
  0xbe12c9293e737989U, 0x3e15649bbdcc571dU, 0x3e15bb563d4abdfcU, 0xbd69e1463e12afb0U,
  0x3de3f6963d1fa9b3U, 0xbca17ba7bd916180U, 0xbd56da2cbe1f4988U, 0xbbd4e4853e1ea29dU,
  0xbdcd841f3cd0b886U, 0x3ecd1cf9bd988533U, 0x3e21fd133d93fad3U, 0x3de8da51bd12425eU,
  0xbdbd9bd33e3b7f4aU, 0x3e101fabbd962428U, 0xbd38eeef3da99dffU, 0xbd0771953d9de85aU,
  0x3e1f1ecbbda9a8dfU, 0x3de70eb8be035a91U, 0xbda14d38bd9c8762U, 0x3db76bbc3dd06ae3U,
  0xbcbf3a603cd03307U, 0x3eb96119bdc8427dU, 0x3e4333573d817b65U, 0x3e03887e3dad6d8bU,
  0xbd732bc13ec0849eU, 0xbb108ff5bd75fe8bU, 0x3d10ed093dcd774bU, 0xbdb20a943c91494fU,
  0x3dab4004bca09f06U, 0x3e06f194bda4a5c6U, 0x3b46bc203d6b141dU, 0x3d9a87cc3dee9caaU,
  0xbdbd074dbd35509eU, 0x3e3e9cc4bd9c2411U, 0x3e3be2193df8beb6U, 0x3e72d237bcb9360dU,
  0xbc2e81ed3ea34ecaU, 0x3e608ecebd13c02fU, 0x3e3779013d815cb1U, 0x3d4cd0133e38858eU,
  0x3d8b4c2cbdc2aab8U, 0x3d94bb0abe13f21bU, 0xbda38f62bd8ecc77U, 0xbd31f57e3e155fdbU,
  0xbe11d2433e360b89U, 0x3e994ad0bd78d299U, 0xbe52140b3da12ec9U, 0x3e07b68f3ccc661aU,
  0xbc94b7a93ec4ffbfU, 0x3e57cf01bdb3f42bU, 0x3df9a1163c689dc8U, 0xbdd8ec933debb467U,
  0x3daa8ad9bdf37cffU, 0x3e7a20a5be17f524U, 0xbc16d408bcbfa9a8U, 0x3e1e0e1a3c839785U,
  0xbda790603e0df94aU, 0x3eceea0bbdca3be0U, 0x3e4ec4773dd708d3U, 0x3e1443103d8f0399U,
  0x3cecd6723ef90be6U, 0x3d76b349bd1a55a7U, 0x3dd988cb3da9cec8U, 0xbde92268bc6557c1U,
  0xbccafa00bdc9221fU, 0x3e459b95be10f2b8U, 0xbe07b8f7bd057f54U, 0x3c4024e63d7793c9U,
  0xbd4d8d08bd7ed00eU, 0x3d02a729bd915e7fU, 0x3e15123a3e074629U, 0x3e6486b2bc4a0132U,
  0x3c81c21c3f099cadU, 0x3e3d866fbdc9d411U, 0xbd913dc63d86b965U, 0x3e046ca63d96f601U,
  0x3e10329dbbb138c3U, 0x3e279368be53bc40U, 0xbdb3c496be69c6b8U, 0x3dc000ea3e238af8U,
  0x3ab409f43dc41965U, 0x3db88fe6be258d6dU, 0xbe06eb643d161b6dU, 0x3e37f30c3c57276fU,
  0xbd372fa53eb61b87U, 0x3d8458d8bdb0453dU, 0x3db652173d84014cU, 0xbdb4abc63deeb8bdU,
  0x3e40b7cbbdce10fcU, 0x3e1bf397be18e0baU, 0xbde7b5cfbdb3fba6U, 0x3d508a1bbd93bcacU,
  0x3d592373bd29455fU, 0x3e9d8d0ebe6a7be0U, 0x3e3ade6b3d747dc6U, 0x3e44ffa33decbd03U,
  0x3cefa2d43efc627bU, 0xbd12ba8dbde5758cU, 0xbe45b4d13d6529a9U, 0xbd857edc3c13de90U,
  0x3c838887be2ff2feU, 0x3da1b843bdce7d39U, 0xbe3e46cbbddbcedcU, 0x3e28650fbb9752cbU,
  0x3dd4eb47bbe595c5U, 0xbc9e951d3cd9c016U, 0xbe185bf2bd93693eU, 0xbd9a096a3d18ee33U,
  0xbc820e75bdf30a6bU, 0xbdec4d3fbcb73ec0U, 0x3bf6fdb1bd8e3f97U, 0x3de7c53ebdfb3022U,
  0xbe05c7543c0e767fU, 0x3d783a6c3d7329a7U, 0xbd2b9d7cbd7d4c80U, 0xbe0642eebe506bbbU,
  0x3e016d263cb56dc8U, 0x3da3a0b2bd53e49dU, 0xbdc343f8be210284U, 0xbdc983533cc6c0f2U,
  0x3d6c0043be7e091eU, 0xbe592034bd238ee1U, 0xbd61f4a03d3c11f0U, 0x3d9349c8bdacdb60U,
  0xbd4502ce3d8da7d9U, 0xbd147d983d201792U, 0xbd62214c3d7895f1U, 0xbd1d9bb7bdf56627U,
  0xbdd8e47abb8af7d9U, 0xbe9f7127bcebeff1U, 0xbec2f9efbe5e04baU, 0xbeb9415ebe2cdd91U,
  0x3da8fac5be8fdcceU, 0xbe4282963d8c4628U, 0x3d1875f73dfe4f3bU, 0x3bed3ed4be0911d1U,
  0x3dd1d1bc3ded7d20U, 0x3d50500f3cbfc571U, 0xbd043726bc589bcaU, 0xbe93f058bec213e1U,
  0x3d624c7ebd08fce6U, 0x3d5a8274bbfc2c72U, 0xbe965bfcbdc4604cU, 0xbe5c6ea83d466fd1U,
  0x3da2567ebe971233U, 0xbe06875f3cbc5cdaU, 0xbdc5e8f8bd9b0254U, 0x3c20c656bdd69d33U,
  0xbde7cdb13dc409a1U, 0x3d8633ff3da7195aU, 0x3c9884b73d7ed6dfU, 0xbc47f99bbe348949U,
  0x3db68d2d3d0f9c71U, 0x3b796c8cbc97548dU, 0xbdbcca83be012167U, 0xbe9e01cbbdc147e9U,
  0x3d53a25ebdb79bbdU, 0xbe0a1b70bb7acf97U, 0x3c0517713d30aa82U, 0x3c48be35be0a30aeU,
  0xbd7434f03c1ac671U, 0xbd6a7e8f3e12002bU, 0xbcc73801bc15737dU, 0xbd7969e0bd8baa32U,
  0xbce13582bdb3f94eU, 0xbe7115dcbe174134U, 0xbed0367fbe7accbfU, 0xbeceab0bbe187279U,
  0x3d40bff8be83dc09U, 0xbe1d92783e3d10e0U, 0x3e1f5ac33be0a7fbU, 0x3d9d3d13be3716c3U,
  0x3de5372cbb72d767U, 0x3cbc68e8bb252d4fU, 0x3e08d9783d5a5f1dU, 0xbe84d10fbeed11b9U,
  0x3e27b546bd8d42d7U, 0xbc52292bbd0634f1U, 0xbe591a8cbe231970U, 0xbe458c853cb53ee7U,
  0x3d214a26be240e2cU, 0xbe1da3763cb4c739U, 0x3dc96a07bd7b9778U, 0x3e0b6d37bde7644bU,
  0xbe043aa83d52a8c3U, 0xbd833ee13d38e005U, 0x3d10c2f93d2873e6U, 0x3c7d71a7bddc31bfU,
  0x3d459caebdf63418U, 0x3da7c189bc9db22cU, 0x3b291c6ebe1b398bU, 0xbdac06c0bcfab7dbU,
  0x3ca493f73cdfaf41U, 0xbe2187b53dbbe3fbU, 0x3c2156a23defe780U, 0x3d87a91abdb8b369U,
  0xbe07edaa3ce072c4U, 0xbd88ed883d761c68U, 0xbd801cf83d6c55ebU, 0xbdc62a6ebdd0a85eU,
  0xbe11a36b3c5d434fU, 0xbe2c728abd0acf6cU, 0xbea93fd9be833280U, 0xbed4657bbda135bfU,
  0x3ce13f41bef91017U, 0xbe16b6a53e205ce7U, 0x3dc71d4b3df51e48U, 0x3cdac3d3be039667U,
  0x3d8a716c3deff94fU, 0x3dd2964cbcb586a7U, 0x3e2acbb83e03ff47U, 0xbeda2f10bea0aa9bU,
  0x3e1e7e73bbbd61f2U, 0xbdff81193ddcd0aeU, 0x3ef4ec4fbe8f6497U, 0xbda06e8a3e1b683fU,
  0x3d0733413ebfc02fU, 0xbdd3aed23e3cdd3dU, 0xbe062e17bc614faeU, 0x3e595b7f3d4e31a2U,
  0xbd4f1434bd76b6e2U, 0x3d34d0093ea460f5U, 0xbcab69f73d4e6edfU, 0xbe2e8852bebd0c93U,
  0xbdc99170be1f8d11U, 0xbe334eed3e9b776eU, 0x3eb5d7c8bd0c5fe0U, 0x3da5c6e23e9f2b97U,
  0x3e74a1023d441608U, 0x3e0227f03c8ca729U, 0x3e08a00dbd4462a3U, 0x3e11d5f13d4555c2U,
  0xbe75a2dcbcdf8a4cU, 0xbee27d373cb29de0U, 0xbc84e3f0bea43662U, 0xbe04bb07be8ed895U,
  0xbe38b852be8fbd0dU, 0x3e6686233ea96142U, 0xbd90dcd1bec05b5eU, 0xbef369b13dd8f0cdU,
  0xbd74342a3eeeb921U, 0xbe5d36e53d2e9338U, 0xbe3b4014bd538062U, 0xbd6494c73e58b86cU,
  0x3ab66c4fbdc01efaU, 0xbe7c5c243ad50b55U, 0x3e3932123db45833U, 0xbde91dc0be9af3c9U,
  0x3ac133443d021654U, 0x3d5ecc783e308e73U, 0x3e890cfebe8d9ff3U, 0xbdceb2713e06f0f2U,
  0x3e71eeeb3d5dea0eU, 0xbe4cd5bebe32ad49U, 0xbda216283def9ce9U, 0x3d85375a3ddfddaeU,
  0xbe8817c53e818b04U, 0xbe5e0c563e9c5e02U, 0x3c1dc81c3e03064aU, 0x3cb5ad83be73cb6eU,
  0xbdab9e873ce9acb4U, 0xbdc558dd3e43566eU, 0x3e97e554be9c75cbU, 0x3d4b4b9bbd626894U,
  0x3e4425bc3f5e81c9U, 0x3e4313f13e6924a3U, 0xbd4fcac3bddd3c7cU, 0x3e25dbc73dc3a75aU,
  0x3d6844403c76c1a4U, 0xbd72f86a3e24789eU, 0xbc187d7a3cd44420U, 0xbc3298fabe8aa3c7U,
  0x3d08470d3dd803aeU, 0x3e8b27d9be052d73U, 0xbe2fb9373da9e369U, 0xbec6143f3e6cf1dcU,
  0x3c7ca0c53f26c5eaU, 0xbdc94a1c3d44d10aU, 0x3d02f78b3d52af27U, 0x3d9801113cecbcd7U,
  0xbe8cca08bda79e6bU, 0xbe4d28e4be477a7eU, 0x3d8814b53dcea52cU, 0xbdb84a823cb764d2U,
  0x3d67b5733d4cca71U, 0xbea90fbebdb7fd2fU, 0x3dd14210be335e0cU, 0xbd057612bd422279U,
  0x3df34125bd73b651U, 0xbe72c0983d0fb4e2U, 0xbe29a4f2bd032a20U, 0x3e462cddbcd4da2bU,
  0x3d4f6c3c3e4c632cU, 0xbe16f2623ef83d66U, 0xbd908b6bbdbf25d3U, 0x3e684c213ded5a82U,
  0xbddb8a3cbe470811U, 0x3ecbc5a73e10b532U, 0xbc1ca6babe73d9bfU, 0xbe30c4c0bde87163U,
  0x3ecccdb63f40c422U, 0xbe52e50a3e2b72f3U, 0x3c46ee9bbd42bdabU, 0x3d29e5e13e57f139U,
  0xbd8cd28a3ea95882U, 0xbe7ab25d3e27a5b2U, 0x3d0be29c3dc24f8cU, 0x3e8b94fabe5ede00U,
  0x3e1062ae3d9e7936U, 0x3d118d4bbcaeab40U, 0x3ebcb21a3e8123d3U, 0xbeb3bc293e4a9770U,
  0x3db906963f145049U, 0xbd8a81103dbd992bU, 0xbd08ecc83dee130dU, 0xbe18f344bd79c8f2U,
  0x3e258d8c3d37d693U, 0x3e8014cc3de5151cU, 0x3e800ee33dbd6104U, 0xbe1f2583be81c503U,
  0xbdaa717e3e1a7261U, 0x3e23d06dbd4c496eU, 0xbd923da93d635d82U, 0x3dca8df03dd8b835U,
  0xbd7d1aab3d3c22daU, 0x3db4d482bdac04aeU, 0xbd3a94c2bcd0ed09U, 0x3df7d0debe0c10fcU,
  0x3d9ee67e3a7cd739U, 0x3e236ad2bd4feca9U, 0xbd4b8f5b3cf4e023U, 0xbd4473f7bc3db62aU,
  0xbcdd474ebe0da5b1U, 0x3ea6bb16bd8aceb0U, 0x3d8ccd25bd61c60fU, 0x3db8ddb43d992763U,
  0xbcf9c1b0be3d92ccU, 0xbd926840bcd59270U, 0xbda4e7e63e7fe54cU, 0x3c6b13bcbdeaf7d6U,
  0x3e0fd4e93dd00250U, 0x3e44cb95bd30a779U, 0xbd3378a33d5d4f52U, 0x3d60560e3e10e000U,
  0xbe833a0abca1e121U, 0xbe597011bde3d405U, 0xbe804ea7bdf607b7U, 0xbe13d259be3f9e6eU,
  0x3d24aedcbd6eff5dU, 0xbdfed94f3dc60b0eU, 0x3b46344e3ea30effU, 0xbd095d17bdb6f87eU,
  0x3eb36f823e0f0dc0U, 0x3e4275bdbd3fb5f1U, 0x3be882293d6f8f51U, 0xbe64141cbe31f168U,
  0xbd9e69cdbc3ab781U, 0x3e316ee8bd536db1U, 0xbe6d45713d0d3beaU, 0x3cc0abe73d6726faU,
  0x3cdc2e6bbd90b0c7U, 0x3d8e6f78bb60744eU, 0x3d0ed698bd488deeU, 0x3c8794b4be191bffU,
  0x3d0c22f33d0e3c39U, 0x3e950495bd0e7e93U, 0xbd8adb013d5a14c3U, 0x3dae38483bb13e0aU,
  0xbcf568ec3d3ea6a6U, 0x3e7cf6ebbdfc0e13U, 0xbcb77f12bcd9f28cU, 0xbd7a78dabdbd3943U,
  0x3d95c1cf3e299e76U, 0xbcac010bbd42fe5fU, 0x3c3db25c3de896bfU, 0x3c4f22f5bdfab103U,
  0x3d059250bda18da2U, 0x3e6f5d2c3c1657c2U, 0xbd6080163d14e496U, 0x3d5f5ea23e0fac2dU,
  0xbe4671fbbd3bdeafU, 0xbd3c21bcbe1d050bU, 0xbeb3f4fbbe1dcedaU, 0xbe24acd3be149c13U,
  0x3cf0fb64bd5e8038U, 0xbd31c2093e808b64U, 0x3e60a0873e251a61U, 0xbd8d304bbe023250U,
  0x3eac2ae8bd31cbd2U, 0x3e7ab0bcbdaf10beU, 0x3deab0e33dd9b940U, 0xbe409de6be9203efU,
  0x3cf73a6cbe4df1d8U, 0x3e460c79bd8a9f42U, 0xbe1beb93bde05dd6U, 0x3d305401bb860ebaU,
  0x3d1e96083cc6294cU, 0xbb7e46cabcb43257U, 0xbce2f7953d7386d5U, 0x3d83cb6ebde0c57fU,
  0x3b82b0e33dbe6a28U, 0x3e6a5e78bcd14e78U, 0x3cddc3b23bb8ed4aU, 0x3dad83773cd17ae5U,
  0xbd42dc0ebd03a4eaU, 0x3e8467afbe09a025U, 0x3c667593bd8f2d97U, 0x3e3f0767bd14f3d5U,
  0xb9db84e93e8364d1U, 0xbde7ab9d3bf244feU, 0x3d68c8413e630f0fU, 0xbe0a32d5bda33ff5U,
  0xbcd1e64d3cdba655U, 0x3e738654bb128e06U, 0xbe005cf83d1b6ac9U, 0xbdc32bad3d878728U,
  0xbe87661cbccb79c4U, 0xbd4d3497bd4d13f2U, 0xbe9babeabe3db2bbU, 0xbdfe85dabd9282e6U,
  0x3ccdca10be994217U, 0xbc8224313e53888dU, 0x3e0481c83ea594acU, 0xbda1fbb4bd2a4c8fU,
  0x3e9398803d1972a1U, 0x3ec11d9ebdfaa753U, 0x3e3728e53def910fU, 0xbebcda7cbdb53b62U,
  0xbd213a33bda7667eU, 0xbd8714fa3a70c0c3U, 0x3e31b4233db78e77U, 0x3dec276dbd2801e8U,
  0xbc4a44383e482277U, 0x3dfa48d63d6ec647U, 0x3e1b533b3d95782dU, 0xbdd20b9c3e07dbf7U,
  0x3e09c223bccba3d7U, 0xbd9ebca4bdc8c90cU, 0x3c828684bc550449U, 0x3dd19f5a3e82ca3bU,
  0xbdbfc1363c58de20U, 0xbd54b382bc7868b2U, 0x3e2b5ec73dd7e68bU, 0x3d29da6dbc3ddb6cU,
  0xbd1e8ebe3ea9acfaU, 0x3e6b964b3d0b6307U, 0x3d64796cbdaa8339U, 0xbd40a3663daa071bU,
  0x3d06bcf1bde3ed44U, 0x3c52d554bd8ba402U, 0x3dac85a1bc97da45U, 0x3d86c8e43e12ed2cU,
  0x3df20b86bc6dfc99U, 0x3ed82a0e3d096a97U, 0x3ed641693e8fa34fU, 0x3f0119063e3d4389U,
  0xbde396a13ea9c3ffU, 0x3e34ea00bcfabef2U, 0xbd40e435be0747d3U, 0xbc121dfc3dd767e4U,
  0xbddc3138bdce77d6U, 0xbd50bb3bbbba103cU, 0xbcef035abd55d566U, 0x3eaa8d9a3ee2c4e7U,
  0xbd95d7513d8e9602U, 0xbd2fff31bc445a93U, 0x3ecc08733dcdad7dU, 0x3e8ba70ebd53cb8dU,
  0xbd7f08123e7d5f09U, 0x3e23ae0abd8fb301U, 0x3dc8e49e3da43f34U, 0x3c2caf9d3dbd03ccU,
  0x3dbf240dbd6d87b8U, 0xbcda6532bdc39939U, 0xbd127ed5bd97de06U, 0x3d0b21603e739f6eU,
  0xbdf21f633d75850aU, 0xbca0445d3b891e97U, 0x3df0d9a53e42f747U, 0x3e9bde463e0f5daeU,
  0xbdb45cc43e11b181U, 0x3e3c5c6bbd34cf83U, 0x3df74f1ebd7ee05fU, 0xbdb8072b3e3f7864U,
  0x3d8b0693bd2d8087U, 0x3d862960be128a14U, 0x3d45f394bda5fe33U, 0x3d6f641f3d9cd424U,
  0x3cef9c393c2afa37U, 0x3e84df9d3e2be414U, 0x3ec4c9723e9fed62U, 0x3f0335ea3e5a5e0bU,
  0xbd987d653ea4e636U, 0x3e34d954be48eb37U, 0xbd867a9fbd09502dU, 0xbdfa2f403e3949b6U,
  0xbdf5d7d8bd06f4aaU, 0xbd0cab86bc0915d2U, 0xbe377fc4bd442635U, 0x3e89ffba3f0064edU,
  0xbdaf3b0abd1c74f8U, 0xbd049d693c52d223U, 0x3e7e65f13e649fdfU, 0x3e77fae5bd1cb3d1U,
  0xbd92ef0e3e225088U, 0x3e4baeecbcc6621bU, 0x3d81509e3d120358U, 0xbdb0f3843db6d7aaU,
  0x3e0daae5bdc92c5eU, 0xbc387f18bde21fa6U, 0xbdb70545bd4659ebU, 0x3b09e7db3e362100U,
  0xbd488b683d9f92deU, 0xbdafadc33cadd85dU, 0x3cb55b233e15f61bU, 0x3df8bea83ce00625U,
  0xbc6a979ebdcacb05U, 0x3e2b1375bc1d85f3U, 0xbdd0ea9bbdeccefbU, 0xbd2329693dd4764dU,
  0x3e291d53baf767b4U, 0x3d46d886bdacc2a6U, 0x3d611834bd95c9afU, 0x3e0599ed3d0f5572U,
  0x3e3fb98abd8db426U, 0x3e59cd75bb9a4702U, 0x3ec98da83e985f7aU, 0x3ee082cc3defb58cU,
  0xbd30abab3f100f0aU, 0x3e0b51b9be5bff60U, 0xbe1dac87be067feeU, 0x3c296c623dca395fU,
  0xbdc9fb4cbdf6b372U, 0xbe13f2263cd4ac11U, 0xbe737ec0be33e28aU, 0x3ef89a353eba7ccbU,
  0xbe5650993e887351U, 0xbeaefbd93ed10631U, 0xbe8b487bbe7096b9U, 0xbd9071ba3e4a8617U,
  0xbe2fe246bb8e0dc6U, 0xbb62ef353e66e14eU, 0x3ea26d8abddeac36U, 0x3e81089fbd92c6e6U,
  0x3f323ea83f0124c2U, 0x3ddbc48bbeb08527U, 0x3e7a4393bf073bd2U, 0x3ebbb41dbea5add3U,
  0x3ebdebaf3f99b5a1U, 0xbd6331ef3ddb78f2U, 0xbea67affbf0b779dU, 0x3f01fc313fa3bd73U,
  0xbf9fae38bf238edaU, 0x3eee20113f7b02a3U, 0x3e9769e53d2ce768U, 0xbcfe84403dcca209U,
  0xbe05eae3be9e63b4U, 0xbe123718be76e845U, 0x3d8539dbbf036fdaU, 0x3eb8ef45bee536a6U,
  0xbf16ad713de3d030U, 0xbeb25e4e3ed3f224U, 0x3e60fb643d171668U, 0xbe9f541ebe1513d5U,
  0x3c8743743ecd7619U, 0xbebaa9503e7fe4fdU, 0xbff796fabf103fa9U, 0x3f5c61c23ec55d39U,
};


ai_handle g_network_weights_table[1 + 2] = {
  AI_HANDLE_PTR(AI_MAGIC_MARKER),
  AI_HANDLE_PTR(s_network_weights_array_u64),
  AI_HANDLE_PTR(AI_MAGIC_MARKER),
};

